<s>
[UNK]
[PAD]
[CLS]
</s>
[MASK]
[SEP]
"
$
&
'
(
,
/
0
1
2
3
4
5
6
7
8
9
<
=
>
[
\
_
`
a
b
c
d
e
f
g
h
i
j
k
l
m
n
o
p
q
r
s
t
u
v
w
x
y
z
~
##h
##i
##n
##a
##w
##e
##t
##p
##o
##c
##k
##g
##f
##r
##x
##m
##y
##u
##l
##d
##b
##z
##s
##v
##q
##j
##9
##0
##1
##2
##3
##7
##5
##4
##6
##8
th
##ou
you
be
##er
##at
the
##an
do
to
no
wh
##ere
go
it
18
14
##et
##ll
22
38
26
##in
30
that
42
34
on
##ea
46
50
##om
not
what
##or
ok
##ee
##is
58
54
##it
##ut
##ay
##ow
##ve
##oo
we
##nd
your
##ant
##se
##ig
want
##ke
##le
here
##ck
##ar
get
##ome
in
ha
sh
and
oh
there
he
##igh
can
##ight
this
one
yea
have
yeah
##st
##ook
##on
##ill
st
##ir
##ld
put
##ch
let
ba
of
see
##ur
they
##ing
li
come
##ake
##od
##en
look
##ce
up
will
where
good
pl
right
##ie
for
##th
like
kn
##ink
##ith
she
know
with
##me
all
ju
some
us
tr
##ould
so
out
##id
##ead
now
think
al
##es
##ver
say
ch
how
play
at
##wn
hu
##tle
##ick
##ore
just
who
an
##op
##mm
down
##ra
##and
##ind
##ose
mom
well
or
##ot
##ittle
make
little
##ad
wa
##by
##ther
huh
##my
car
br
##ide
back
bu
mommy
re
co
##ell
##ive
##sh
more
##au
##ain
too
alr
##ic
but
##eed
bl
wat
##all
over
##ge
if
ah
##oh
take
pu
then
read
##ter
##ap
uh
need
##out
##ry
my
bo
alright
##al
##ice
ab
##am
##un
##pp
tur
##ause
##ank
##ty
bec
mm
because
##one
##ly
eat
tw
fr
gr
big
##mb
thr
jo
turn
cl
baby
about
##ab
##eth
sp
why
##ame
pr
##dy
give
##lor
thank
##ish
ho
hmm
##ure
##il
off
mmh
color
those
##ue
these
hel
sit
hey
find
two
mmhm
yes
##ear
ro
##ff
##uck
##gh
##eep
book
help
would
try
should
dad
el
gu
##mber
ne
when
other
wait
##ess
any
##ast
ar
hold
##ack
dr
wor
##een
aw
his
##be
hand
##ound
##ite
##ough
##ime
job
sw
som
##as
##other
##ong
##ove
##ery
watch
ag
may
fl
##ard
##ip
##air
ready
rea
nice
##ine
##art
##mp
uhoh
##ul
way
tell
whi
again
by
show
sl
##nt
##el
ball
##oney
very
could
##day
##ease
water
daddy
##ething
something
##lly
please
maybe
##ct
time
##ep
guy
her
mu
##iss
fir
blue
another
##ock
##ed
got
away
pie
honey
pick
##ama
foo
##ef
##up
##side
piece
lea
thing
##ro
mama
##raw
reme
remember
##ool
gir
##gg
red
use
##ace
stick
stop
else
sc
##age
work
se
##ix
sn
man
three
which
green
op
pic
##our
me
girl
##ouse
as
##ny
##ture
##ange
really
leave
pret
from
##ah
picture
hi
##mo
throw
kind
boy
caref
##nder
##ss
open
##zz
careful
name
push
cou
bring
happ
hur
yell
fall
um
cle
oop
su
around
first
cat
##eak
##uff
yellow
di
clean
##oe
keep
ooh
##eet
yay
##ath
##ate
##ven
whoa
cut
##aper
wr
move
##um
draw
bir
sure
##able
cr
##ang
cook
##lf
today
##ple
##oon
foot
fin
hm
mou
bit
shoe
le
fun
game
qu
letter
hear
break
stuff
hurt
##ist
under
##qu
finish
##ne
close
hot
lot
start
bye
toy
##ble
house
our
##alk
pur
mouth
oops
call
##im
##ol
pull
##xt
kit
wow
room
##cle
still
happen
table
##ion
head
pretty
dan
ever
fish
##pe
min
hard
sor
four
##illy
##ater
##ia
##uh
##room
##ark
hair
##ye
wash
##ild
##ew
top
##ether
truck
outside
##ng
though
bear
##oop
next
##gether
##are
cookie
together
##ute
stay
##ent
nose
train
sweet
ex
##ph
nu
##eel
orange
ma
box
purple
talk
sm
silly
##orn
eye
sleep
##ape
minute
juice
squ
chair
gra
##oor
side
cup
jump
dog
sorry
pe
##ana
mat
##os
door
block
##zzle
five
tick
love
mean
##irt
##ster
many
sing
every
later
mmm
##thing
##chool
number
wal
paper
bird
puzzle
pot
gl
mon
##av
drink
mil
might
af
##ody
much
##bye
##og
school
day
##self
fit
en
cir
milk
run
stand
build
walk
dance
##ouch
##ower
##key
##stair
new
floor
bud
kiss
##mmy
touch
leg
din
##ob
tickle
gar
hit
face
circle
##pple
after
miss
byebye
sweetie
tir
de
##ton
sa
##eek
##inger
cra
home
yet
only
yep
##stairs
tree
ahead
##ma
##ub
part
supp
long
bot
##if
##eat
hor
##unch
joe
mar
apple
finger
mess
boo
roll
suppose
##us
count
bath
##to
ask
diff
##own
enough
##body
##ise
##aint
bed
##ggie
##ond
##ile
ele
almo
bite
fix
hat
tired
almost
lunch
differe
sand
##wh
##fore
yourself
ear
page
##man
paint
##ail
before
grand
##ann
food
inside
elmo
##eese
bar
while
##ont
##ash
##ane
different
woo
funny
##bble
##igg
cold
##ac
che
nope
##ass
last
##eady
ride
rock
light
song
##ally
##arm
##sic
card
kitty
##ber
already
word
##way
nap
hide
sk
ow
duck
tow
sound
wrong
even
flower
cool
feel
tea
ke
hung
hungry
star
##ach
cheese
bun
##bo
str
##the
##ipe
night
egg
catch
mo
write
shh
##ayon
hell
cli
blow
crayon
##where
old
list
hello
sec
##aur
wo
du
wear
yum
##ken
into
step
ph
##ummy
six
##oc
garb
##eam
##imal
##huh
exc
change
##ord
uhhuh
animal
ice
win
through
pink
snack
buddy
##ett
chic
##ush
##ably
prob
##ucky
real
probably
##ory
##ople
air
shirt
garbage
pen
cam
bag
##iend
listen
fast
people
bad
act
anything
##dle
bat
end
po
bubble
potty
beep
##irty
bus
##ich
##ze
sun
##phant
button
friend
horse
peek
choo
elephant
pop
music
doggie
##avor
wind
gen
high
##ous
##vy
lad
line
cry
##ooh
##ister
sock
id
chicken
un
wet
##get
scr
cow
gab
pant
##end
##vie
##pl
##ort
bow
##era
phone
same
goodn
##row
##ider
##kin
favor
##ually
##ha
##ect
arm
hop
per
butter
slide
wipe
tv
hang
ooo
##ner
bunny
second
set
idea
##ag
guess
em
match
com
great
whoo
rest
fire
their
press
whole
##use
##oud
pea
##osaur
tape
##tom
corn
gentle
bug
upstairs
##thday
brown
lose
unt
grandma
gabby
favorite
ban
##yn
##eal
kid
monkey
bottom
dora
##ft
white
##chen
hug
##ian
pig
##more
tom
spider
birthday
black
front
playd
banana
dry
kitchen
small
playdoh
eas
tooth
diaper
anymore
goodness
fly
kick
##aboo
##berry
until
##ug
##ways
snow
##mell
drop
dinosaur
##night
par
##sk
con
rain
track
camera
buy
sticker
shape
hole
eight
swing
pretend
check
ten
vroom
toe
seven
excuse
stra
knock
##ale
##ball
movie
dump
dirty
easy
happy
ad
##oun
bet
##io
smell
story
##angle
##ri
##idge
bowl
climb
shake
##ask
ra
pooh
bi
boun
##lyn
clo
dress
share
peekaboo
##rist
always
everything
bathroom
than
whoop
okay
##son
quack
straight
forget
fo
##ator
spin
pupp
square
lady
straw
##ney
window
yup
mask
drive
balloon
##less
somewhere
whee
##iger
never
##hing
##ince
te
live
beh
both
mark
nothing
##ina
##aste
behind
couch
yummy
##nie
##int
sister
##ward
brother
lucky
clothe
##ase
spoon
farm
pat
##na
##ither
fine
##cr
##plane
ed
##bit
##mmer
jack
mix
crack
airplane
frog
slow
brush
actually
##sket
ou
christ
blank
downstairs
basket
boom
batter
cake
##ary
glue
mr
##ci
cute
##ipp
##orrow
cover
pump
lion
##ocol
##zy
dinner
##iddle
either
hon
bottle
##der
peach
taste
battery
##come
bel
tri
chocol
ouch
chocolate
##of
##ato
##ctor
must
eh
loud
spr
chew
lay
triangle
boat
##bie
place
vide
somebody
meow
corner
lau
##rot
alone
monster
bounce
click
wel
welcome
ye
spot
##fly
##choo
key
couple
strawberry
des
bea
tomorrow
pumpkin
mine
middle
ll
##uit
la
##sty
own
##str
stair
sandw
ac
sandwich
##llow
puppy
mouse
tail
##ey
##sie
er
##sterday
save
teach
yesterday
candy
plate
##orning
matter
tower
morning
park
##izz
##eeze
mag
mad
dra
##ik
bread
glass
wonder
space
choochoo
butterfly
ted
woah
few
##mas
del
##ba
noise
##etime
short
##ggy
ew
sometime
scoo
##fast
dada
quick
hea
nine
tall
##ever
##gon
##umb
##itch
##about
pol
##br
god
half
carry
far
##la
breakfast
smile
ap
warm
##earn
grass
##hai
learn
rub
marker
##ation
feed
ithai
stink
plant
boot
sky
##cy
bike
cracker
##eb
##wor
soon
beaut
noah
carrot
##cil
bridge
teddy
tummy
##box
sometimes
heavy
party
edge
base
hurry
dot
grape
blanket
bless
sant
##ross
money
doll
wheel
##irr
wake
##ious
bee
##amp
ru
##ade
christmas
##cake
year
##urt
da
fu
round
someone
wall
dish
upside
snake
##iful
##izza
pet
icecr
beautiful
icecream
thir
perf
swe
##issor
scissor
thom
trick
fruit
##igger
pizza
ant
##iy
howabout
heart
##re
##arl
bur
sal
buck
stuck
sad
##iet
##anna
towel
##ib
##cial
soap
##ract
grow
strong
nightnight
belly
##anut
moon
store
##ette
##mon
##let
##enty
knee
peanut
dis
pill
##ak
##fish
##ley
twenty
barney
roo
##fr
##ona
crazy
pencil
lef
poop
spell
pro
hmmm
tiger
##fe
##sy
flip
sleepy
fig
yucky
clock
spe
each
jell
##ouble
comp
mic
pigg
##gar
thomas
pillow
figure
neck
##ily
##gu
##unt
cap
lift
cliff
video
perfect
##ize
gold
babe
seat
special
turtle
hope
thirsty
moo
yuck
##pr
ground
yog
inst
##ence
##work
left
ring
##ger
##wards
zoo
##cl
drew
kevy
cur
pan
quiet
##yl
gosh
##ird
scar
##ign
prince
jj
tigger
drum
point
instead
lo
sur
exce
grab
clifford
coff
bob
##bow
don
tonight
soft
##uper
mail
tun
##ting
chip
mmhmm
##ather
##aff
##ohn
rab
##gin
aunt
super
##ance
bump
##atch
sticky
bucket
coffee
pract
##stand
##mel
##unk
swim
everybody
yogurt
sou
tight
##ari
fork
birdie
rabbit
dark
kl
##ller
##no
hammer
spill
spiderman
ol
once
##ope
able
practice
am
ca
huhuh
woof
ja
lu
drawer
cream
jelly
dear
oo
##ity
##anda
##illa
dec
homework
##iggle
shut
clap
ve
##iv
##per
##onn
bra
reach
sink
##car
horsie
##ocket
cal
nana
##ella
santa
pour
##neath
##ment
backwards
dragon
cho
coat
tie
underneath
apart
sick
bean
##iny
##ful
##de
##boo
lego
fill
##ita
flat
##affe
##uter
without
##mpty
princess
rip
week
lid
##iel
##gel
mel
sheep
garage
computer
oink
##nel
pin
pool
rh
wee
##astle
giraffe
understand
squeeze
##iz
##teen
##ipper
bang
cere
pocket
whatever
pre
lap
ber
att
napkin
tele
cereal
##aster
die
soup
##ael
follow
peep
##bug
tra
spl
##eart
such
nobody
##ara
lookie
whose
care
fro
cheer
scratch
pa
since
ty
##act
##roller
potato
pap
##pack
##sp
##ndry
send
vac
doggy
shar
laundry
body
zeb
##iah
begin
stack
trip
messy
desi
castle
je
##jo
yours
full
##ony
##etheart
scare
sugar
booboo
sweetheart
##ex
##ving
doctor
zebra
sign
##blem
problem
wiggle
##ni
med
##lt
toast
##ada
grandp
buzz
##icy
butt
anywhere
across
stinky
scared
tunnel
##iver
##isha
worm
##anger
rainbow
##ier
##oot
piggy
spit
mud
##ife
##astic
seann
fold
farmer
delic
john
ry
##oom
##do
##so
##igator
ste
usually
cont
eng
backpack
refr
add
##zel
stroller
##ingo
tweet
uncle
teacher
cu
hook
pile
stom
wave
cor
row
##ruck
safe
barbie
##iano
dar
##ym
alligator
squirr
street
##pet
##land
delicious
oct
tiss
##got
ladybug
jacket
tissue
grandpa
squirrel
thumb
##inkle
trouble
purse
##phone
person
##sw
##err
##pper
surpr
dirt
##dd
board
gro
singe
##lynn
laugh
refriger
dig
mich
lil
sea
##ues
##asty
ernie
tractor
##gr
##uum
##ica
fishie
##etta
refrigerator
##co
##sent
baba
chase
eleven
ladder
fif
##ero
forgot
rem
##elle
snap
conne
raar
baseball
present
luck
rib
rob
art
swip
tomato
fan
ken
tip
##bear
twel
sort
##cer
tong
papa
vacuum
twelve
har
land
pair
##time
##lle
treat
##ike
##lla
chalk
asl
telephone
na
##dog
shark
##opter
res
tiny
dolly
pretzel
tongue
empty
ge
##ten
beat
whale
ham
trace
##guin
connect
asleep
tub
##sin
goof
##len
##onge
lie
sponge
anyway
penguin
hallow
##icopter
helicopter
##sicle
halloween
case
nin
near
##ien
##sau
##odle
##ench
worry
hipp
building
skin
cheerio
pay
ta
##ret
##etch
##oph
cart
switch
smart
popsicle
fam
piano
##light
thirty
##ert
##erry
##oni
leaf
early
police
mickey
cro
##vel
forward
order
quite
magic
##onald
ped
meat
owl
choose
engine
##ning
##isin
bobo
cupcake
race
##ood
int
sha
lick
living
scary
squish
bedroom
busy
peepee
fight
##oy
whis
stir
##ntain
watermel
raisin
watermelon
##lin
carpet
secret
splash
lock
##ump
##bird
##ani
mister
neigh
suit
honk
excell
is
ruff
noodle
##sel
##allow
summer
sammy
barn
bone
nail
pear
sau
yard
##doo
timeout
excellent
pack
van
##rie
nor
##ena
##iding
charl
class
comb
croc
pedal
jam
##any
shove
lip
also
rec
clos
##zzy
gabbyn
family
kar
poor
##nch
jule
reg
roar
kindof
crash
scream
swiper
fry
hour
lar
dol
alis
##sha
exact
belong
ale
rope
tim
##house
##pt
slipper
wood
##board
dip
nasty
##est
##meal
plan
char
cousin
pepper
scooby
danger
jl
past
sy
tada
##az
##cd
nono
seed
##eenex
sweep
nicely
##rawl
bib
kleenex
closet
dolph
por
vis
wish
##ene
angel
cloud
##ction
scoop
hose
mer
pony
sam
low
oat
##go
beach
##erest
shoot
##ida
##ident
coll
uhuh
turkey
##uest
hotdog
bunch
crawl
gate
gym
hill
rad
suck
ti
##pot
gor
spa
mem
everywhere
screw
acc
roof
##cdonald
hiding
ki
##rick
##lace
##itar
##esh
answ
bre
##augh
french
meet
##nieth
interest
dolphin
answer
era
fence
mind
woop
##ieve
##inky
neat
rocket
shovel
oatmeal
jes
##erg
##orm
plastic
##thy
##epooh
crocod
exactly
fair
rin
ang
##ote
##ghett
medic
mirr
##nter
##you
its
##eez
getting
stamp
knife
alph
chick
##rap
tool
everyone
basketball
believe
auntie
crocodile
cd
##red
##ust
##but
##ection
basement
decide
surprise
spaghett
##niethepooh
mirror
ext
jay
map
power
##ler
seem
abc
visit
rinse
oce
pass
ray
##mar
##sn
##urger
jojo
guitar
quit
matthe
string
matthewn
##cue
##ron
##ume
##ully
bell
bead
##eas
##ora
##isa
##mming
snowman
calm
alisonn
jar
sar
##pea
##col
##ste
##mble
anybody
##ited
crab
winniethepooh
goldfish
sharp
jas
mother
oven
ugh
##aw
##que
##opus
spread
fur
il
nut
rake
si
##wise
##ping
##anne
##ital
##ala
##mbr
cour
cord
imp
jer
pac
rice
##ree
swi
peaches
salt
medicine
ocean
nick
trash
otherwise
unless
michael
geor
accident
seal
##can
##ino
candle
tray
peter
##iya
dir
laur
rug
zip
##fit
##va
##etub
shell
outfit
##ohead
##amin
sweetpea
dough
jan
kat
##ka
##fl
##lo
##bob
##vin
##atohead
##iting
plane
along
##ular
mountain
queen
month
poke
smiley
veget
##icycle
remote
kill
umbr
ver
wild
##ric
##ud
ship
joen
flag
muff
puppet
burn
choice
umbrella
cross
tel
wing
##cing
##itt
##esome
ann
clown
dust
scoot
tricky
rescue
vegetable
banda
easter
##ible
##bor
shop
bright
rela
mmmm
most
##iyah
pancake
spongebob
dangerous
spaghetti
bandaid
relax
jen
mal
sat
##cu
##cie
##corn
##vis
awesome
emn
videot
rooster
rhy
##etubbie
ash
pir
##da
ahh
blueberry
snu
earth
##bert
excited
choke
octopus
ribbit
cass
sir
tay
tent
##ween
##pie
##cat
##five
hen
spank
##ola
dancing
sandbox
piglet
magn
gross
extra
cab
soo
##yard
##set
##jama
thirt
##anny
##irl
##ention
popcorn
##ippy
##brush
except
memory
alphab
swimming
thirteen
den
ps
quest
##tub
##ya
##book
shall
nemo
##gget
lemon
##boy
between
##ika
polar
question
late
size
##ho
##ibble
##ja
goat
road
skip
sweater
muffin
ce
fat
flor
kam
##tie
##val
chin
child
backyard
fridge
span
oopsie
##ache
belt
robot
videotape
rhyme
es
nl
##wash
##isy
hamb
libr
shelf
wagon
mrs
dollar
attention
fifteen
library
deal
rid
wrap
##year
##ject
##erp
##lene
cherry
bother
arrow
swallow
flash
##ult
pasta
##easure
cough
sue
tear
vale
weird
tire
##dding
breath
direction
bark
fil
jane
king
mcdonald
##ris
##tern
ros
glad
bathtub
woody
spray
##stru
necklace
stomach
spanish
double
gi
rough
ses
station
ago
flam
danny
##ift
rule
##monster
horn
kay
rose
web
##stick
sheet
jung
pajama
goofy
##etchup
teletubbie
pirate
sesame
gard
hay
ketchup
x4
##old
##za
##vent
shy
bake
bull
mush
lean
nugget
vanilla
psst
flamingo
jungle
##ker
##inthe
##mmie
##ott
bub
macar
comf
decor
cause
ding
dead
hoo
nat
rl
vi
##ky
##sl
bend
bal
##urch
knight
bumble
##ico
##amar
twist
handle
##agon
radio
erase
course
alphabet
hamburger
pad
sip
##iana
##cup
##gl
##met
goodbye
soc
##iday
speak
dizzy
cookiemonster
march
valent
came
dl
ev
lin
poo
sil
vol
##ient
dor
goose
##ndred
forth
church
boe
##alyn
least
melt
beginning
soccer
cind
cage
ger
kang
tank
##nam
##mouse
upset
plus
##adoo
##ffle
lawn
disney
garden
fa
kh
len
os
pee
till
tough
##down
##illou
broc
counter
goodnight
fireman
jean
heal
##py
##ju
tor
##inet
##aroo
playing
exciting
caillou
magnet
##struction
darl
jac
lor
ser
sep
##con
##itter
##ition
##cky
##illar
rect
##amond
grey
##ilet
gum
pickle
pattern
blankie
drag
curve
angry
macaroni
broccol
bicycle
fe
jame
log
mot
tit
##hm
##sa
none
rew
clay
world
caterp
grace
sandal
sprinkle
hippo
charlie
satur
rectangle
caterpillar
witch
##wo
##po
##cut
##ress
##li
##anch
toilet
##aya
stool
life
player
anyone
flour
mary
batman
poopoo
stomp
whistle
porch
gas
ind
naugh
##wa
##gan
##lie
ben
##oose
thankyou
underw
squeak
camp
sunny
horsey
slowly
rubber
##ophone
regular
planet
av
hl
less
ya
##hor
whine
##cker
##ston
##ira
cheat
##raid
##aus
ross
##ula
shower
slip
diamond
lotion
afraid
patrick
##sault
kangaroo
broccoli
ay
dess
dav
ka
peel
tl
##ison
##sey
sher
##ire
##chine
cheek
hundred
downstair
waffle
broom
col
##shirt
puff
punch
spark
somer
smoo
owie
##sauce
interesting
naughty
ner
rag
tam
vit
##bee
young
##kend
jun
hun
myself
groc
##rol
jumping
duckie
somersault
grocery
lord
nah
sippy
ug
yu
##hoo
##lee
##line
##bu
##erc
##ndy
##ield
##inde
fred
##mper
fishing
pole
##ortant
important
film
giant
viol
ir
lav
ml
opp
son
##erella
onto
shot
bagel
cost
##ila
crumb
machine
smash
applesauce
kittycat
steph
scribble
scooter
bubba
cinderella
darling
bingo
gift
jose
pard
vo
xl
##cus
##bell
##eapple
shade
rex
blues
alrighty
bigbird
pres
sword
flo
scra
crank
##ently
exerc
stripe
##rek
salad
poopy
pineapple
cucu
alex
pardon
cucumber
band
gho
pow
wide
##hat
##conn
##die
##arate
ohh
sweat
##issa
sauce
healthy
ghost
##connor
bon
han
kite
lam
rat
wil
zero
##nic
##case
##lock
chilly
gray
sneak
him
##oopy
squirt
##onda
##river
##street
wonderful
grover
ninet
sarah
snuggie
separate
underwear
vitamin
aid
oil
##walk
##eight
whew
liam
plug
playroom
fresh
drill
snail
deer
skate
burp
##clock
loll
pacif
camel
##horse
oppos
def
ell
eri
num
ter
##ham
##gine
##rup
##ustr
shrek
chop
##inda
sail
skirt
penny
livingroom
cabinet
himself
opposite
bin
bank
hate
lake
oclock
##tain
##ca
##mine
##driver
onion
##sed
trunk
##idy
hul
waste
freeze
helper
reason
football
fourteen
sidewalk
##acl
wolf
scrub
project
froggie
control
fancy
neighbor
sesamestreet
motor
exercise
ob
plen
rail
tap
##nce
##port
##cent
##ford
##mer
##ated
##etruck
##arter
shad
##onna
##thur
true
##rain
free
clip
prom
##ipop
firetruck
umhm
roller
##acy
piggie
load
gorilla
taylor
ugly
plenty
bore
icky
loose
##iff
##ling
dom
golf
##eeve
stove
##urs
huge
buh
cock
joel
helmet
driver
picnic
quarter
haircut
##obster
toward
ruin
superconnor
weekend
ryry
michaela
florida
balance
lollipop
app
dv
ko
sim
##kn
##zer
itch
steal
pudding
cluck
##cycle
upsidedown
seahorse
screwdriver
jesus
georg
##adoodle
saturday
emm
father
kee
ql
rar
##ium
##eck
##ridge
##don
##oman
##ked
##oda
allow
prop
marsh
painting
woohoo
parrot
fox
patty
##iko
dishwash
##lightyear
mickeymouse
scoobydoo
valentine
cel
ey
jon
ly
mis
net
##lish
##john
hall
##chair
##tha
##ram
bro
frustr
level
ducky
percy
settle
##ago
desk
corr
darn
gymn
feather
junk
costume
dishwasher
az
hip
ul
##truck
##ete
##omp
slam
sleeve
ballet
sneeze
sund
toybox
minnie
marble
barr
##aca
shhh
compl
magaz
santacl
donkey
buzzlightyear
rossn
bluescl
cranky
magazine
bill
boop
jew
lobster
mor
nic
rac
river
tar
##two
##four
##mit
##den
##ans
##leigh
baa
chance
bush
clear
arthur
##itely
drawing
thought
winter
timn
shopping
patrickn
cy
city
eey
ky
mop
oval
zoom
##mat
##uce
##sc
shak
brand
reinde
puh
##uel
shoulder
aww
##ggle
snoopy
pullup
##iggly
##boat
winner
cowboy
bouncie
bert
fifty
skinny
cartoon
henry
violin
taylorn
eeyore
reindeer
aud
dent
gently
kuh
pal
sab
##ius
##tail
##cock
##eah
##che
##cheese
alot
##eepy
flavor
creepy
lovely
legos
feeling
realize
conf
diesel
##button
lemonade
mushroom
defin
promise
amel
bzz
fau
hy
lyn
rod
tat
tuck
##ae
##cia
##bone
##van
##anie
##eta
##ict
blah
##unny
clar
office
elbow
##elf
leap
##ument
paintbrush
eighteen
test
captain
donut
type
##dozer
sucker
bumblebee
silver
rewind
voice
cockadoodle
dvd
definitely
cin
cant
kath
oy
sen
##how
##head
##uar
##under
##dad
##ser
##some
##ern
##ito
##leyn
stitch
carl
brick
cond
##abel
herself
mus
##annel
peacock
parade
swinge
##rible
spinner
mrpot
ouchie
spring
##umble
##ground
package
bulldozer
james
hic
kal
nake
pos
ram
rather
und
war
##ianna
##nes
##wk
instr
tre
chomp
branch
fran
joke
babyj
hosp
handsome
potatohead
dest
saw
##aurant
##order
##ortable
restaurant
surpris
fairy
##butter
joeln
hospital
ima
rash
smo
teen
##rell
##ini
forest
##andra
##ainer
friday
spy
nest
mango
sleeping
circus
boog
chicago
post
##ousand
matching
peanutbutter
mailbox
frost
shawn
flashlight
motorcycle
instrument
dice
date
fel
kim
mow
tshirt
thunder
##oupe
##sen
knot
chir
become
proud
leop
##iley
candyland
quickly
cave
steve
powder
hulk
mrpotatohead
binky
cay
caboo
equ
jah
mist
panda
tues
##hero
##ience
##nis
##em
##ria
wed
heat
trex
##rah
clue
##abeth
awake
sub
dino
message
highchair
conn
fuss
capital
brace
container
kiw
decoration
shadow
caboose
tuesday
ama
hanna
jess
measure
rom
vl
wand
zl
##king
##fa
##zen
##vous
thurs
town
##iness
note
##arty
##star
lookat
forty
sol
##essed
brat
##shop
aha
against
slipp
kitten
sideways
##wheel
dusty
##haw
construction
patient
##umpy
jasmine
##glass
nervous
sailboat
hiccup
naked
surprised
chirp
thursday
slippery
cot
cub
dur
lat
mit
ras
tal
xyl
zipper
##pen
##oard
##zie
beet
notice
whatabout
sham
##urn
##uroy
lily
##opy
##app
crane
smack
glove
diffic
sixteen
##aguar
mustache
curvy
surf
pinch
ninny
norm
corduroy
george
comfortable
oscar
dessert
pacifier
correct
jewel
cone
cape
cash
curt
geez
kel
ren
terr
vir
ven
##her
##oth
##kie
##dr
##bunny
thick
tot
noisy
itsy
##igan
aly
rece
##ship
grill
grizz
##ilia
slap
sew
sevie
wreck
chest
skunk
winnie
ribb
recipe
spanking
##build
float
rattle
nineteen
aiden
gymnastic
leopard
grizzly
dam
mik
val
wl
yl
##oll
##ray
##ren
##ddle
bench
##ork
##eehaw
##lena
##inker
trade
channel
##myum
##shine
##aun
##icorn
##alia
joy
spicy
flap
leash
crib
finally
max
mari
unicorn
hopef
jackinthe
stinker
disgu
curly
interested
##cano
katy
breathe
##inthehat
volcano
yumyum
broken
sunday
bluesclues
cotton
jackinthebox
dal
fra
mill
master
ot
path
tu
yar
##ave
##aid
##coon
##ki
##mi
##bar
##band
tony
andr
bacon
ornam
reading
grown
##mba
hero
throwing
dining
sale
rolling
team
airport
poss
sunglass
higher
highfive
##osaurus
##skate
design
jellyfish
brain
muddy
steer
wooden
sparkle
preschool
towards
kiwi
difficult
hopefully
ornament
borrow
deep
digger
gun
loop
mond
ny
rand
tinker
##town
##pant
##pose
##craw
##fully
##rus
##ude
##little
##bag
##von
toot
ith
ohno
steam
##lda
##cha
liz
treasure
##ides
##rab
##icia
blood
spong
flush
scott
crown
closed
bathing
starfish
stretch
friendly
bouncy
##cially
mustard
apron
teddybear
scarf
braid
berry
attach
medium
hamster
jesse
##juice
hanan
muscle
monday
ga
ginger
ker
lind
pil
pound
sch
tbone
vel
wife
woman
x5
##pberry
##off
##card
##ranger
##mallow
##via
thousand
storm
fort
tracy
##aloupe
elis
##bean
##belt
##pecially
ticket
energ
windy
##have
oooo
seventy
##ales
##amper
bellybutton
##leton
golden
seatbelt
jeff
stem
north
##eezer
powerranger
especially
decorate
lesson
bonk
marshmallow
santaclaus
creepycraw
cantaloupe
bracelet
raspberry
xylophone
beetle
##appear
##builder
disgust
ithain
spongy
creepycrawly
amb
dist
dash
est
lower
mick
mart
pamper
zion
##hile
##ilyn
##nit
##noon
##aget
##win
##war
##gn
##ga
##rum
##lon
##sage
inf
##ille
willn
wherever
somehow
alike
##esha
chain
careb
##dyn
hoor
##essa
area
ariel
dream
awhile
##ason
##asia
##roy
##road
catinthehat
afternoon
booty
sixty
garbaget
sunshine
toothp
poohbear
straighten
##cred
jackson
lazy
##ebook
disappear
##print
##cloth
bobon
amen
cube
sausage
charge
collect
dentist
mitten
energy
carebear
garbagetruck
age
ema
fact
field
lala
nath
nanny
san
soda
tad
##nine
##ta
##toe
##und
##ual
##lia
##six
##jah
beard
##ania
notebook
##iter
##seven
ink
##chie
humpty
hunter
##ado
bry
##alie
aboard
twinkle
prot
awfully
##aira
##ulous
##elia
wrest
purpose
##olas
##olph
expl
matt
glow
granddad
##annah
sunfl
screen
##place
whoosh
dresser
##bread
froggy
##joy
remind
laura
mcdonalds
##namon
yawn
stephie
simon
confuse
amelia
cockadoodledoo
cinnamon
amaz
##credible
sunflower
aqu
aug
der
dunk
hoop
hana
kell
krist
math
pail
ss
sour
vin
ze
##ole
##oss
##mower
##du
##bea
##ountain
behave
##inty
wendy
inv
##enter
trap
trail
alb
momma
above
hol
##eena
manner
cutter
mak
pokey
brownie
##bitsy
mixed
rud
##garet
harold
cartridge
large
syrup
kamari
##venteen
lawnmower
smooth
lamb
railroad
hallway
connorn
hooray
cell
cent
fab
hint
lash
mur
mand
pter
tile
tush
tag
##winkle
bes
belle
toss
itself
##uth
##vey
##kel
stat
##ies
hunt
##idey
##shelf
blink
boil
##alee
freezer
granny
clau
##ilt
bookshelf
hiss
##ardo
firef
seventeen
minus
mac
graham
##avator
missl
difference
teapot
##thebuilder
excavator
business
toothbrush
climbing
erin
eric
dollhouse
third
jello
bobthebuilder
luc
rhin
robin
tax
squishy
##selve
jln
##snack
furnit
comfy
keeleyn
celery
##nesday
wednesday
curtain
zionn
furniture
border
daugh
fake
kale
luh
lamp
poe
tant
tac
tasty
yoy
##ua
##eem
bawk
##aine
print
watering
##mond
saf
kend
molly
listener
peeka
easily
temper
spaceship
polite
rude
buckle
moose
mailman
octagon
harry
whisper
timmy
crabby
volume
barrette
imagine
ribbon
##selves
daughter
21
ak
ape
center
ji
jav
lead
lul
ms
nan
nur
yo
##non
##af
##party
##rr
##mill
##dge
##door
##je
##jord
going
##itty
##uto
shiny
##onia
stu
##ingle
##ington
plain
someday
trix
trans
playground
ange
anac
coin
bock
##ppad
twink
grumpy
arl
dressed
##eline
firep
leappad
##roll
##uffle
singing
glub
glitter
dev
deck
craft
##maid
uno
gabrie
##rowave
tennis
microwave
tweety
artist
suitcase
record
timer
simba
nickn
dragont
propell
fault
smoke
mistake
during
pilot
besides
anaconda
dep
jingle
kool
lang
mam
pj
pas
ret
ske
tash
wiggly
##nell
##pon
##cra
##ature
##ayah
##arra
stone
jul
juicy
alarm
##opot
##ota
carol
##aph
##aly
joany
spend
thanks
##eeper
eliz
holder
swish
##ssa
crush
ours
danie
maggie
peck
everyday
mont
hitting
applejuice
cheeseb
##oclock
iceskate
emily
##world
##letwinkle
##friend
tyr
hippos
policeman
##stein
jason
##amargaret
faith
serious
titamargaret
joseph
liamn
skateboard
frustrated
equal
wrestle
amazing
august
214
lulu
twinkletwinkle
skeleton
copy
duh
dare
eag
fut
kir
lee
mc
mall
nik
ryn
tuh
vict
##hop
##nn
##ez
##uc
##big
##beep
##oup
##erica
##llan
##ayla
wedding
instruction
hamper
sting
##chip
##ode
forever
chan
##icket
ank
anton
makeup
buggy
ref
##aul
club
babys
holler
eli
##asa
##ulance
slice
##ela
##ornia
##ifornia
##white
cheater
strange
phot
poison
beepbeep
crying
kicking
sprink
fuzzy
poopie
curious
tuna
bumpy
veggie
california
english
hippopot
jules
larry
ponytail
gordon
sharpen
furry
rarr
itsybitsy
grownup
lizard
disgusting
ambulance
email
protect
holiday
tantrum
yoyo
nurse
fireplace
propeller
koolaid
hippopotam
bing
billy
caca
emb
gil
joh
men
sear
tan
##hh
##hi
##fro
##mother
##uage
##lic
##sley
##sshop
##vi
##ata
##isc
##itive
invis
bam
pluto
sofa
alien
china
anno
##otter
buster
cozy
##icle
##ali
eating
gre
grr
prog
guh
awful
##rob
ass
cath
dial
bitty
quint
squash
firehouse
##uga
beak
apol
##arium
jammie
televis
##opher
uhuhuh
##marine
michaeln
rescuehero
sense
tinkerbell
gingerbread
toothpaste
cheeseburger
sprinkler
invisible
annoy
television
aut
astr
ache
east
nay
sav
zoe
##ial
##aa
##pad
##rin
##rey
goo
##inn
##ooked
##arian
troll
##iddy
champ
##ored
downtown
##ical
boss
twice
pray
whenever
##arten
snuff
kinderg
carefully
cleaner
cutting
fourth
grasshop
ticky
mmmmm
enjoy
touching
##annie
barbe
##onte
teaparty
moll
camping
activ
spinach
##baby
##worm
bury
bobby
lump
jellybean
bern
attack
##spoon
vacation
johnny
contin
racecar
island
poof
domin
pattycake
raccoon
destroy
teeny
submarine
tube
distract
hippopotamus
kindergarten
giddy
jour
jim
lou
mw
nich
ostr
rah
yike
##pan
##uk
##suit
ton
gobble
gofish
##etra
##inter
bald
plum
juh
soak
alive
ani
##andy
wawa
##ican
blind
##tyl
group
spo
arg
fluff
##aire
crunch
crooked
graci
cupboard
walrus
missy
marry
booger
##asha
##actyl
lightning
hideand
eighty
adult
below
louder
clicker
scooch
growl
twentyfive
##iving
rhino
frozen
wiggles
farmerj
swiping
register
timber
eraser
##marie
##coln
pacie
scrape
erikn
terrible
rudolph
pterod
rhinoc
transf
language
ankle
grasshopper
mwah
ostrich
bor
dy
det
pine
ripe
rich
tee
teet
tumble
vase
zook
zak
##imy
##will
##web
##rophone
##mom
##lan
##bl
##zar
bent
hal
shoop
##onica
bah
##three
shel
tricycle
ord
bust
rebe
bloop
blond
twister
claus
##etha
spout
coloring
drip
pickup
diving
mamm
smush
##ogn
sweetiepie
horsy
mariah
country
bedtime
dude
polly
##yna
strap
law
acorn
russ
burger
##onaut
micael
microphone
mood
##arius
shuttle
##ried
##flake
lincoln
indian
colored
rexie
totally
##rabbit
##cracker
eagle
astronaut
activity
farmerjason
pterodactyl
rhinocer
bare
cert
dee
gw
gee
gay
guest
jet
jak
kaz
lan
od
sell
syl
wuh
wiz
##here
##iann
##wan
##wood
##te
##pop
##piter
##ok
##kitty
##girl
##ring
##rod
##rate
##yah
##uss
##uise
##di
##atula
doo
##uty
##anth
##around
shan
shoo
shuffle
##ookie
stable
lett
##ury
fore
jupiter
someplace
chunk
hull
wag
brett
puddle
##ryst
twin
twirl
jos
speed
spatula
##eengine
swan
slinky
hers
fireengine
cleaning
##atha
cricket
leon
maur
gram
grammy
grade
fitting
milkie
marce
towtruck
strike
dryer
snowflake
concent
dumptruck
dak
salty
twentyone
jae
address
coral
kenn
nearly
meatball
lipstick
recogn
collar
##ormer
cassn
paddle
poope
##alynn
bored
position
babyjaguar
normally
taxi
taco
gabriellan
spoil
teetert
zookeeper
micaelan
wizard
recognize
aub
bish
dou
elle
iv
jere
mome
mah
mass
mitt
niko
pond
sally
tere
yeehaw
##iam
##nut
##paint
##oat
##cen
##gra
##ril
##rock
##mary
##uary
##undy
##leen
##bop
##back
##brow
##seek
##att
goal
##omb
##itude
weather
##ses
shay
shout
shine
stage
trav
alth
chef
huggie
whoever
##ander
organ
coal
cocon
needle
##aloo
##ung
gran
##mbo
throat
priv
holly
##ghouse
arc
army
swoop
slick
muse
bluebird
cleanup
writing
headache
washing
washcloth
eyebrow
jumpy
pottie
runny
standing
walkie
marie
maraca
earring
pantie
##erald
##ynn
dressup
whoopsie
ringaround
curl
oln
melon
farmerwill
##doll
tweetie
unclepet
kenne
goofball
isa
mermaid
toolbox
siren
dessien
smoosh
tamb
shaker
frame
temperature
dragontales
hideandseek
boring
certain
concentrate
teetertotter
moment
coconut
unclepete
ald
bop
cale
gal
glen
lill
las
nad
pause
rot
sid
sara
tale
tak
##ih
##wow
##gen
##rea
##rop
##men
##mcdonald
##zi
##sia
##jane
##ano
doro
##inch
##nda
##ige
inch
inter
shri
##stool
##story
sten
steak
##cho
chine
cheet
chuga
justin
##andthe
britt
bum
##icer
bol
##lyne
frank
france
babygr
spidey
holy
colorful
##ffal
bookbag
guard
mayonna
##mple
baller
muh
firew
##ahah
sus
crow
leil
toystory
##ima
washroom
mash
peg
glug
drinking
enter
##ober
sash
marl
margar
fingerpaint
counting
lunchtime
##aney
nighttime
pinky
snowwhite
mixer
beauty
##fred
##ivia
brave
##decker
attitude
split
johnjord
tiptoe
tubby
court
jenn
german
sparkly
postcard
shamrock
virg
aquarium
##beauty
statue
embarra
##frog
##iscuit
snuffie
lettuce
hullab
bishop
museum
shrimp
stencil
babygrundy
mayonnaise
firework
fer
ferr
gear
iz
igu
jeez
meal
nav
pipe
ron
ruh
ronald
siss
tidy
vine
yan
zay
zaw
##he
##hoe
##ios
##ique
##ald
##ware
##train
##cone
##xy
##mselves
##ys
##lad
##dis
##bly
##zo
##say
##sive
been
##eron
##erick
themselves
doink
wheat
##oria
##led
##aria
shush
heck
##ighter
stumble
bab
bas
often
##cess
##melly
juli
chant
howcome
brit
brend
backhoe
##ickey
##iculous
boston
##una
grease
##iling
##ileen
helpful
neither
ark
arie
dru
worried
##iper
slime
##ctus
sequ
##ourine
hurric
funky
kittie
##ooper
exper
news
horrible
marqu
naptime
##ocus
musical
##plant
spiderweb
market
madeline
daisy
disco
company
cactus
dragonfly
travel
##spider
folder
lilo
##green
sharkp
screaming
pepperoni
easterbunny
ridiculous
scrabble
object
hiphop
complete
tatt
positive
aidenn
possum
elisen
tadum
explain
invite
firefighter
return
photo
program
apolog
continue
rhinoceros
tambourine
ballerina
hullabaloo
23
aar
ary
dea
eve
fountain
giggle
iss
igl
ign
kor
met
mant
pra
rach
sore
sack
sss
tease
vie
yah
##imo
##nado
##ted
##cope
##fall
##ran
##rit
##rina
##mast
##munk
##din
##del
##bill
##sup
##jack
thin
##oudy
dona
todd
whin
whack
whip
##ety
##incredible
##oma
##les
shant
stock
state
##chick
bamb
##enna
##ency
uppie
chris
hush
anal
##oppy
##theros
bul
myst
##une
join
claw
cloudy
offer
##ght
arf
arr
arch
fool
##efer
##ggage
meg
girlfriend
##ssie
##ately
cris
##quake
dancer
##enta
maze
##oscope
##avi
##ubby
sandy
##acter
duckling
teaspoon
stepstool
chico
pointy
hanger
parent
##lynne
christopher
christmast
beaver
deliver
##bridge
boots
twentyfour
##ylie
chipmunk
superman
olive
oliver
##iva
##ielou
paw
shaggy
character
##cuss
earthquake
ceiling
disneyworld
tornado
sweaty
snuggiesn
itchy
proper
hydr
sleepingbeauty
thunderbird
million
yarn
trixie
future
giddyup
fluffy
although
granola
ringaroundtheros
hurricane
apologize
igloo
aph
cig
core
cooper
dary
eul
fay
jor
jerr
kad
mir
mike
nak
py
ran
ramp
sel
smelly
wy
wob
zy
##hood
##ias
##nee
##coo
##crow
##cicle
##cury
##gum
##riel
##rica
##yle
##bir
##zart
##sand
##scr
##ates
done
ony
##ayne
weigh
##lei
##arie
shal
##sta
stan
##uri
willy
plier
juan
july
june
traff
##very
##vers
chuck
huck
##otch
cob
##icated
##ppie
grind
babye
babydoll
hokey
##ili
roly
roger
drool
##bey
swamp
flick
##ede
worker
whichever
##nyard
coupon
sudd
creat
cooking
lex
squid
ticklish
dem
barnyard
chester
rocky
rocker
##berto
starve
phil
unc
unlock
peace
##mellon
cons
raise
sprout
lak
dramat
heaven
bootsie
drumstick
tune
luggage
diego
scratchy
scarecrow
barbies
whisker
saucer
karate
woodchip
mercury
abcs
##quel
##load
##piece
cele
##yearold
valentin
ninety
ryryn
minniemouse
complicated
condition
undie
humptydu
misslilia
study
refle
rescueheroes
annoying
barbeque
mollielou
gracious
forehead
massage
stocking
bambi
cigar
##birthday
traffic
sudden
dramatic
humptydumpty
mollieloumellon
aye
biscuit
eth
hee
heehaw
hannah
jad
jal
jail
mamin
nar
nun
nina
pose
pier
ral
tin
tinky
yol
zo
zach
##hand
##well
##eon
##tip
##tock
##pef
##cis
##gor
##gie
##rion
##ruit
##rope
##mc
##uz
##lea
##duck
##dia
##born
##zell
##ating
doh
dont
##lley
##inea
##inne
##utch
wend
##antern
andre
##stower
##chor
##enia
upper
##ief
##thed
jud
julie
juggle
trump
trust
alask
chap
anth
##andcheese
carri
##ellen
##shi
myr
abd
##ami
grit
josh
spir
rosy
eln
##eryl
flipper
##mpy
slimy
##eliz
##zzie
clever
suh
catsup
cutie
##umn
crist
##lfish
nuzzle
grapef
demet
##ifter
marc
##ussel
##tof
eggplant
hellokitty
windmill
gener
##oohoo
emerg
comm
commer
snowball
advent
driveway
tex
patch
ought
desert
drain
##yler
lolly
##ginia
amer
jaw
##arae
triple
farmerjohn
johnn
michigan
tubbie
charlien
##shawn
samn
angle
lauran
##daisy
cement
nln
##juan
tort
jacqu
##pokey
benj
pacifi
lynd
misty
##thai
undo
warn
steering
mandm
tyrann
gilbert
searstower
mmmmmm
pinecone
kazoo
kennedyn
dorothy
zawack
ignore
hydrant
onyx
hokeypokey
trumpet
grapefruit
emergency
commercial
ara
aim
bay
ble
cuck
dime
derr
ee
eel
gle
jh
jed
jaguar
loc
mi
mod
mell
mul
merr
mult
oak
sled
tut
tangle
wra
wyn
##num
##nail
##awn
##pin
##ox
##oid
##kad
##kah
##kim
##game
##field
##rice
##mich
##lar
##zee
##su
##sol
##atter
non
##llie
##inity
##ori
okie
okey
##utes
stare
steady
seek
##urg
##thirty
##inkie
trage
thinking
chim
chutes
##andlad
##inder
littlechick
rep
coco
##shia
bleed
blast
joker
##abelle
ari
swirl
slur
##angel
diap
crust
legg
##olo
headstand
daniel
fishy
hardbo
##pher
mae
maj
boxcar
eyeball
newsp
kissy
afterwards
deb
marke
##iles
starwar
pinkie
listening
bubblegum
gene
rainy
cloth
magenta
##iki
april
fudge
fruitsnack
##rest
disc
superhero
jaz
lucy
diese
cuppie
season
cartwheel
accidentally
vern
lately
esc
##icole
germ
serve
saturn
nerve
santaclause
##scotch
condu
babyjack
kimarian
normal
##drop
tushie
jimmy
depend
thanksg
transformer
mammal
barely
dakota
chinese
praise
bulb
mystery
aphid
valentines
alaska
adventure
cuckoo
tragedy
chutesandlad
hardboile
newspaper
chutesandladder
aur
bj
cas
cush
cyl
cott
eld
eileen
found
fart
fiddle
glor
harm
hood
iza
jill
jake
jeep
kw
kall
kah
kryst
les
mack
merry
nn
osw
pitch
rick
ruth
self
sifter
tou
tab
weed
yap
##han
##het
##nan
##ai
##over
##oct
##cet
##ckey
##fort
##father
##faw
##fire
##right
##min
##york
##lah
##dan
##dra
##beth
##joe
beast
thel
##instein
##orge
##orah
##iti
##oof
##ndra
##seng
##arose
ingr
halo
##illo
stew
##ldo
##chan
upon
##iesha
forwards
knob
alley
alf
cher
chill
cheep
hum
ore
bren
bruce
repe
report
##shake
##shell
##aina
jolly
##abella
spike
##ilo
##ilah
roc
roy
roast
rolly
arn
agree
flame
##roger
scl
sev
semit
snick
sniff
opt
crinkle
##xton
washable
##ilda
squaw
jumprope
ticktock
single
walker
newyork
elev
elect
##achute
strip
mocha
popit
unz
hopscotch
ooooo
##ager
frontroom
parachute
checker
happybirthday
##rius
bowling
spoonful
polkad
farah
dawn
discuss
root
piggly
lost
swimsuit
cammy
##iza
sharing
##lten
##dokie
octav
october
charlott
porridge
##potter
gorge
##snake
ashleyn
fax
macaroniandcheese
##pole
squeaky
floss
scramble
numnum
railing
domino
georgie
##ramid
nickel
audience
boogie
boogadoo
safety
harrypotter
timmyn
##jean
passeng
champion
##mommy
russia
organize
rotten
virgil
sissy
christmastree
pyramid
zawacki
wrapper
okiedokie
chimney
fudgecicle
dieselten
escape
conductor
cushion
cottage
repeat
polkadot
passenger
aer
amy
aside
aah
dill
dive
deed
dun
et
eman
hil
im
jod
kyl
lace
mck
mower
munch
pent
paste
paul
ri
sah
ur
vr
vet
vuh
viv
wad
wire
xray
##nette
##won
##tra
##pu
##pam
##cor
##gre
##moon
##mike
##yp
##dly
##bus
##sion
##syn
##jay
##jon
beam
##erson
theater
doghouse
##ereo
goog
##ins
##ante
##seuss
incredible
hah
hex
heffal
##stine
stap
##irly
baker
##cember
plank
##itha
juni
soph
alab
human
anchor
##andria
##indrop
ori
carn
brr
bray
brussel
##icie
##george
##ryn
##america
twig
babyk
##aba
sport
##amese
hola
##ilee
##uckle
guinea
anytime
##asthet
##bed
swipe
agua
waterfall
##edient
gotcha
scrap
science
section
snore
suz
dion
footprint
biting
##quan
sortof
##utely
squiggly
gravy
builder
decker
december
saggy
##ific
##usk
grandfather
##boom
iced
action
peekn
untie
kiddo
##ianne
pigeon
convers
##alene
adri
raf
raindrop
mrincredible
##ciate
##ipping
polish
pete
thomasthet
twentyeight
twentysix
flipfl
yoga
south
olu
piggyback
keny
tae
thirtyeight
memi
spaghettio
peachesn
snuggle
rosal
baloney
##amarie
evil
title
rewinde
sweatshirt
neighborhood
emman
misse
frustrate
barrel
leapfrog
silverware
shawnboy
solid
micky
##warf
jacksonn
elizabeth
emilyeliz
menu
##etrack
indians
expert
sharkpinty
metal
reflection
cigarette
ralph
texas
tyrannosaurus
tutu
slurp
cylinder
oswald
ingredient
semitruck
pentagon
heffalump
junior
conversation
emilyelizabeth
ath
bong
dw
dame
daph
eb
event
focus
gang
kan
kate
kol
kail
kier
mig
main
moh
mater
ni
nurs
ole
pew
psy
rig
rome
ric
rack
sass
sleigh
tart
tul
tah
tang
tusk
vent
wan
winky
yam
zig
##hap
##ele
##tory
##castle
##cca
##ko
##fer
##mina
##mint
##mountain
##ull
##burn
##sal
##vion
##vina
thy
ther
bey
beth
beso
##atop
nove
whit
gopher
##llis
##inal
##eamy
##itza
weight
##ndar
##seat
##sess
##stan
##stin
steth
##chico
lime
##odon
ups
##iest
force
knead
##ido
##idad
##idyn
nowhere
alan
albert
##verse
chi
chee
however
playpen
orang
wah
cargo
bruise
backward
background
reverse
##auna
##gest
abre
absol
##lys
freck
##mbol
thread
babychico
hockey
##urel
site
guide
nel
ard
ariz
history
##beat
handprint
swear
##ascar
flute
telly
##elope
watersl
##gger
snatch
mex
##oey
wrench
cre
crani
##ionna
grampy
##avia
##ogra
##ogame
sag
sax
##ifer
joey
mars
fingernail
hatch
grandmas
##anner
elmobook
barna
##assidy
nappie
owe
evening
sunscr
cryst
unload
pressure
grandmac
concer
raw
raz
clover
##critter
blanky
mrsp
mrroger
placemat
videogame
meowme
##umbler
##iyana
salsa
perfectly
ringing
softly
jaqu
vest
##ivan
signal
##coaster
fighting
collection
##eshia
maple
nutcracker
direct
crossing
dustpan
cassie
barking
natalie
gumdrop
curved
hln
kai
sheriff
sarahn
erika
##rupt
chopper
rollercoaster
appre
koala
bluesclue
cubs
virginia
venus
total
recess
seviedoo
nathan
vincent
fabulous
claud
wateringcan
curiousgeorge
calendar
leilan
drummer
tattoo
properly
cooperate
##quelch
repair
cocoa
major
thanksgiving
electric
unzip
charlotte
hexagon
flipflop
sassy
stethoscope
absolutely
freckle
cranium
barnacle
sunscreen
dart
dew
eur
emmy
fou
fal
gaz
heel
jana
kr
kap
kha
karl
kiley
lore
lond
lof
mau
mas
om
oooh
pb
pau
pain
port
ree
rap
rent
rise
rush
sin
sed
sent
til
tour
tball
tilt
va
var
yak
za
##hu
##hel
##iator
##away
##with
##eh
##tan
##top
##oise
##cro
##kia
##gth
##foot
##ruff
##mark
##ule
##lam
##dar
##dunk
##bi
##bt
##bang
##zella
##sab
##just
##jito
beg
##ers
##anodon
doing
whirl
gog
gob
##llen
##omi
##oro
##itos
##lean
##lent
shir
sherr
##storm
##ooky
stereo
##ldier
##chel
lizz
righty
##med
tread
trey
tricer
##oulder
soy
soldier
outline
cha
ana
##mma
littlecritter
##adow
carson
carwash
##elly
pun
reader
boa
##aman
##pping
##tyn
freak
babyross
##amel
##ilock
rox
anyways
arri
##ackle
dribble
swirly
telletubbie
slife
##eland
##epend
##edo
##edit
##eden
meant
mechan
dibble
##athan
credit
bitsy
quad
quilt
underdog
##oline
##iona
##pect
mint
smock
##anae
doorbell
##avious
africa
enc
walking
dez
marin
maria
##anni
##annon
chex
cardboard
kevin
bunk
stru
dumb
duster
##ettie
penn
sunlight
unbutton
pantry
dumpty
##ounce
temp
tender
patience
mrn
lionking
launch
laver
laqu
##brown
halfway
skylar
dotted
trickort
burr
soapy
disk
twentytwo
twentynine
capture
goldilock
loy
##ariah
jazz
clapping
##izer
pawn
paige
steg
controller
luckn
meatlo
introd
##oyd
classroom
alison
alek
dipsey
peppermint
syd
syste
symbol
mercy
tiff
##eshadow
auntielynn
siamese
january
jenga
ahhh
snugg
nemos
teletubbies
mushy
jacque
##poly
rubberband
ragge
irrit
ohhh
koki
eyeshadow
slamdunk
complain
palm
tata
leapster
trev
surface
jewelry
tonya
diningroom
##ossible
smoothie
firefly
kaleyn
safari
nanarae
stuart
julian
mcken
dominos
nicholas
blonde
chunky
doubt
laser
bolog
susana
embarrass
ronaldmcdonald
brendan
elisenicole
viejito
donald
toddler
babyeinstein
rolypoly
carrier
locked
diapie
foundation
sclue
elevator
farahfaw
gorgeous
vrroom
alabama
thomasthetrain
eventually
tulip
arizona
##ograph
appreciate
lofty
triceratop
mechanic
meatloaf
introduce
system
aa
ax
aval
dick
dall
dwarf
esk
ease
ella
fant
fle
fff
gel
gerald
hone
harl
ill
kaira
lis
lon
litt
mol
mos
nee
pout
rul
sake
sirt
sbig
squelch
teep
tico
vill
vall
vcr
wea
wiper
x6
zi
zer
zom
zar
##hmm
##nor
##tor
##pity
##olyn
##cett
##gy
##give
##for
##face
##rine
##rence
##ressed
##mir
##mil
##mily
##uing
##zan
##si
##sea
##saw
##vious
##ville
##30
##ative
dood
dori
dodo
nook
##eren
##eregg
##ination
##easy
##orie
##iser
##isse
##ayer
##vell
##ooke
##leon
##lenie
##aris
haha
hawa
hawk
shame
heater
stain
stup
stiff
##ielle
form
knuckle
##meg
##mes
tru
trin
troph
sof
outer
alad
alice
alfred
##esa
chel
ched
chelle
chubby
howard
hus
huff
##andro
carseat
brid
breeze
bridey
buff
cos
coaster
cocoon
##ellite
##shot
blame
overall
ahah
aboom
grip
greasy
babybop
##abear
##aboom
prick
##ilie
##ility
situ
##ghan
gust
drunk
worth
agent
flood
##ipt
##ipment
##ipede
##eda
mane
hild
opening
sushi
diagon
lever
stuffy
##quack
ourselves
calla
##olve
headband
mini
hardly
smarty
walter
gluing
milkshake
garn
garlic
missing
##iform
marian
marlin
##tover
##ondra
##what
grandmother
barb
baref
skill
sketch
##achy
phill
##ettrain
ending
poster
##ichi
popper
united
uniform
cowgirl
bowwow
percent
##agascar
paris
adv
adel
##riana
rae
raja
##ofthe
owner
madagascar
stinko
heartbeat
salv
##ibal
twentyseven
leftover
yuckie
##ylon
america
flatten
papi
pappy
johnson
cuddle
seashell
##llege
chalkboard
ninja
thirtynine
engineer
shaw
whisk
##anya
scooper
radiator
##aughn
auntielenie
simple
jerm
katie
satellite
cabin
alphabettrain
marching
peeew
campfire
avoc
column
frederick
president
sneaky
##ruple
shhhh
morgan
racetrack
francis
imagin
boogity
equipment
receipt
joyce
masterpiece
##barrow
##littlestar
velcro
carebears
trailer
tushy
angelfish
pjs
twinkletwinklelittlestar
victor
babysitter
itsybitsyspider
##robin
easteregg
jeremy
interrupt
mashed
johnjordan
germany
sequin
whining
christopherrobin
stanley
unclet
conditioner
leggo
valentinesday
hardboiled
rocco
squawky
waddle
staple
missemily
waterslide
mrrogers
meowmeow
london
sentence
meantime
quadruple
raggedy
bologna
eskimo
teepee
zombie
stupid
trophy
10
aal
amo
boney
coo
cast
cort
dah
ep
eug
ethai
feet
gator
iron
iris
jab
jord
kea
kas
kyn
kris
lone
lise
lac
label
lantern
meep
mace
mate
mitch
molas
nuh
ox
oj
pit
pix
qtip
ranch
tippy
tackle
zack
zuh
##ii
##iant
##iba
##ness
##nah
##wu
##ely
##elyn
##pat
##pig
##park
##ov
##cul
##cri
##rose
##reat
##mix
##mus
##yer
##yse
##yana
##yla
##ywash
##loop
##dance
##bur
##bath
##belle
##seed
##song
##sday
##school
##ssed
##erve
##erman
theod
dos
toby
whether
gooey
ital
itty
##iner
##each
##omer
##ism
##aro
heh
##onat
##onnie
stor
stub
stump
style
##chelle
##urtle
licor
updo
##thet
shed
allerg
tramp
alt
chame
chuc
playhouse
annie
anna
##rad
##adee
##mya
carly
brake
brey
recycle
college
##elli
##ellini
##eedy
boggle
##aline
abel
abuse
##amole
eater
grant
babyc
spik
prent
prud
prefer
##ishia
hmmmm
##ilio
robe
gummie
drseuss
handy
##eryn
slob
sloppy
herb
herman
mug
##ggin
scor
scot
scene
workbook
sever
mania
mema
div
diet
##venia
##umi
##umd
crook
leila
underpant
##quito
hairbrush
exam
expen
mavis
gravel
gradu
walnut
gln
gloss
##avan
envel
##obie
mission
delor
sandcastle
barf
##ontae
##achel
mold
##ocular
fasten
peeky
unfort
##view
bunnyrabbit
##agall
##agirl
concr
adal
raven
raft
windows
tech
teeth
##intment
patric
crackie
mrt
mrsw
descri
lakn
bootie
dollie
daw
daff
petshop
antenna
twentythree
##frie
spelling
##syl
yucko
tighten
lukey
luci
lulla
melia
frosty
stacking
unclemike
##color
fifth
papajohn
landing
naj
connectfour
shave
summertime
jamie
pork
radar
chicka
chicky
nuts
sizzle
impress
paci
annal
cassidyn
polarbear
flashcard
rosita
doubledecker
kayl
rln
linus
violet
irene
alexn
bandage
sweatpant
wilhel
terri
binocular
loosen
jonah
frustrating
racing
faucet
lynn
##vania
cockadoodledo
fussy
jessie
receive
sewer
andrew
possible
##vonne
lindsay
lowercase
infinity
##chiecoo
confused
albania
mixedup
centipede
danielle
chancen
poisonous
search
greg
journey
##blue
divingboard
shooting
marcell
private
privacy
crowd
johnjordann
ferrari
iguana
completely
mantis
christy
ringaroundtherosy
consider
chapter
anthony
tortellini
mandms
blender
glend
okeydo
fiddlestick
toucan
##octopus
rollypo
deedee
##puzzle
carniv
oluw
treadmill
##ependent
pennsyl
burrito
easel
sbigday
aladdin
cheddar
prickly
avocado
gatorade
##ywashy
italian
licorice
chameleon
expensive
envelope
unfortun
concrete
describe
aman
aless
achoo
aaa
bomb
cop
cory
coot
dell
due
dama
dup
dale
eu
fever
geese
ick
jeal
jerry
kin
keen
lab
led
lamar
lolo
msl
nal
nue
nip
nash
niel
nibble
nanie
ome
odd
rout
riddle
riding
rico
sere
tess
tyn
vio
wig
yen
yas
zen
zurg
##hose
##ior
##ijah
##nu
##ned
##we
##water
##word
##wiggle
##elynn
##tt
##tree
##paper
##pond
##obe
##cond
##cust
##kee
##kay
##gile
##goose
##far
##fif
##fina
##rand
##rian
##mart
##master
##yun
##yia
##dress
##bin
##ben
##bil
##bench
##10
thor
##ount
beck
##erin
##atro
thewiggle
dong
doodle
tommy
##inc
##inth
##injama
##east
##isty
##ision
##itz
##aysia
##owel
##vester
##ario
has
habit
shi
sho
shr
shen
shah
shav
shamp
ohoh
height
helen
cand
cannon
##sth
##stitch
##onie
stur
stout
stac
bash
bass
##cept
forgive
kneel
allright
outdoor
##iden
aln
alv
alay
##esn
##eson
chay
ching
chad
chas
charm
atl
##tley
whoow
anin
anast
##andth
##andre
##andstitch
maken
caramel
brook
brod
cole
colin
##aunt
butz
bleach
overfl
ahha
##oho
##rys
##amera
##onel
frie
froot
freight
gret
grouch
greedy
clump
babymo
##ablock
spear
spooky
prep
##ishe
hog
##ilar
##uela
sitting
twoyearold
##ghorn
helping
necess
anyhow
arrest
##mpossible
sliver
##elin
##eph
##amae
leak
##gging
working
snort
mek
hiya
clement
sug
##athon
##vena
creamy
footsie
quin
ques
quail
hearing
hotel
##imah
##imus
##olia
hairy
washer
##entate
nosed
exp
expect
mais
maker
numbertrain
walgreen
birdhouse
kissie
dinos
death
crap
maril
##ilen
lunchable
##mani
##aila
##wayne
nappy
oldmcdonald
##aurus
dudly
##kenstein
phew
##ocah
##etting
battle
sunset
genius
crybaby
uncl
unsn
##kini
##hammer
perman
whooo
firehose
theirs
cornel
snowpant
##aleigh
##rik
bikini
spinning
edward
mrbear
chocolatechip
lln
##strict
magd
choochootrain
delete
polka
apric
wheelbarrow
rusty
dave
dishcloth
petal
perfor
perfume
##aker
compare
##press
quietly
donn
donna
jax
jamming
calcul
attract
##aela
splat
splinter
steff
refresh
addition
uncleyun
cuatro
##grinch
reset
geoff
thirtytwo
isid
isabel
ruffruff
##rielle
recorder
regina
timo
accord
kimpossible
##ergie
alpha
chickadee
##redame
sarc
nutty
sientate
jerri
swimmer
janie
spaghettios
deno
rosa
doritos
khal
goodnightmoon
charliebaby
charliebrown
david
columb
freddy
irish
lava
lavagirl
volley
loader
similar
georgen
emma
eyore
eyel
gymnast
##scra
##scope
shakha
awww
cinco
kathar
##daddy
frankenstein
teenager
cayou
connor
terrific
sewing
ribbet
fragile
randall
kermit
powerrangers
##chief
album
murry
leader
##jordan
jinglebell
carolina
swishy
josephine
futon
kiran
victory
babysit
crunchy
gwen
##anthony
smooshe
cheetah
sashay
marlow
tubbycust
embarrassed
iguanodon
basil
liloandstitch
manta
analise
megablock
ringaroundtherosie
wobbly
huckle
hucklen
creative
uppercase
abdul
commun
lollypop
american
##michael
oreo
snicksnack
mckin
##track
anchorage
beyond
november
cheesy
sagwa
saxophone
razor
kaiu
foul
gogurt
goblin
chexmix
irritate
honest
situation
diagonal
barefoot
lonely
pixie
allergic
chucke
babycassidy
spiky
maniac
example
windowsill
lullaby
rollypolly
pennsylvania
jealous
nueve
##nugget
##injamaica
shampoo
sturdy
overflow
babymozart
##strictor
apricot
jamminginjamaica
volleyball
tubbycustard
aley
aust
bb
cad
cly
damar
ez
edy
evel
fi
fash
gy
gig
gill
goud
gert
hid
ic
jin
jann
jena
kand
kent
kash
kerr
lame
litter
muck
mob
mile
nid
nell
nico
ora
ocho
obey
ogre
pes
pam
pog
pouch
pocah
ronn
rena
sill
tug
tina
tickey
ucky
ulys
vik
wanda
yul
yoohoo
yonat
zh
zel
zac
##hill
##hard
##ilynn
##iffle
##aqu
##wist
##wyn
##tz
##pion
##ois
##ost
##ointment
##com
##cee
##cane
##cio
##comb
##gom
##gate
##rat
##riss
##rich
##may
##mur
##mie
##mate
##mation
##mund
##yne
##yanna
##umber
##looke
##dee
##dington
##bingo
##zard
##vid
##vive
##ji
##jill
##jump
##jung
yous
beer
beef
beside
##eric
##eria
thed
##anah
doc
toen
toaster
noggin
whiny
whoohoo
goner
goopy
##inna
##eage
notredame
##eesha
##island
##uttle
##velle
##ooo
##ndi
##sean
##seye
##aren
hachoo
shere
shin
shor
hew
##sto
##stant
##sten
##once
##onic
##onso
stud
##irah
##ircle
##chio
##christ
##chagall
baab
seesaw
##ura
##urb
##ens
upsy
willow
willie
##meka
##medi
allie
jumbo
trot
trac
truth
soil
alc
##esus
##vert
chrys
##andrea
orig
orland
##ady
##adette
wavy
wasp
carton
carmel
##sher
##shel
##shoe
##shield
##icab
##ically
blu
blade
##gey
ahky
pumba
bolt
##alf
##ppy
##ppity
turqu
frown
grim
grinch
bigb
josie
clog
babybird
spen
prim
prison
robert
bookit
neb
neph
neva
armp
##bel
agust
flu
##arda
##ardell
##ipa
wayne
showoff
##epot
heron
picking
thingy
thingone
stoplight
scale
workbench
sem
sean
sexy
snot
sniffle
manger
megan
girlie
##nyn
sud
catal
##athy
wrist
##lfo
finn
quinn
##queen
##quita
hotwheel
purr
##people
washa
##entry
maid
maam
sideway
pey
##oser
tickie
glob
schoolwork
demo
treehouse
supply
support
marg
booster
elean
almond
##mance
grandm
##onta
colder
rocka
rocking
ski
skull
evenly
teal
mozart
clipper
woa
dumbo
excite
iceie
penelope
camper
actual
batch
popp
##vyn
ida
unw
unst
unpack
##agus
firecracker
untwist
##ians
##ianca
pigtail
##skid
conv
conor
constrictor
##aley
ador
betty
##rien
foam
teod
jackie
mrsh
keyboard
desh
acrob
candycane
delph
##arlie
salami
##gull
drewy
##ylee
loaf
olivia
caw
luis
garagedoor
pinata
pregn
beren
grandpar
rainbowfish
contra
contest
unclejohn
cust
personal
seagull
##erole
connector
twelveoclock
naw
nino
tai
famous
combination
timon
porcup
radish
tiara
kimber
frenchfrie
##ormation
angie
chickie
auntiepam
jayl
passie
raymond
michaeljordan
##itta
##itte
scootch
##borg
malay
cassini
casserole
henri
cec
cecil
oopsiedaisy
##struct
bullseye
nature
paddington
speaker
loren
serv
septe
charlies
underwater
puffy
##buster
freddie
hanuk
sneaker
erik
hulky
obvious
rollerskate
appointment
sundae
target
hyper
##ernand
condor
##senia
fussing
solve
solar
lilypad
surfboard
##heroe
rattlesnake
possib
lindsey
martin
information
toothpick
factory
explore
mattress
##joyce
cellphone
taxicab
mami
montgom
victoria
stingray
assume
prayer
barbecue
lumpy
richard
rebecca
smushe
speedstar
##grace
##attack
entertain
sashie
wobble
chuckie
creature
yolk
spirit
benjamin
mellow
mulberry
starwars
thelion
option
duncan
immedi
##ababy
rafi
create
grandmacookie
pbskid
rapha
##hundred
punish
arriba
sydney
snuggly
farahfawcett
mosquito
doodoo
unitedst
imagination
liseyn
prudence
scorpion
impressive
unfortunately
damage
violent
permanent
performance
calculator
eyelash
chuckecheese
fashion
gouda
iceage
mobile
pogo
##jungle
toenail
baabaa
nephi
armpit
acrobat
pregnant
porcupine
september
montgomery
11
12
ais
aya
bard
bart
cs
ces
cuh
code
casa
dere
dil
dag
dyn
dutch
dumd
ely
ent
eval
faker
gh
gur
gain
gall
gav
gian
gale
gerr
glynn
giving
hut
hant
ish
jade
jsl
ket
kare
keel
kaw
kache
lep
lup
lilly
lato
lance
locket
lero
mid
meas
mora
nil
nada
pod
pand
pachy
rue
rear
rik
riv
ramin
sile
sera
tame
tend
tyler
vick
wound
wip
xs
x7
xav
yow
yel
yash
yach
yoda
yookie
zs
zam
zah
##hook
##hia
##hana
##hem
##hung
##iha
##not
##name
##nip
##aisha
##wee
##wanda
##eg
##egg
##eus
##elene
##ti
##tr
##tit
##par
##pau
##pocket
##cal
##care
##carl
##gos
##gown
##gative
##fir
##feed
##fair
##fool
##farm
##fasa
##rel
##rew
##rena
##mut
##muff
##uan
##uis
##ugg
##log
##landa
##dom
##dell
##deb
##dedo
##depot
##bun
##bage
##zia
##zio
##zilla
##zli
##sor
##vet
##vas
##jan
##jam
thad
bebe
##aner
##anee
##animal
tock
tommie
noo
noon
nosy
##ered
##inah
##oriz
##isel
##isbee
##isode
##aye
##vest
west
##ndr
##ndel
##anta
##anton
##antic
##antha
##aree
incl
hash
haunt
hazel
shane
sheryl
hehe
##stalk
##styn
##stache
##illia
stad
steep
steel
stirr
putt
##chi
##cher
##chaun
##chellen
baking
##akeet
##odil
upstair
uppy
##thew
##thousand
jug
judy
juicie
sox
soggy
chen
chau
chall
chank
chute
chero
chili
choriz
humm
hugh
##icka
##ickle
justice
anv
anne
ansel
##andon
##androll
littlebill
littlepeople
##adal
##adilla
##adillo
waa
##bydoo
##thern
##myn
carve
carter
bran
brent
bryn
briann
backside
bully
busty
bughouse
buffal
coke
coach
##ello
##short
took
##icken
##icked
blower
##ryl
myk
alrightie
##amine
twisty
frisbee
grief
clink
claire
prove
prize
princ
##lorer
##uese
situp
roz
rond
roby
rosh
els
gummy
guido
negative
##aston
archie
droopy
swiss
floppy
##airis
##ulture
byr
sln
##elis
hersh
hermit
mummy
mufasa
honeycomb
##ros
scan
score
scub
manage
memo
##nya
##ahl
diver
keeper
wre
critter
final
moustache
leora
quent
breakable
##ista
##nest
closeup
hotter
##imate
##iment
##olantern
##cleaner
tablespoon
headbut
hardhead
washington
trainpuzzle
exhi
nummy
gracie
doorway
tickly
meaning
globe
##avis
daycare
circ
newborn
diner
dinah
##obi
garfield
misskim
dean
debor
sammie
homedepot
##mae
##mag
supper
##ify
joejoe
marice
marion
marcus
##toy
elex
##whale
grandad
##annan
##ontas
wooh
wooo
##acio
chey
##asso
rockandroll
lightsab
cardinal
keir
cheesenip
bunnie
nightgown
mole
blowup
##occhio
snackie
aircond
badly
pointer
popup
windshield
una
##haan
armadillo
perhap
emery
greatamerica
##uguese
parmes
parakeet
sevenoclock
happyh
happymeal
addy
adela
betsy
##riah
bible
dressing
quackquack
forgetmen
brotherbear
jackolantern
boomer
boomboom
##aryl
mrgrinch
##ippi
##ippie
##derm
ehh
##bies
strawberryshort
eww
quicksand
godzilla
rubby
##ational
skyscra
##cycl
blessing
santos
ruby
performer
##iyanna
##rechaun
##moni
##leta
disaster
process
##guard
##cloud
##ylah
survive
donnie
##atherine
bumper
##nold
amar
amir
amand
cait
decision
braed
caln
calf
pinwheel
pinocchio
##ized
bertie
tyre
##onya
medal
unclech
darth
streetcleaner
##lynnn
##coat
luckily
robber
artwork
harp
harvey
resist
respond
##ienne
thirtyfive
##onimo
magician
shammy
##oya
##linn
mistertom
norma
karol
charger
charity
symp
beachball
collin
gordan
stamper
##quez
peterpan
doughnut
announce
mostly
jenay
jenna
ashton
spanky
magnadoodle
memorygame
esm
mrscl
weirdo
filthy
webs
natur
twisted
padthai
##glas
linn
geronimo
lens
lenore
jacq
jacob
titairis
lifeguard
indiana
independent
davie
smooch
aidan
ellie
chopstick
koal
mischief
barrett
morris
cyborg
palmer
sens
ramun
ramone
warning
smokey
felipa
thunderstorm
fortyeight
smacking
slapjack
skunkie
valer
dalmation
otter
linden
goldengate
infection
saniya
kelly
zevin
involve
misslisa
rhinoman
poem
angela
seriously
mcc
stingy
photograph
progress
quintet
bossy
distracted
gracias
lightningmc
mamma
terence
arcade
certainly
sidd
cheeto
bolivia
franklin
frances
babababy
sequence
237
deaf
issue
rachel
yahoo
whackamole
hannahmarie
general
mulan
multip
aprilfool
harmonica
pitcher
optimus
scrambled
saggyba
nursery
mexican
nathaniel
kappie
portuguese
##justice
encore
launchpad
stegosaurus
trevor
stuartlittle
embarrassing
fantastic
littler
ruler
village
zerber
##milk
episode
stubborn
daffodil
mixedupjungle
cootie
routine
thewiggles
prepare
suggest
quesadilla
geoffrey
timothy
jinglebells
communic
pesach
pocahontas
student
turquoise
grimace
bigboulder
prisoner
semic
adorable
grandparent
thelionking
dumdum
leprechaun
measur
pachyderm
##hungry
stadium
cherokee
chorizo
hummus
buffalo
hardheade
exhibit
lightsaber
perhaps
parmesan
forgetmenot
strawberryshortcake
skyscraper
goldengatebridge
lightningmcqueen
aj
ave
ast
aam
aure
avie
arab
burt
binkie
ci
cav
cider
dul
dang
dye
dari
dubby
eff
egh
eph
fah
fuh
gin
ging
gad
gib
gentry
hin
ih
ian
ira
icy
ire
jr
jy
jap
jene
kix
kort
kho
kaboom
lit
lle
link
lula
mong
mode
nand
nas
nero
nnn
nasa
oth
ooop
oley
ocie
oobie
pita
pylon
rr
ris
reed
rona
sig
sight
sage
sift
sefer
tc
tia
tyl
titar
ut
von
wis
ween
wine
weak
wiley
wicked
yv
yad
yuh
zan
zone
zzz
zoop
zsl
zuc
zergie
##hen
##iane
##aiya
##wig
##wes
##wall
##willy
##winky
##eer
##tw
##tiger
##towel
##por
##put
##pow
##pour
##pture
##pooh
##pump
##och
##cc
##cage
##city
##keem
##gue
##good
##fo
##fay
##food
##rary
##risa
##mor
##mia
##muel
##your
##yllis
##ln
##look
##lead
##loe
##lav
##lift
##lition
##linda
##dn
##des
##dish
##dong
##billy
##bla
##bwee
##zir
##ziah
##zetta
##sun
##sil
##squ
##spl
##sandra
##vo
##vil
##vity
##vada
##jer
##jame
##00
##11
##66
bever
becky
##erfish
##ermine
thebig
##ankey
dow
toes
toad
tori
toney
tore
nora
nosie
italy
##eto
##eter
onet
onee
##eara
##omoo
##omas
##omous
##oree
##orize
##eech
##eezy
##itl
##itor
##itation
##utan
##oosh
##oodle
wesley
##anti
##igo
##kevin
##arah
##arious
##arily
##arently
##arrius
ins
intern
invent
hamm
hamp
shock
heman
cane
##store
##stack
##onne
##ldine
##chin
##chill
##channel
##chini
bait
lib
liar
##eni
##ense
##enge
##ength
looky
##celia
willa
william
##thea
likely
##megn
allen
trop
##idan
##esia
chet
ches
chess
chery
chart
cheez
chitty
chriss
chloe
playmo
##wna
whopping
anto
##rag
##ragon
##andah
##indy
moma
orph
##otatohead
littlefoot
wak
wally
waist
carey
bri
brin
bron
brie
bride
brim
brynn
reggie
review
##ivel
##shh
##icio
##icular
##eedle
blake
blankey
ahn
pup
puss
##apse
##aping
##alice
##amary
##amhat
becca
tweedle
frann
grin
groom
griff
##mbal
joan
joce
clam
clara
##abell
##ethia
##ethirty
spade
prod
pric
prof
printer
priest
hollis
officer
finding
roj
elin
elie
elvis
argh
arey
ardis
drue
swash
swerp
swoll
##asi
flop
##ipline
##ulpture
##elan
##elace
##elmo
##eloupe
##edule
thingtwo
##ggiet
##acey
scarl
sculpture
seis
sele
selena
semi
snug
manuel
threeoclock
threeyearold
mendel
aspen
boyfriend
##ssil
pushing
hurrah
hurray
sully
sulley
catfish
dimit
writer
##uma
birth
cran
crate
crew
cruise
lend
leggie
gameboy
quiz
breakdown
##iston
##qua
##alkie
oopsy
##imi
##imon
##olos
dann
dane
dannie
washup
##arex
exit
mazy
sillygoose
sleepover
squir
squoosh
gravity
jumper
matty
mmmhm
mmmhmm
walmart
birdseed
potpour
glider
monica
##avion
##avius
mighty
##ogue
runway
walkiet
##obob
garp
missmary
sagu
##macdonald
particular
##ifact
mario
lunchbox
##forest
##ashia
funnybunny
##berg
skittle
kev
strength
moth
moomoo
blowing
oldmacdonald
##aura
woow
phony
##ocamera
garbagecan
penis
##dley
bubblebath
##zek
peeking
windsor
genie
sockie
chickenpo
unkn
gabriel
##plug
hopper
setup
grandmaelli
banan
blackbear
kickball
##ski
rainforest
knockkn
##asket
bounty
clothing
whoopin
##sonthe
straightaway
fossil
neverland
jackn
jackhammer
mixing
christoh
christina
boombox
##cious
layer
videocamera
monstersin
desha
deserve
accept
puppydog
##eya
erick
parking
madis
madel
##bration
##bruary
godmother
warmer
wakeup
ruf
rudo
antw
##iyon
##reme
##reate
burner
salam
saddle
##monkey
##aki
probe
##feather
micro
miccan
moooo
##proof
cursive
##yland
lois
lovie
loving
auntsher
##ariq
forklift
kln
oliv
amad
amal
cald
luz
creamcheese
veggiet
##onni
##boot
flatbe
princesslo
pinball
berne
splish
cheerlead
##spid
jeann
buzzyear
buzzbu
johnwes
steven
stevie
corl
corinne
##sword
digital
robbie
artifact
kenny
harri
nazar
geck
tubtub
caseyn
tawn
taqu
thirtysix
##oys
carpeting
secretary
locker
pearl
saumer
norris
northern
classmate
recently
karel
timone
charley
wishywashy
collapse
meeting
woopsie
auntiejill
auntieshel
extreme
visitor
##marion
##oraven
saran
goldfishie
impala
impressed
trashcan
rugrat
janay
queenie
verse
vernon
veronica
crossword
##borgh
bandaids
videotaping
ashy
ahhah
cassidy
cabbage
dannyn
kayla
dingdong
##slee
evan
linen
silky
dorthy
tanker
disneychannel
khrist
length
health
series
february
titan
##point
##anche
index
benn
benny
squeaking
cheating
sheri
sippycup
##buggy
crumble
powpow
lamborgh
ellen
terra
banker
lakemich
obsta
obsess
appear
apparently
keelyn
foxins
eyed
shhhhh
nicer
nicco
tarzan
clearly
thoughtful
shaky
brandon
fiftynine
fiftyseven
sabast
sabrina
hyp
clarice
captainfeather
dvds
canteloupe
kathy
mussel
##nesha
babyjesus
destin
teentit
frosting
##emum
valve
maxx
cottontail
millard
otto
muddymountain
scottish
gamma
schedule
##eshawn
hoopdedo
ssoraven
zev
##beaver
invitation
fabric
claude
claudie
macken
yosh
##rrrr
angelyn
daniela
nikola
elias
fuzzywu
itsybitsyspid
bernadette
determine
shelby
pollypocket
lawrence
russian
lincolnlog
gwend
##anthemum
speedbuggy
maureen
travis
fingerpainte
ferris
wheatth
sharkpark
elisenn
aaron
evelyn
ssss
view
arrange
crispy
mazey
##avior
thunderbirdfour
corey
eulalia
faye
cobra
celest
tinkywinky
tortilla
model
discipline
harmon
jakejustice
kwuh
kalli
kahl
sevren
jodi
plankton
nursing
tango
##happy
##salt
upsetting
orangutan
mexico
concerned
##bangbang
shirley
readerrabbit
trickortreat
trickortreate
molt
weapon
zimb
hawaii
truly
husband
buffer
smartypant
phillip
francisco
uncletom
quadrupledecker
molasse
oxford
tippytoe
trampoline
carlyle
abelino
slobber
graduate
teethe
terribly
okeydokey
oluwat
omelet
shoelace
cannonball
stacie
bashful
##esnow
frootloop
unsnap
attractive
columbus
marlowe
megablocks
gigantic
hidden
ulysses
chrysanthemum
spencer
nebula
demolition
rockabye
rockingchair
unstuck
mrshen
service
obviously
immediately
raphael
entire
raminator
silent
##first
##debbie
include
haunted
chaunce
challenge
chankla
scuba
wreath
misskimn
boomerang
unclecharlie
ramunition
aprilfools
optimuspr
semicircle
titarachel
zucchini
##splash
tropical
cheezit
##andahalf
profess
swashy
swollen
potpourri
walkietalkie
sagua
chickenpox
unknown
grandmaelliot
blackbeard
knockknock
auntsherri
veggietales
cheerleader
buzzbuzz
johnwesley
saumersalt
lakemichigan
obstacle
foxinsock
captainfeathersword
fuzzywuzzy
pollypockets
911
ai
aay
aver
amber
aster
ambr
ava
avery
aurel
bom
bod
bink
boulder
ced
cable
cyn
dink
dand
ditch
dara
dene
duffle
data
dicie
ek
elly
eggie
esp
eust
eva
egy
fern
gather
giles
iy
isp
ivey
ionic
jur
jace
jigg
jonn
jonel
kon
koh
kear
kater
kass
kory
kre
kael
kara
kesh
ls
lur
ling
lain
lal
lel
liss
leel
lane
latch
lara
lola
liter
luna
linkie
mild
mare
mete
miles
nade
nala
oof
odie
pi
pep
pina
pik
roh
reel
reese
rumb
retta
roman
riley
ricket
riki
ritz
sq
sall
seth
sday
saint
syn
sippie
tama
taper
tye
tif
tany
tamar
tdon
umm
umb
ult
vy
vom
vang
vird
voom
vert
vida
vulture
wi
ww
won
wink
ward
wigg
x8
yaz
yvonne
zz
zoh
##hin
##har
##hog
##heal
##ilor
##ially
##iberto
##nen
##nal
##nice
##nard
##nog
##ninet
##aj
##aan
##aven
##egr
##emar
##tea
##pool
##puff
##pson
##paul
##otha
##ovia
##cas
##couch
##cilla
##kat
##kita
##karen
##gun
##fortable
##flynnn
##rom
##rid
##rite
##real
##relle
##rene
##mind
##mal
##match
##mari
##measure
##yi
##yd
##yra
##uf
##uke
##uish
##uardo
##lod
##like
##layer
##dot
##dde
##drick
##bat
##bon
##bile
##bett
##sus
##sian
##sign
##sara
##vroom
##vian
##vanny
##jat
##jul
tha
thur
##erd
##erv
##ercat
##atef
##atosaurus
thecat
##anha
dop
dock
dome
dooh
dore
tobo
noe
nonon
whup
##erence
goom
goes
gokie
item
##etoy
##llivan
##inion
##inia
##inosaur
##easha
##omo
##omfortable
whatie
##isi
##isp
##isan
##isia
##isses
##itzy
##utter
##utica
##ayna
##ayola
##aylee
##owit
##veer
##ooze
wes
##antula
##kes
##kell
##lele
##cka
##ckley
##arine
##arrow
##omena
inez
hav
hass
haley
having
shab
shale
ander
heigh
hedy
canister
canada
##stle
##stone
##stock
##station
##onio
##onounce
##iller
##irap
##ldon
##char
##chch
##chess
##chocol
##chilla
##cherry
##chest
leta
lets
baggie
basic
##inguish
lima
##odie
##ener
lookout
##cell
uppity
goodie
plop
plumpy
plumber
##iece
forrest
##thand
##thef
##thomas
knox
shep
allene
usual
trice
trim
troy
trinity
##idal
ali
alon
alba
aliz
alert
alva
alvin
aloys
chere
chea
cham
chuh
chug
cherr
channe
chryst
cheryl
chichi
huy
hula
whop
ane
anj
anni
##rael
##ando
##andmy
##andyou
##andjane
moms
littleone
littlecloud
##adie
wax
wack
##myah
carmen
bru
bree
brig
brianna
##idel
bugger
rein
rema
reyn
regin
replace
reyna
recycl
coy
##aundra
blay
bloo
blob
blub
bloom
ahold
pub
puck
pucker
pudde
##apple
##outwith
boing
##alina
abh
aboo
abra
abby
abbie
ability
##amie
##ameal
twerp
fre
fright
gree
greta
bigbig
##mboree
jol
joanne
joanie
clea
clunk
babykend
babyem
babymeg
sphere
pris
price
pronounce
hoed
##eare
##earf
rolf
rojo
roland
elf
elm
elia
elise
elize
elisha
waitress
aris
aren
arlyn
arbit
arnold
dre
driving
drsu
dripping
droctopus
award
flub
floyd
##eli
##elie
##eleen
##elion
watercolor
mum
##issippi
##upe
##ggan
scone
scient
scanner
scuttle
workout
snitch
snarl
snooze
opinion
meme
meercat
asia
aspar
##angelo
##angelfish
##ahi
##aha
##ahoop
hiho
##sson
suff
suction
diana
##eetable
##vene
drawbridge
cru
crop
creed
crater
crayola
mousie
bitiba
leigh
undershirt
##quat
##new
##neck
hotshot
purim
callie
##olina
##olette
dani
dany
fisherman
fishhook
mina
##uhuh
hairdo
##ilde
##enton
##eelah
orangejuice
makin
macy
maje
smee
smith
sillybilly
##osa
##osion
tickling
##steria
singer
papertowel
birdfeed
puzzles
monie
afric
daytime
running
newton
touchdown
##oboard
garg
missrob
deont
demar
deanne
devon
samm
sailor
cram
cradle
##mac
##max
marla
margu
marvel
marsha
marvin
fingertip
boogey
##using
##usual
##toes
##tothe
##ilei
##ilene
sander
sandra
##who
##mane
grandman
grandmommy
barry
##acia
rockstar
##bern
skating
teacup
kei
##achu
stranger
catcher
duchess
stepmother
sixthirty
exclam
##etti
camille
poom
pollen
##icho
##zey
##zeer
horseshoe
pope
poppop
idah
unplug
unusual
##plish
bowtie
arminda
perm
slidey
wipeoff
emu
emme
emerson
matchbox
tapemeasure
cornell
cornbread
bugs
bugaboo
banjo
##iani
spidergirl
##sky
##skater
convey
checkup
seventh
seventhirty
strainer
adon
adah
adolph
storytime
##rianna
raff
spiny
wheezy
nevermind
tevas
##inta
pattie
##crunch
##crisp
edn
edna
jackpot
brushing
christine
mrkevin
dinnertime
beluga
trike
##ofju
spotted
llama
lloyd
laurel
lafay
##style
mousepad
errand
ernest
parker
choochoos
delano
polarex
##bre
apatosaurus
ruben
##worth
davey
wallet
perform
thompson
antion
##arli
burry
salome
salmon
##ibeth
##monique
mica
##guire
##preet
ringmaster
zooga
##club
quieter
##ylin
coffeetable
bobbie
auntf
ami
amount
jammy
lud
clapper
vester
##ividad
calvin
tiedy
melvin
sheepie
rhe
banging
precious
telescope
diez
tysh
tyree
##speare
jester
spitting
farmermommy
johns
contact
uncleb
uncleke
uncleken
uncleda
unclepau
cudd
stomper
rowland
dario
darlene
darrell
##ymouse
micha
michel
michelle
seaplane
##great
luckis
artur
artem
kenley
nazeer
sharkboy
respon
tuba
hippity
##ophamhat
magical
magictree
##oodsn
shaqu
##lino
mistertiger
isac
packet
jami
recital
closing
karen
alej
diplod
pastor
sybil
syndr
visor
merri
samual
collie
collage
kiara
neatly
auntiekaren
jayd
raymon
##ronome
sarge
sharpie
ileen
nutmeg
impat
jerra
jersey
laurie
janetta
##kai
##flie
queenfro
verlin
annette
rescueheroe
##borne
maly
malak
pirates
piranha
snuggy
extras
fatin
hamburg
barkley
rosary
hornet
rosemary
dinga
natan
natividad
##slife
twistie
evange
evans
silk
##alynne
kanga
disneyland
khan
torrence
loran
seraph
motion
rewound
maryjane
india
##lief
kait
smoochie
ireland
lavonia
sonic
stephan
exerciser
alexis
cucumberinth
wilty
wilbert
hulahoop
obser
rollerbl
##knowit
emmarose
marshal
eyetoy
jonath
broke
darnell
tarantula
cymbal
brandy
pullups
dental
palace
palette
sabri
confusing
confetti
rodger
roderick
tucker
clarence
clarabel
kathleen
##uarus
undressed
franco
francie
rashawn
felix
trexe
romper
kelsey
terrell
terrance
venomous
alyx
alyse
damn
damian
mikayla
joystick
##miere
random
steamroller
bathingsuit
schmut
fortune
seventyfive
estef
mickie
mickymouse
tadpole
##unda
explosion
aqua
derby
derail
kellyn
##beast
##bitsyspider
cellar
comfycouch
kendall
aksh
javon
javier
msmegn
dragontale
eliza
augusta
augustine
mallory
sharpener
##licor
assist
author
fourthofju
johnnyjump
journal
argue
eightyfive
transfer
detect
shelter
pollys
sylva
grams
kennith
whoopsiedaisy
isaac
galit
lillian
sidney
talent
##andthebeast
frankie
margarine
jennifer
izora
navyp
##disney
julius
experiment
discover
discovery
tatti
233
metronome
delivery
daryle
selfish
wysteria
barnyardbingo
uncomfortable
lakameal
conditioning
ethan
##hande
##wellyn
##uzanne
##leaf
carriage
marcchagall
generator
tripledecker
jacqulyn
eek
jhon
merrill
oakland
leggoboard
danieln
gloria
mackin
##octagon
aerial
munchkin
urchin
veterin
googly
incredibles
babykylie
babykarli
bongo
daphnie
miguel
romeln
##ferd
grandmasuzanne
concert
mrspotatohead
electricity
europe
gazoid
maud
dezn
marinate
struct
struggle
mrnook
mrnoodle
laverne
alisonlynn
avalanche
dickandjane
illustr
sirtop
sirtophamhat
gustav
hildeg
sketchpad
uncletim
londonbridge
coocoo
coochiecoo
mitchell
prentice
scotland
several
divide
moldy
technic
mrswoodsn
carnivore
carnival
niels
serena
##sthed
bassinet
whoowee
gretchen
grouchy
necessarily
uncler
isidoro
clyde
gymboree
nellie
thedford
alcide
original
bluearf
primary
poppa
unwrap
convince
teodora
customer
hanukah
possibly
speedstars
chuckiecheese
unitedstates
cesar
hanty
kettle
pandabear
rikki
yacht
##notize
##fairy
stirring
princip
hershey
aircondition
esmera
natural
sensitive
saggybaggy
communicate
measuring
gingham
llewellyn
mongolia
risie
utah
##bweebwee
##james
toesie
chittybangbang
pussy
woowoo
##sonthebus
splishsplash
hypnotize
teentitans
russianblue
chauncey
bomber
egypt
mildred
meteor
pikachu
rickety
www
##egrate
##jaturtle
##julie
doohickey
toboggan
goomba
##leleven
hassan
heighho
##iraptor
##cherryo
channeleleven
##andyouknowit
recycling
babykendall
babyemily
babymegann
hoedown
arbitrary
drsuess
flubber
asparagus
majesty
birdfeeder
african
missrobinn
exclamation
conveyor
lafayette
polarexpress
uncledave
unclepaulie
cuddly
magictreehouse
diplodocus
syndrome
queenfrostine
cucumberinthesnow
rollerblade
fourthofjuly
johnnyjumper
navypier
lakamealia
veterinarian
hildegard
coochiecoochiecoo
130
au
ain
aun
aff
avy
aja
aky
aiko
bony
bianca
cuff
cum
coon
cail
ciel
copter
caul
diddle
ddd
dena
dune
dede
daba
danton
een
ene
ethe
emper
echo
fear
fol
file
fail
font
feast
gs
gau
gam
gail
gag
gio
glyn
geeze
gunk
gany
hom
hoh
hong
hart
hann
hannie
hettie
immer
ille
izzy
issa
jat
jig
jare
jass
jian
jase
jero
jany
jho
kc
kes
kama
kour
kac
karm
kach
kord
kipp
kak
kym
kiki
keren
kobi
katherine
kisses
lure
lack
lour
lol
lub
lus
loser
mie
mish
mia
mucky
mention
mika
mira
mason
meryl
mardell
mered
nir
nam
nab
nish
nim
nya
oun
oma
ober
osk
omar
olene
ozie
ossie
pere
pry
pip
pel
peak
pate
pav
pomp
piper
pshh
qack
rut
rink
rith
rame
rish
rate
rare
rana
rav
ridge
riva
raleigh
rrrrr
sigh
sod
sie
sind
sama
sark
sri
serg
ssl
sized
ts
tass
task
terry
tula
tiko
vere
vic
vas
voc
ville
vickey
veda
wease
wise
womb
winkie
witzy
xz
x9
ys
yook
yank
yale
zin
zor
zur
zag
zaid
zaria
zuri
##hy
##hau
##hock
##hav
##hipp
##honda
##hicle
##iod
##ione
##noor
##nisha
##nibal
##wina
##wamp
##west
##woman
##ebe
##eater
##eisha
##edyn
##table
##pigg
##patch
##oi
##oen
##osh
##olfo
##cod
##call
##cion
##cross
##cuum
##corder
##cookie
##kong
##kley
##kari
##keeper
##kwon
##gery
##gang
##gob
##gna
##gene
##fight
##fun
##fold
##funny
##rill
##res
##reen
##range
##rett
##rio
##rance
##retta
##ruth
##rillo
##mith
##mad
##mous
##made
##mira
##mical
##yo
##yr
##yan
##yed
##yeah
##uet
##uct
##uella
##uelle
##lou
##lion
##lower
##lani
##lomo
##ding
##dery
##draw
##ducky
##dette
##dalia
##bot
##bad
##bery
##bul
##block
##bling
##zoo
##zle
##zon
##zelle
##sis
##sing
##sue
##sack
##sister
##skin
##vn
##vat
##vita
##jin
##jar
##jio
thigh
thump
thumpy
thief
thai
youyou
beater
beryl
##eraman
##atore
##atra
##atta
theit
theme
thethe
thevery
##anor
doop
doot
dolor
dope
dozen
dodge
tol
tosh
tont
torah
noct
wha
##erett
gone
gong
##etz
##eton
##etto
##etric
##lli
##inthed
oneth
50cent
##omat
##omon
##ombone
notch
##org
##orter
##orange
##orris
##eef
##isma
##isyn
##iselle
##isabel
##itan
##itra
##itsa
##ution
##utton
##utgl
##ayan
##aynen
##oween
##vend
##velt
##vella
##sei
##iga
##leghorn
##aron
##arang
##arion
##arus
incr
invest
haul
haiti
hazard
shit
shard
sharm
sharl
shyl
shmel
shari
shield
shaun
shaunt
shlomo
andy
hed
hemi
hedge
canad
canine
cannibal
oneida
onehande
##sti
##sthing
##stumbler
sty
stef
stalk
stale
stumbler
##irra
putty
##chet
##chop
lettie
bale
bage
baggy
bailey
##inga
##inge
lia
lif
liqu
limit
limbo
##cey
##cel
##cella
updown
gooder
plat
pluck
pleas
##ieb
##iella
##ieval
##then
##thia
shedd
##meout
##mess
##mede
##meonce
allison
jus
juana
juda
juju
somewhat
usher
trish
treet
trist
troop
trape
triscuit
trombone
sole
sopl
##idee
##idith
##idia
##idence
alver
aline
alana
alona
alicia
alvina
chow
chose
chann
chass
choc
chord
chugg
hump
husha
##orey
justine
annel
anielle
anibal
##opa
##mmar
##mmye
##rae
##ral
##rase
##rail
##andt
##andj
momm
orch
orly
##oto
littleman
##ading
##aden
##adore
##adada
wast
caron
carme
carman
carla
carib
carrie
carlene
carleton
carole
carroll
carolyn
brun
bront
backdoor
buz
buggie
rey
rel
reuse
reba
reym
rept
reginia
relief
##shon
##shark
##shaun
##aunda
##icol
##icus
blur
blug
bloss
blaine
overnight
##geon
ife
ifyou
##ohs
takemeout
##teria
##apy
##aped
##april
##appoint
uhh
mych
abig
twake
freed
franch
fritz
fringe
greek
joc
jog
joz
joell
joss
joellen
clod
clop
clot
clum
clark
babybear
babymat
babyshake
##abc
##ethea
spool
speech
sparrow
##amed
pred
pros
prisc
##ishywashy
hoe
hoy
hob
hollie
##ilical
twothousand
roe
rover
roam
trystan
dadadada
ela
elig
elane
elian
elastic
elza
elvia
guil
nek
neil
nept
nelda
waiter
waiting
##essie
are
ardy
arist
arlet
arland
arlo
drown
drier
##eenah
##eenrabbit
handstand
handful
##asse
##asus
##asaurus
agatha
maya
mayo
mayer
flipping
##ipizza
##airi
##inem
##iney
##artment
telling
whiz
showing
slot
slug
slither
slope
##nton
balloo
pleased
##ctuary
herbie
hermin
bluebear
bluejay
honeypot
honeybee
honeycrisp
##upon
##roe
reda
redo
redso
stickie
scat
scout
seite
snip
manager
mansion
mangos
threeleaf
greenish
greenegg
oper
opie
opera
oposs
picasso
meh
meate
meyer
meandmy
##nye
##angela
##ahel
hijo
hiyah
##movie
kinda
opener
suk
suzy
susp
sullivan
cattle
catfight
diam
dimas
diva
keeps
wright
crock
creak
crest
cookbook
##ooney
ley
lez
leot
lester
quetz
breakdance
##istol
##nemo
closely
toyota
purplish
mouthful
##imately
##oli
##oland
tablecloth
##ional
fisher
miner
minna
minivan
hairball
##eworm
nextdoor
cookiecut
nosey
sweety
exhau
nukie
orangey
mav
macdonald
maisy
boxing
purpley
talking
smear
juicebox
squirty
squeal
gracia
pepp
pebble
peato
matth
##osf
##osit
blockbuster
fivelittle
lovell
meanie
meanwh
walt
birdkeeper
potter
gloom
glutgl
monitor
##avier
drinkie
afton
schoolbus
cirilo
milky
runaway
standard
newjer
kissmeonce
legoland
garland
missie
missdebbie
mississippi
deann
debr
deanna
devel
dego
sak
##eeka
craig
##ubba
partner
##ifred
##iflower
marj
maris
marge
maryl
mariel
marym
margr
marva
mariana
martha
marlon
married
marrion
marathon
appleseed
rollin
##usion
bathtime
##iselda
##ileigh
elenor
##manuel
##ailah
elmos
barber
differently
coldcut
##acar
chemical
lightly
lightyear
##sico
##berty
hideout
skye
owow
owen
duckduck
soundtrack
kem
keisha
hungryhungry
cheesecake
strate
##them
##they
##thego
eggle
eggroll
eggnog
mochilla
##ayonna
clippity
oldie
dummy
phat
phyllis
phebe
phoen
##ocked
##ociraptor
icewater
iceberg
winne
winifred
chickend
##usha
camion
camara
cameraman
badge
active
actress
pox
poly
sunburn
suntan
elephante
popo
poppy
windup
geno
unroll
unheal
screamy
gabry
gabsn
##enda
##vieve
##plan
##rowrow
armida
hopping
hophop
perry
perrin
persian
emer
emil
emilio
eminem
firehat
pressley
wholefood
##useum
##tomeal
brownish
untape
untangle
##ynne
monkeysong
tomas
snowy
snowpl
snowstorm
paralee
conley
congest
conrad
constant
convert
raincoat
eighth
vroomvroom
##ballgame
dumper
ada
adell
admit
adjust
adolfo
##angles
##riate
##rios
raa
poohpooh
bippity
whoops
##atoria
puppick
ladyandth
temple
behavior
luckyn
patry
patio
##cruise
##cruz
eddy
edel
edmund
edwina
jackpack
crackle
christen
christoph
mrbill
##ofch
##ofia
sprite
chewy
bouncey
eron
erez
made
madd
madlyn
delane
delonte
delaney
delfina
##brittle
##brother
##brate
rubie
carrotman
teddygra
wheelchair
wallrus
fruitloop
antelope
burdette
peanutbrittle
disappoint
##fran
spells
##sybitsyspider
composer
cliffie
perfecto
seaturtle
##pret
instant
##clop
##clip
##ylan
##ylani
##ylobster
survey
surgery
auntv
auntmar
auntnan
auntsara
superstar
coffeecup
##melinda
southa
tightly
hammerhead
amada
amalia
jaime
luke
lumber
luiz
lucie
lukah
luvenia
jellybell
vehicle
##ivon
bralyn
bradley
dragonflie
apartment
beanbag
flatstan
melod
melissa
rhonda
weee
presto
premiere
berley
frozon
cheerios
tyqu
##actory
##spir
vaccuum
wiggleworm
##nique
medieval
##ishawn
delicios
johnnie
johnhen
ryan
stepping
addie
uncleshawn
cori
corrie
corbett
rowrowrow
safely
daris
darby
darrien
alligatorman
##errat
michele
lilia
lilian
##grund
##coy
robbin
kennel
##bears
tonguet
vacuuming
harsh
harman
harrie
harlene
naz
geov
ninjaturtle
nearby
##ienna
payton
taz
taj
tamy
famili
thirtyone
thirtythree
croak
##oodoo
busybeaver
splashing
##umpark
##anial
isma
isiah
isabelle
israel
ruffle
sammys
pearlie
charlsie
classic
jamal
jamile
jammed
regan
region
frying
lars
laren
larue
larita
##ption
dipsy
charnell
cousinmax
scoobysc
scoobysnack
porter
merdis
samuel
collins
gorden
kimb
eras
alphon
chickach
auntiejoyce
cds
##butt
extinguish
jayn
jayjay
powerful
raylin
##marco
##sname
##isai
furth
paco
ricemilk
nickle
trashy
laureen
##valdo
##etubby
janice
katr
pokemon
smileyface
vernie
verda
version
##ricia
annmarie
annamarie
dustbuster
brighter
jenelle
malik
malachy
maltomeal
ashe
ashanti
blueberryhill
hensley
magnify
##annyn
denis
denver
dennie
dennis
denyse
polaroid
fatim
florine
##washington
dealer
kingdom
rosario
woodys
giana
kaylin
rosey
roselyn
hayden
junglebook
##keria
##amarion
dizzytea
everett
evidence
linnie
linna
silvan
dorris
dorsey
cindy
gardening
lenette
lenora
tillman
broccolipizza
logan
tito
rewrite
bennie
campbell
rossgrund
ayy
ayd
dessie
davin
davion
sherman
sherri
broomstick
sparky
nerd
tamera
vito
duckiedance
lordlicor
uganda
yumm
yummie
fishingpole
lavaughn
stephen
stephanie
bluesstock
presley
preserve
alexand
alexys
bandana
powdery
wilmer
wilfred
wilbur
grayce
separately
##eighty
freshener
elli
ellis
ellison
##sedragon
tapeworm
##mermaid
shady
freefall
##iffy
approp
kole
kobe
jesusita
georgann
fathersday
keeley
marshell
celia
lydia
broad
corrinne
gymnas
junkie
hipcat
jewell
jewish
morton
nicola
cyber
cybert
kylen
fiftyeight
audie
saber
sabre
bzzzz
faust
rodric
clarinet
captaincrunch
kathi
carlis
carlon
carleen
carlton
condo
kali
franc
fransico
surprising
sleepingbag
shawne
felic
felton
kimaria
leopold
caylen
jahn
wedge
suburb
kiwana
jessy
romie
rommel
wander
fortyone
patiently
cubby
cubbies
rascal
surfer
pinching
georgeandthe
terrorize
receiver
grilled
sewage
mikay
maxim
dalton
milleni
ottie
andrea
andrian
andrey
rollingpin
brainbuilder
loopdel
randi
tinkerbelle
jessewhite
schl
velma
velociraptor
elisah
elisabeth
seventyseven
northpole
disturb
estell
esther
sixtyfour
nathanial
sanjuan
sanctuary
##undo
##undra
##undre
##sixty
simonsay
amazed
aquilla
derwin
kellie
kristin
kristof
vinnie
vincen
mandel
static
boiling
claudia
misslisan
erican
lucian
kaley
kendrick
harrythed
javar
nanas
##rrr
trixy
arlis
arleen
glittery
gabrielle
tweetybird
nickname
department
deposit
pjfunny
pasqu
tashi
##craft
julien
daniellan
pecking
montana
augustina
mallet
antonio
antonina
babysitte
billybla
johanne
menorah
greer
gregg
gregor
assisi
autumn
automat
savanna
savannah
mollie
continent
louis
louise
##uko
##ukwu
##etramp
transform
teeshirt
##webs
benton
haloween
rebel
rhinocerous
deeanna
gaylyn
odell
sylvester
##oko
herschel
kenneth
kennady
aubry
doug
douglas
##boppity
hollyhock
alden
galvat
##wowwow
dorothea
chinesedragon
cheetohs
pegasus
##oberto
courtney
sissie
vinegar
##lady
basis
julianna
chantal
chantae
spiderwebs
daisyduck
objective
235
aarin
##jackson
whinniethepooh
megann
crispin
christmastime
eulas
jerrin
juanita
cobwebs
rogers
lexie
philipp
consuela
abcsong
celebrate
ethel
narrow
pierce
zachie
##goround
##rionna
andreia
##thedinosaur
judah
command
patchn
americo
tubbies
jacques
searstowern
hokeypokeyelmo
derrell
mikey
multicol
wynne
wynona
##angels
debbie
vernard
casim
casper
elder
krystal
lesly
leslie
merrygoround
##cetty
##dragon
alfie
royce
newyorkcity
striped
discussion
sahara
##gregor
googoo
sophi
sophie
brayden
sports
guineapig
dionne
daphne
ebony
migdalia
mainly
material
nipple
psych
psyche
psycho
racket
novella
##sesswamp
albertina
orangish
grandmacathy
director
natalieanne
claudine
europa
khaki
kileylynn
painter
reece
lizzeth
lizzard
encou
kevinn
tempting
goldilocks
stegas
jacquelyn
donaldduck
farahfawcetty
aaah
geraldine
illusion
pouting
rulon
valley
weave
trinidad
sofia
bridget
buffy
garnett
advice
##oftheday
salvatore
jermiah
joycelyn
eastereggs
dahill
eugenia
kristy
molassesswamp
##patrick
theodore
stormy
storage
divine
graduation
deloris
adalberto
patricia
mrswishywashy
lucius
wilhelm
andrewwayne
crowded
okeydoke
copper
duplo
laban
ledge
naliyah
tessie
##farfar
shaving
whoowhoo
##andthep
frieda
gretel
##ghornleghorn
clementine
explorer
marilin
magdale
katharyn
honestly
aleya
austin
cadence
evelina
gillie
jenae
nidor
oral
viktor
yonatan
yonatann
##aquin
##aquarium
hewitt
orlando
nevaeh
catalogue
peyton
global
eleanore
excitement
cecile
##structive
charliesangles
charliesangels
##ernandan
richardson
##hundredand
dynam
lupgna
leroylobster
midnight
rueben
rearrange
wipie
yelp
##carlos
##farmer
##veteenrabbit
nookie
hughie
##adalupe
circular
deborah
happyheart
braedon
symph
mrsclaus
jacqlyn
dulcie
effect
gadget
hinckley
japan
weenie
yadira
##yourboat
beverley
thebigred
oneeyed
internet
playmobile
antoin
pricilla
findingnemo
areyou
select
cranberry
squooshe
##zekiel
christoher
monstersinc
rudolfo
microscope
corliss
harriett
cassidyann
lincolnlogs
wheatthin
##happyandyouknowit
optimusprime
dandelion
ispy
literally
umbilical
##ninety
thecatinthehat
nonono
shepard
cheap
huygen
##outwiththomas
frighten
elizebeth
scientist
hihocherryo
sammien
##totheballgame
popeye
idaho
bowtiebear
emersonn
bugsbunny
auntfernandan
tiedye
unclekevn
arturo
impatient
silkworm
assistant
sirtoppam
technically
##sthedog
principal
bomberro
cumquat
cauliflower
dddd
enemy
gamal
ganymede
hohoho
immerse
kourt
ounce
oskar
qackquack
weasel
wombat
ysabel
theitsybitsyspider
dopey
tontie
increase
shmelt
hedgehog
bageman
liquid
sheddaquarium
sopla
aniellemir
brontosaurus
reymundo
reptile
blossom
takemeouttotheballgame
clumsy
babymatty
babyshakespeare
neptune
redsox
opossum
cookiecutter
exhaust
meanwhile
glutglut
newjersey
develop
hungryhungryhipp
unhealthy
bippityboppity
ladyandthetramp
southafr
jellybelly
flatstanley
delicioso
johnhenry
rowrowrowyourboat
familiar
scoobyscoo
extinguisher
magnifying
dizzyteacup
silvano
rossgrundyn
lordlicorice
appropriate
georgeandthebunny
milleniumpark
loopdeloop
simonsays
galvatron
bippityboppityboo
19
17
25
35
ach
ame
aby
agh
aday
aash
ayn
azy
aki
aund
aileen
bic
bout
boon
banner
csh
cic
cue
cong
cip
cair
cason
ceph
citl
codie
did
dain
dab
dery
ded
dub
dac
della
derry
dinky
dandy
darius
diti
dicken
eith
eme
elor
eard
euse
eiy
este
eud
eject
essie
einstein
ezekiel
fee
fid
fate
fist
fion
fade
fiv
ferry
fest
fuel
fiona
fidel
gere
gis
gild
gare
gala
gaston
hs
hind
hider
higgly
hutch
homer
io
ily
imo
ivie
iso
illa
ivel
ioma
icicle
jama
jont
jey
jona
jaly
jerald
jiles
jathan
jcc
kra
kain
kun
kame
kard
kip
kav
kody
kally
keal
kian
kurt
kiy
kerry
kola
kwan
kassidy
kilie
lut
lop
lun
lue
lite
lum
lare
lach
lory
lous
loun
lanna
lingo
lene
lesh
linky
linda
lonna
lacy
laira
laney
larae
looney
mead
mes
mose
mice
mun
mab
mime
mute
msp
mesh
mala
muna
nast
nani
niyah
nih
nelly
oc
ov
osh
oly
oog
ollie
obed
ozella
pne
rie
rama
rye
rus
rider
rian
rita
roni
rani
risa
rinda
raph
ravi
rylie
russel
ralene
ravan
ruma
sis
sle
sst
sap
sul
sana
sina
sirr
sanna
sym
sena
sula
sutton
tis
tuff
tana
tav
taff
tanger
tani
tales
tessa
tandy
talynn
tavi
tilda
tanner
tumbler
tidal
uzz
une
uri
vu
ved
virt
vamp
viet
vitt
vte
vander
voodoo
were
weep
wool
wynn
wih
wubba
xx
xen
x10
yer
yat
yie
yal
yun
yass
yara
yud
yerald
zat
zep
zane
zary
zona
zella
zara
zora
zippy
zaya
zenia
zule
zettie
zofia
##hee
##hay
##hra
##hive
##hal
##hart
##hul
##horn
##hass
##hug
##hari
##hoph
##hud
##hadal
##iee
##iad
##izzle
##iian
##ija
##nst
##nose
##neth
##nace
##nix
##nia
##nich
##nroll
##aad
##aah
##acle
##wen
##weed
##wear
##wana
##wipe
##ek
##ean
##estr
##tin
##tart
##touch
##tower
##tiness
##tales
##pick
##power
##pub
##pto
##pony
##plorer
##oa
##oink
##oby
##ogg
##ogether
##obey
##obed
##cook
##coe
##cass
##cken
##camp
##cco
##cany
##crawl
##cott
##candy
##ccess
##camera
##cteria
##kl
##kid
##kick
##kas
##kif
##kha
##kka
##kolas
##kwan
##glor
##goe
##gail
##grow
##gator
##gment
##giant
##fs
##fin
##foo
##fen
##finger
##form
##full
##ride
##rough
##rother
##rix
##reet
##rise
##runk
##rita
##risha
##riano
##rissa
##riley
##rude
##rington
##xter
##xible
##mere
##mis
##ming
##mice
##mater
##mare
##miah
##yce
##ysic
##uup
##uster
##uane
##upper
##uwa
##lp
##lot
##lap
##las
##late
##los
##lane
##lina
##dain
##deed
##date
##dale
##dena
##bs
##ban
##bet
##bay
##bing
##bore
##bra
##bal
##bank
##bas
##bah
##bol
##bia
##bond
##beam
##bio
##bella
##bury
##buckle
##basket
##zes
##ziel
##zerrat
##sse
##sod
##sam
##sure
##sark
##saur
##sity
##sues
##sworth
##vad
##vise
##vaun
##vanni
##quest
##jen
##jose
##jot
##jaira
thorn
thora
theron
##oul
##oub
##outh
beag
beneath
bevan
##eran
##erite
##erah
##erto
##erik
theo
theoph
thewheel
theincredible
##anan
##anian
##anmc
dod
dove
dory
dokey
dovie
donie
doopy
doyle
doobie
domonique
tod
tob
tobe
toma
token
tobie
toni
toron
tobey
tobi
nox
noam
noel
noble
nostr
nova
noval
noxy
noami
whac
##eresa
goon
gocl
gogo
goli
goggle
##etia
##etano
##lland
##inis
##inar
##inmy
##inic
##inton
##inally
onie
##eaha
##eahorse
##omile
##orld
##orous
##orita
##orkel
##oreson
okedo
##eee
##eex
##ees
##eebo
##isen
##isah
##islav
##iton
##itia
##itary
##itical
##itizer
##uti
##utron
##ayo
##ayia
##ayde
##aysha
##ayvion
##aybore
##owny
##veon
##ooom
##oooo
went
wenon
##ndell
##ndal
##ndrea
##antis
##antica
##sell
##sela
##sevelt
##igi
##igen
##igold
##igwa
##keisha
##kelle
##ckless
##aran
##arella
##arino
##arzan
ina
inj
ines
inner
inten
inja
had
hally
halle
hailey
hazen
haaris
shat
shea
shead
shore
shra
shain
shuck
shite
shol
shater
shana
shond
shont
shik
shiv
shiver
sherry
shani
shrey
shannon
sharyl
shmuel
shaped
shigwa
anderson
anders
ohio
theressa
heide
hender
hess
heath
heber
helyn
heather
##ighan
cancer
candel
##ightly
oneer
##stain
##start
##step
##stinky
##sthe
##ono
##onher
##onzo
##onstruct
##illion
stell
stank
stab
stro
stif
stumpy
stlou
##iri
##iro
##iram
##ircus
##lden
##ldrick
puter
putter
##chy
##chell
##chal
##chama
##child
##charm
##chukwu
##chcamp
letrell
leticia
lethia
basin
bapt
bache
bacteria
##urst
##urah
liver
libor
liza
lizzie
##ening
##enie
##enne
##encia
##encio
looks
##celi
upp
wheresh
goody
plow
plac
plates
platter
righthand
##ied
##iela
##thon
##thes
##thep
##thenia
##inkly
sheva
sheila
within
##mey
##mecia
ally
allan
allena
allicia
juel
juvent
tran
tren
trag
outlet
outhouse
outgrow
##idi
##idra
##idian
##idoscope
##iddly
alas
alyn
alina
alger
altern
alvia
alethea
##esi
##esis
##esse
##esox
chat
chore
chast
chime
chist
chak
chara
chani
chanie
chaney
cheron
chchch
howie
playful
ate
humber
huss
huey
huggy
hunch
##icki
##ickaboom
justgot
justino
anand
anessa
animate
##opet
##oped
##mman
##rage
##rado
##raca
##ande
##andrina
##andrew
##independent
mommom
wellington
orel
orian
orval
##ots
##otive
##otenter
##ittlelam
littlebear
littlepigg
##adi
##adou
##adam
##adia
##adiah
##adora
##adarius
wagg
wafer
##bymountain
##mymother
caro
carouse
careal
carmell
carlyn
carlie
carrol
carlee
carmichael
carbon
bret
brut
brant
brine
brock
brunch
brise
brocol
brooke
briant
breast
backpor
buell
buba
rev
reid
reun
remo
reina
rebuild
reboot
rechar
rehappyandyouknowit
request
reckless
coel
colen
cocod
cokif
##ellow
##shame
##sheet
##shuttle
##auper
##ics
##icure
##icip
##ician
##icity
##icago
##icleta
blizz
blanch
blayne
watery
##alla
##allie
overwh
overboard
overhead
overcoat
ahl
ahoy
ahron
ahahah
takeshi
pug
puerto
##apop
##apfort
needs
##outon
##ryan
##ryle
myl
myster
mygo
mylittle
mylon
bog
boast
bobe
bosley
##alea
##aliz
##aliyah
abe
abcd
abdu
abdi
abuela
abisai
##amon
##pped
##ankie
##tynn
##oned
##lynda
twoh
twiddle
twila
freez
grunt
gripper
biggie
thrill
jobe
joann
joli
jovan
jossie
jogging
joaquin
turner
clair
clamp
clutch
clatter
cluster
babyconnor
babyworm
##abe
##abra
##abul
##abrother
##ethel
spice
spite
spare
prote
proof
##ishma
holland
##ilton
##ilian
##uelo
heloise
yesica
##earl
##earra
roi
roel
robie
rosie
roxy
rozella
rolanda
##ffl
bookie
bookcase
dads
elz
elvie
elsie
elisa
elva
elbert
elzie
elwood
elige
elwyn
elois
gus
guadalupe
ney
ned
nect
neato
nezzie
nevada
necco
neopet
anya
##asta
arv
aran
aree
aright
arion
arman
arian
arnie
arley
arde
aretta
arlin
arrie
arvis
araya
arlee
arline
arling
arcelia
arbol
holding
##acky
dray
drake
drpet
drking
droctagon
drizzle
##eenym
##beer
##itect
##oughly
swell
swam
swhere
swivel
sworld
##aso
##asiah
##oven
##eryne
mayme
maybelle
fling
flint
flinch
flonnie
reamus
##ineorange
##artney
##mpt
##ulty
##ulate
##ulton
##ulani
##ulfo
teller
slant
slade
slumber
slightly
##elet
##elise
bally
veryl
waterproof
watergun
##epatch
herm
herby
hermon
herbert
hermelinda
musk
musket
mumble
musl
##issy
##isson
##ission
firas
bluegreen
##eder
##edina
gotogether
honeynut
foop
##sided
leah
##rold
##roeder
remembering
girly
##ggly
##ggye
reddish
stopper
scatter
scaven
scircus
sey
seb
seye
seuss
sevend
snout
sneezy
snorkel
mana
mans
manisha
manessa
manpreet
greengob
opal
mei
mele
mega
prettie
##ahan
##ahni
picturebook
hien
boyd
##sss
##ssaint
openses
##zzarella
cleo
cleoph
cleva
cleola
oopa
suj
sule
suzz
sumay
success
catap
catarino
##ufferfish
diane
dionte
oohooh
##athe
##atheex
wren
wriggle
##umonia
birdy
crick
criss
crump
creight
crutch
criselda
critical
crouton
footage
footstep
fins
hmhm
bitter
shoestr
shoebox
lew
lev
lemmie
leidy
leatha
lesta
lemur
lezli
quan
quant
quir
breaking
stuffed
underground
underhand
##quet
##ques
##nect
##neyn
##neisha
##nestine
##neutron
starting
toys
purnell
callan
##iman
##imen
##imie
##olet
##oluwa
##xten
kita
##ionne
headphone
headlight
danz
danuel
##pector
minich
minta
sora
##iago
hairstyle
cookiema
##entri
nosefull
trainer
training
traintrack
exegg
##phair
##phia
nudge
orangeyn
maa
maz
maaz
maida
maka
macie
maison
malena
smily
sillywilly
sleepie
squat
squiggle
squacky
graph
grader
gracy
grammar
sidekick
jumpfrog
pez
peat
peony
pecan
##anael
matthew
doorkn
fivehundred
lovey
loves
waltz
birdcage
puzzlepiece
potat
potpie
glare
monty
monna
montie
##avid
##avian
mila
milton
milford
milburn
##ogio
dayton
daylene
dayoutwiththomas
enr
enz
enis
enedina
rung
dancey
##keya
budd
buddie
##obber
ticklemonster
gary
garnette
missmar
misskitty
missname
missapril
missindependent
tira
dek
degr
devin
demond
deonte
dezar
destructive
saur
saver
cramp
homemade
##male
##maker
##machine
partly
partridge
partially
longsl
longjohn
longneck
##eaten
horten
maren
marac
marlyn
mariano
marlo
marinda
margaret
marzella
maritsa
marbella
marigold
applepie
fingerprint
boob
rollie
bathe
##together
##isey
##ondre
##iledle
element
fixer
sandon
sandman
sandpaper
##whit
##whip
##which
earl
earmuff
##many
##manship
##annis
##annes
insideout
baron
barth
barge
barrie
barbar
##ontrol
##ontrell
woooo
wooooo
woozle
funnyside
##iggy
chevelle
##assic
rocknroll
##bera
napole
skeebo
oww
owens
duckle
towmater
cooler
coolwhip
teague
keh
keon
keith
kender
kevie
keiko
##acho
##achoo
cheesestick
strum
##thecat
nightmare
eggs
moat
mover
moist
moving
mozetta
mozzarella
hellon
climber
blowie
crayonbox
crayonstalk
oldmaid
phon
phile
sixth
##ocate
##orduane
animalplan
icecu
winnieth
snacker
buddyl
camilla
cameron
cameryn
badu
batik
batarang
poet
pottytra
##icha
sung
chooch
elephantbook
popular
windell
windchill
genn
genora
highlight
ladle
ladell
crypto
idell
chickenlittle
chickennugget
unr
unof
unfast
unscr
unfold
unbutt
scrunch
scrumd
gabino
panther
##endix
##play
##player
samella
##kina
armand
buttermilk
ooooh
##agnan
emi
emir
emile
emory
emilie
emaline
emonie
common
greatful
greatwall
restart
bugslife
##ynine
kids
kiddy
kidding
doras
##iany
pigpen
pigonher
blackbird
blackboard
frontdoor
playdate
toothfairy
diapering
flying
parlor
paras
##ska
##skine
conch
eightoclock
tena
tenness
sevenlayer
##aleia
dumping
ade
aden
adella
adena
adline
adianna
adelia
adeline
adele
adilen
adelene
adamary
betz
##riann
##rizio
raen
bouncer
whoopsy
quacker
fozzie
foghornleghorn
spinyp
##lessa
teh
teof
teigan
teigen
markos
##integrate
sisterglor
patt
patton
patsy
patula
##nae
edd
eder
edith
edson
edgar
eddie
edwin
jacks
jackandthe
jacksyn
mixture
christel
christene
##arya
mrsk
mrbrown
mrsname
mrerik
##ipped
pumping
##zys
belvia
##ofli
##ofwar
##ofamerica
##ofsod
layton
videore
launa
yesenia
yehud
keyhouse
desire
desmond
pumpkinface
lazar
##stream
erie
erica
erwin
erskine
teaching
maddy
drama
spacecraft
spaceshuttle
teddie
delma
delmas
delisa
delaine
delois
##bawk
shortcut
ewanmc
scoobert
quickdraw
tallmountain
politely
##bron
##bride
##brite
##break
godble
godogg
apost
grassy
rubble
feeder
stinkbug
##ebasket
noahsark
santino
beehive
rust
dae
dais
daie
davene
daisey
fuzz
wallis
petrie
fruity
antsy
antwon
anticip
##iyonna
##iylah
##recia
burrow
burning
salon
##iete
##iety
moonlight
##monica
##letree
disease
discon
dispen
disobey
disintegrate
##aka
roosevelt
##frey
lefthand
pooper
##femi
speck
compass
thomasina
pillowcase
##guy
capri
capsu
perfection
golda
goldie
seattle
turtles
##pres
grounding
ringta
curb
##yli
##yleen
##igno
princecharm
lov
lokey
surreal
bobb
donell
donel
donnell
donavan
donotenter
auntel
auntjane
auntchellen
supermommy
practically
soua
souffl
kluup
onceupon
amie
amuck
among
amair
ameel
amanda
amarie
caid
caes
camy
woofy
jai
jaeden
jafar
luanna
lucan
creamer
dearie
decent
shutup
velda
##ivi
##ivore
brax
brad
brass
braxton
braeden
brachi
bravo
pourer
sickle
##inymo
##booty
liddie
mela
melton
melani
melania
melchor
melanee
oinkoink
rhetta
rhode
weezy
##izel
bernell
beronica
berkley
berdena
telemark
##aelin
travell
splosh
pajam
typ
typing
tyren
tycho
##spin
##space
sharon
sharron
tripod
jese
jeana
jeov
##josh
doctork
doctorseuss
medina
toasty
toasted
buzzes
##iversity
##ishai
piggytail
piggybank
johnadam
adda
addison
unclebill
cuz
corine
coralie
coralee
corbin
barbiedoll
darr
darle
darah
darwin
##ymir
##ymeenym
squirrelie
##erria
refrigerate
digimon
lilah
lilac
liliana
lilbern
seaworld
seaweed
##grim
##cole
##coal
bababy
remi
ribcage
article
articho
kenzie
tiph
hardy
harris
harvest
landry
landsc
naft
naisha
naja
naomi
result
reserv
geo
beatup
beatrix
goofus
##lence
casey
ninth
tammy
taiy
##ophys
smartboard
thirtyfour
croquet
magicschool
pedestr
##nings
shae
shaver
shaena
splashattack
##umper
##anique
isla
isley
isabella
islam
isabell
##alloween
sammythes
pearline
saundra
##dookey
norway
norene
jamine
jameelah
reconstruct
karon
karess
karrie
karalyn
karsyn
karimah
karrisa
karishma
regis
regena
larrie
larene
larayne
laramie
dolan
aleisa
timing
timote
charzard
charnice
charcoal
cousinjosh
pasture
pastorduane
syren
sweeper
sweeping
dolphiny
pors
porkey
wishbone
angelica
angelique
merle
merce
merlyn
merlin
sami
samar
sample
samora
##goes
colleen
collier
hillary
timm
tibration
##potato
account
kimo
kiana
breck
brecken
woops
##ergent
rinsing
angell
medical
medication
auntiechellen
auntiesues
jayne
jaylyn
jaylin
powertouch
rayna
raylee
rayvon
raymund
##maru
##snoreson
##easa
jaret
jaris
jarad
jared
jarvis
##peach
crabapple
mothers
mothersday
##awk
furious
furnace
iliana
sione
cordelia
impossible
jerome
jermon
jerika
jerusha
jermany
georgine
candlelight
janet
janette
janelle
janalee
katar
##flag
##lochcamp
killer
verl
veron
verlyn
verona
vernel
verlie
veronia
wildern
muffler
teletubby
##ittel
annabel
annabell
jens
jenjen
jennings
mali
malian
maleah
ashley
ashtyn
##daeus
eartha
cassette
cassius
casscass
sirena
taylin
tentacle
henson
magnolia
deniz
##hold
roadblock
ceci
florian
florence
kamar
kameron
esra
esli
fifteenth
filip
rosette
stomachache
kaylon
rosena
webb
webster
gardner
hayla
haystack
##zaa
baked
junglecruise
##otta
macarthur
comfort
comforter
hoover
natt
viola
##amaria
twisting
marchell
marchello
cameo
camella
dln
evann
linzie
sila
dorcas
doratheex
gerard
geralyn
gerhard
fae
fawn
khari
khylie
lenee
lenell
lenzy
lennon
lenwood
lenzi
osborne
osvaldo
jeanette
jeanmac
##juana
torin
torry
torture
torrance
magnetic
magnetix
darline
jaclyn
jacinda
lori
loring
lorie
loreen
lorence
logo
motrin
titi
titus
##saf
clayborn
charlieandthe
##wolf
maryc
maryk
marypop
marybeth
maryrose
maryhadal
gasoline
gaspump
indoor
benard
benigno
avoid
avantica
rossana
ayf
ayom
aydee
ayelet
davis
davonna
kae
kaisyn
sherra
sherma
sherida
sherwin
sheridan
colon
pufferfish
tamara
tamira
tameron
junction
sippys
ugio
yui
fredrick
frederic
irvin
lavona
sonia
josef
josemanuel
floye
stripey
alexz
alexandra
alexandria
powell
bonny
bonus
bonnie
bonker
bonzie
hansel
lamon
lambie
wilt
wilson
wilna
wilferd
aidee
drilling
lollie
ellsworth
terah
shrektwo
pennypark
binh
lakeith
lakeyia
taping
domen
domingo
dominga
golfclub
cocktail
appet
appro
appendix
appletree
koll
sims
simone
georgia
georgene
emmit
emmett
emmitt
emmaline
celina
celso
eyepatch
jonisha
jonoth
jonathan
jonathon
lys
misplace
corrine
azariah
azalea
moris
moroni
morraca
nicolas
tarrell
kyh
kyle
mopsy
##matian
brandt
branden
bertrand
fiftysix
henryn
audry
audriana
##cheer
hyena
hyrum
lynna
lynette
lynzee
rodd
rodney
clarke
clarine
oyster
mrpotato
springtime
jamesbond
undone
warren
destyn
destiney
rasheed
rashaunda
postit
postlady
frosted
feliz
felisa
##sense
knotty
wedgie
##rahim
subject
jessi
romon
romana
vln
vls
fortyseven
fortythree
solution
bratz
cuba
latonya
talise
shamara
##apped
difficulty
pincher
georgeanne
georgewashington
curtiss
rennie
virgin
alyss
alyssa
##shipday
nineteensixty
damara
damoni
mikael
wln
joyanna
disguise
sundayschool
dalvin
dalmatian
ott
otis
otila
tupper
##barn
tonythet
andres
andrena
teamwork
teamrose
preschooler
randel
tinkertoy
tootie
tootsie
lizphair
treasureisland
treasurechest
gazzy
kerin
kerri
pilgrim
pounding
schu
schroeder
stormie
##beanstalk
seventytwo
goldennugget
jeffre
northwest
estimate
martine
martian
##ilynne
infant
collector
fieldtr
sanitizer
bryt
bryan
twinklen
protest
granddaddy
simonne
augie
kelley
kristalyn
source
vinita
zepp
albino
holog
makayla
makoto
rudder
fabianna
fabrizio
lashon
lashara
murder
murray
mandie
pterosaur
pteranodon
states
boiler
lucke
lucio
kaleidoscope
tacos
yoyos
bawkbawk
kendyn
whispering
akil
akiko
jimmie
jimmye
javi
nanette
arlinda
devona
gabriella
smokestack
mamab
retreat
wigglypig
julienne
juicyjuice
caroline
daniele
josephhay
twinkletwinklestar
darek
eager
kirk
leeanna
leeanne
leesyn
nikita
##nnn
chanelle
chanuk
refer
elijah
##whitestumbler
embry
gilmore
johannes
tanis
##lication
aliene
cathy
cathrine
quinten
apolonio
autograph
easton
zoejulie
snuffy
bernice
bernard
islandofsod
dominick
dominic
dominik
jourdain
jimi
jimhammer
nicholos
tonnie
baldemar
pluma
anija
##ashawn
lightningbug
hideandgos
dyan
detergent
##mometer
##blind
halbert
haliday
shelvie
rebecka
rebekka
blondie
mariahernand
lawson
geeke
gaye
gaylor
guestroom
jakie
lanell
odette
odilia
sylvan
##usscandy
josse
josiah
leonor
leonard
leonarda
marcelyn
marcelo
dakoda
kennth
aubrie
aubree
ivor
jeremi
mahala
mahalia
pondskater
teressa
shaylyn
travaris
kennedy
smooshy
caleb
glennie
glenford
lillie
lasandra
rotate
sidetrack
saraann
##anolf
inchworm
interpret
brittain
brittany
holyspir
susannan
leilani
margarette
margareta
beautyandthebeast
virgie
statueofli
fermat
ferdin
gearld
izell
izetta
yanel
yancy
zayvian
zawaki
##zoid
babas
baboon
juliann
juliusscandy
british
britley
brenda
ariele
slimey
marquis
discostar
deaisha
evelynn
issac
issiah
rachael
rachelle
##imos
whiner
shante
shantel
chrisandra
arrive
archiba
architect
bootsyn
olivern
##cussion
thunderbirdtwo
daryan
eulogio
fayette
jordyn
mikell
nakia
python
wyatt
##sandar
##sandham
shalon
stanford
chuckle
demand
philomena
celestine
reflex
suddenly
narnia
nunu
pierson
pierre
yolanda
zachery
zachary
dontaye
wendee
wendal
andrez
judith
julieann
chapstick
anthon
myrtle
spiral
suhey
demetrios
marciano
commod
texture
lyndall
araceli
blend
derrick
derrel
glenda
modest
##oxide
nonos
nonapfort
nonsense
okeydookey
arietta
swirling
maegan
debra
markelle
geneva
genevieve
jimmyneutron
thanksgive
fiddley
glory
nnkay
ricki
toussaint
##hanan
##fawcett
thelma
alfonso
cherlynn
oreos
brennan
brennyn
arnica
arnulfo
sclues
squawk
oooooo
happybirthdaycake
rootbeer
pigglyw
octavis
octavio
octaviano
dillard
deedle
emanuel
hilary
hilbert
jodie
jodey
kylon
paulina
pauletta
urs
vivien
##corpor
googala
hahahah
stapler
babykate
scrapyard
sciencebingo
suzette
dionicia
footprints
adriane
adriauna
kenyatta
rosalin
rosaleen
missellen
elizabethann
athan
athena
kanasia
kierston
mohawk
olevia
rigo
rigoberto
romell
ricco
ricardo
tartar
yamil
yamile
##koch
therapy
thermometer
bethel
whitesox
##iestain
alberta
nels
nelson
grandmasue
crystall
crystal
crystina
electrical
dartagnan
dewitt
false
janai
kappy
karlton
lorean
lorelei
maudie
paulino
sedonia
varoom
chaos
anakin
punk
roxana
kevinhin
laverda
loyde
aleksandar
tiffany
jacqueline
mckenzie
mckenzey
triceratops
axel
dallan
dallas
harland
lisan
lonzell
villain
hawaiian
alfredo
bridg
cosme
cosmo
cosette
agentconnor
miniature
garnet
barbara
sketcher
sketchbook
adelita
shawl
marchingband
imaginary
1030
amos
castor
cortney
feetie
jordan
keasha
matey
altariq
abelardo
prentis
slobbery
herbivore
severo
delores
adaliz
technique
mrtickle
porkchop
wilhelmina
jessiewhitestumbler
marcellus
glendon
copeland
kinsley
labor
mslaura
nashira
ricochet
zenovia
##fifth
##fifty
thoroughly
haskell
habitat
shrink
shrivel
chasiti
charmaine
atlas
atlantis
anastacia
brodie
fried
necessary
expire
unsnapped
cornelius
spinningtop
steffie
isabeln
reginald
janiece
katharine
connorflynnn
huckleberry
mckinley
razorback
gertude
gertrude
jinnie
litterbug
silliness
tugofwar
zelma
##tzmaru
sheree
shorty
##stantin
##christmas
traci
originally
robertkoch
agustin
snotty
sudbury
finnishe
peytan
margery
eleanora
poppyn
convoy
bettye
teodoro
deshannon
delpha
berenice
berenstain
contrast
custard
personality
taiwo
taiwan
henrietta
lorenzo
hanukkah
solveig
possibility
speedstarcar
rafiq
farahfawcettfawcett
unitedstate
1110
aisle
barton
derek
gallon
gerrit
latoya
leroy
rivet
tenduf
xavier
yowl
##carlo
##jansen
thaddaeus
nooker
noonoo
hehehe
rozena
rondell
roshana
elsbeth
byrd
quentin
headbutt
circuit
##magoo
elexia
processor
caitlinn
darthvad
mistertomb
announcement
jennae
mrsclaybore
linnea
koalabear
koalabrother
morrison
kellyann
angelaangelfish
mccartney
francesca
multiple
aurelia
arabella
cavity
gibson
khoi
othello
tiago
##twod
##pumpkin
##looking
##silver
##squeak
onetwo
insist
insane
hammock
hampton
libby
chrissie
wallygator
griffin
jocelin
product
rojof
elinor
flopsy
daneil
danniel
squirch
bananas
deshawna
acceptable
madelon
salamander
caldwell
princesslolly
nazario
gecko
geckos
dorthythedinosaur
bennett
lamborghini
lamborghinis
terrasaur
sabastian
nikolai
celestina
zimbos
frootloops
professor
professional
asteroid
aurelio
darald
espanolf
jurassic
jiggler
konstantin
koryn
leela
pepsi
rohit
rumbly
sallye
ultra
vyolet
wimpy
##dotcom
##atefactory
shabbas
##chocolatefactory
basically
aloysius
chamomile
reynold
blooga
public
greece
priscella
snitcher
makinlee
gargle
grandmanut
adonay
belugawhale
antionette
tyreece
contactpaper
unclebriann
unclekennyn
respons
hippityhop
isacc
alejandrina
natanel
evangeline
observe
jonathonn
francois
schmutz
talented
##disneyworld
wysteriaway
structure
unclerandy
airconditioning
esmeralda
akyra
cailie
cielo
eenymeenym
emperor
gauze
hongkong
hannibal
jigsaw
jerold
kaci
meredith
perez
pelican
sodapop
sergio
verena
vocabul
tolbert
whammy
onethird
hedwig
platform
pleasant
treetrunk
trapezoid
chassity
hushabymountain
orchid
wastebasket
franches
predator
prospector
hoyt
eligah
greeneggsandham
creston
leotard
quetzal
peppa
peatokey
waltdisneyworld
pottery
gloomy
debris
duckduckgoose
strategy
phoenix
wholefoods
snowplough
##ofchicago
auntvicki
sammysosa
fryingpan
erasable
chickachickaboom
katreena
kingdominic
gymnasium
cybertron
felicita
leopoldo
grilledcheese
schluff
sanjuanita
vincenza
pjfunnybunny
billyblazes
automatically
##andthepauper
magdaleno
dynamite
symphony
hinckleytown
thebigredbarn
areyoumymother
frightened
sirtoppamhat
kourtney
aniellemiriam
scoobyscoobydoo
bicicleta
cephas
deryck
eardrum
eiyhanan
eudora
gildardo
kwanzaa
lopsided
litebrite
lousy
lounge
olymp
pneumonia
russell
ravioli
tangerineorange
vampire
vietnam
vtech
##hulk
##nicholas
##goest
##fenay
beagle
thewheelsonthebus
theincrediblehulk
doopyd
toronto
nostril
whacamole
goclick
goliath
okedoke
wenonah
henderson
heathen
stroke
stifle
stlouis
bachelor
liborio
whereshoho
juventino
tragic
alternate
hunchback
justgotobed
##ittlelamb
littlepiggies
waggsthedog
carousel
carealot
brocoli
backporch
recharge
coelophys
cocodrillo
blizzard
overwhel
mysterious
mygosh
mylittlepony
abdull
protein
nectarine
arlington
drpeten
reamusn
musketeer
muslim
scavenger
sevendwarf
greengoblin
prettiest
opensesame
oohoohahah
crumple
creighton
shoestring
minichex
cookiemaze
jumpfrogjump
doorknob
degree
longsleeve
longjohnsilver
maracas
##iledlemur
animalplanet
icecube
winniethe
pottytraine
unfasten
unscrew
unbuttoned
scrumdiddly
pigonherhead
tennessee
sevenlayerbar
adamarys
spinypufferfish
teofilo
sistergloria
jackandthebeanstalk
ewanmcgregor
godoggo
apostolos
disconnect
dispenser
lefthanded
capsule
ringtailedlemur
princecharming
surrealism
donotentersign
brachiosaurus
telemarketer
##iversityofchicago
artichoke
reservation
magicschoolbus
pedestrian
sammytheseahorse
timoteo
syrenity
auntiesuesue
wilderness
charlieandthechocolatefactory
marypoppin
maryhadalittlelamb
jonothan
tonythetiger
fieldtrip
josephhayden
chanukkah
hideandgoseek
mariahernandez
holyspirit
statueofliberty
juliusscandycorn
archibald
nonapfortarzan
kevinhinkes
eenymeenyminymo
vocabulary
chickachickaboomboom
coelophysis
15
24
200
49
92
aq
aes
aad
ail
aine
axt
adle
aisha
aym
alen
avin
ammie
aram
asen
alda
asta
achill
ailene
aylin
bs
bigh
bid
bip
bate
bion
bater
bia
bian
bangle
boni
binder
biona
bhav
cul
cody
civ
caffe
caster
caira
czar
cavan
culture
cerv
ciani
cienna
dh
ds
dj
dap
diss
deet
deek
dail
dally
dway
dangle
dingo
detta
dula
dago
duel
dict
dandra
dilia
daun
dalynn
derald
dickey
dandrea
dmarion
eg
eie
emy
ery
eun
ember
emo
eew
ester
evy
emmer
estr
eily
etern
emmie
eiff
emelly
eshawn
eclip
fow
fot
fas
fard
fable
fang
fus
faint
fond
fib
furel
fenton
fulton
fiestain
gan
gide
gap
gry
gack
gour
gina
gato
gael
giver
gaw
gunny
gates
gilda
gyp
gisse
gittel
hr
hou
hod
hie
hive
hound
hooh
hara
hoot
hankie
hnnn
ii
ik
ib
iow
ive
ile
iver
ione
illy
iman
ize
isha
icie
imit
igor
istan
iyanna
jt
jc
jou
jee
jic
jone
jear
jair
jel
jody
jash
jett
jory
jera
jha
jag
jale
jio
jeeze
jeb
jlynn
joni
janne
jham
japh
jeeper
jettie
jentry
jaley
jiselle
jiffy
jentri
ku
kou
kom
kook
kur
kau
kia
kew
kana
kinger
kane
kush
kag
kase
kik
kiet
kanna
kather
kari
kanda
kiel
kisha
klynn
kala
kud
koda
kern
kinn
kyna
kung
kileen
kenta
kyler
kilah
kiyana
karyl
kacey
korey
kannyn
kionne
lig
lith
loh
lair
loney
lah
lath
lana
lug
lilla
lita
loot
lisa
lurch
lanie
lania
lelia
lannie
latha
leron
litha
leland
lanae
lenton
latoria
mere
mith
mound
mery
mable
mim
maint
mera
msk
mcar
misha
mingo
mert
mena
mirl
meta
mabel
maira
maine
mih
mima
mique
miesha
mettie
miyanna
meara
mimi
mairi
ng
nea
nith
nive
nain
nix
nia
nile
nach
neal
nase
nette
nyl
nella
nara
nike
nena
nida
nisa
nika
nsl
niana
nannie
niam
nicole
nilda
nascar
niyana
naman
national
oom
oar
oge
obie
oba
omel
olla
ozzy
oda
osl
otha
oxy
ozell
ostin
ointment
oobi
oleta
occ
osei
pong
piss
pace
pah
poon
pach
pian
pale
pipp
pizz
piet
pippy
pram
pband
prab
pih
pocus
piston
pistol
que
rj
rit
rau
rup
range
rum
rang
rim
rody
rally
rory
rio
rilla
riah
risha
rene
rsl
ramond
ronna
romp
ruel
rito
reena
retha
rima
rumi
ressie
riri
ryli
rtwod
sly
sven
sape
sask
sato
sari
sier
sany
serp
sangel
setting
sfirst
siete
serria
tz
tig
tth
tau
tic
tast
tas
tine
tate
tum
tild
taint
tann
tane
tera
tari
tanda
taster
tara
tact
tiah
tala
tino
tacy
tict
taira
tavia
tariah
tanya
tandre
tiyonna
uz
uck
umy
uly
ump
uba
urie
vid
ves
vive
vap
vil
voop
vond
vann
vash
vane
vass
vyn
vance
villa
vita
vara
vena
vital
vira
viness
vannie
vandy
viper
viva
vicie
veren
vaughn
vowel
vergie
vianca
vista
vogue
vidal
vearl
vontrell
vashawn
wer
wick
wiss
wol
wane
wade
wibble
wans
wylie
wardell
xp
x1
xbox
xavi
xandrea
xoch
xayvion
yz
yor
yur
yure
yne
yare
yana
yos
yob
yac
yord
yari
yoni
yida
yield
yvan
zil
zeen
zair
zol
zye
zare
zub
zend
zyn
zipp
ziy
zilla
zael
zena
zully
zala
zola
ziana
zyah
zenna
zariah
zeph
zitl
zadie
zissy
##ht
##hea
##hant
##high
##hon
##had
##hall
##hound
##hef
##hour
##hett
##hey
##hanna
##hunt
##heart
##hada
##hiya
##hya
##hira
##havi
##hundre
##iw
##iat
##iau
##ieth
##imp
##ipple
##iken
##iyn
##iola
##iwinkle
##ije
##iji
##ns
##net
##nin
##nay
##now
##nant
##nar
##nap
##nos
##noc
##nita
##norm
##nika
##nathan
##nplay
##ax
##amy
##aure
##amming
##wi
##wr
##woo
##wick
##wain
##wart
##wri
##wik
##witch
##wanna
##watch
##woof
##wurst
##eo
##eim
##eze
##eha
##eka
##egan
##emat
##empt
##tay
##tack
##tum
##tion
##tape
##tich
##teal
##tian
##tlyn
##tious
##tract
##tire
##twin
##tune
##tavia
##pit
##poo
##pic
##pine
##pix
##pol
##pile
##pass
##pian
##pcat
##paynen
##pacho
##oz
##oan
##oir
##oie
##ogh
##oel
##olly
##oah
##olf
##oia
##othe
##oft
##osha
##othy
##oshia
##cere
##cin
##cow
##could
##cad
##cast
##cart
##cah
##cater
##cute
##catch
##cita
##ciel
##cetta
##ccan
##coupe
##crab
##circle
##cindy
##cguire
##control
##ks
##kit
##kar
##kish
##kery
##kol
##kayla
##kaleigh
##goo
##gop
##gal
##gil
##gard
##gock
##graw
##gann
##gister
##gale
##gri
##gym
##glo
##gwood
##fere
##fry
##fam
##fue
##feel
##fton
##fetch
##fert
##fino
##fefer
##fox
##filo
##rl
##rant
##reed
##run
##rone
##reth
##ref
##rne
##rim
##ruh
##reel
##rub
##rator
##ration
##rette
##rouble
##resha
##xin
##xious
##xedo
##ximately
##mn
##mr
##ms
##mig
##make
##mam
##mone
##mery
##mage
##mont
##mner
##mug
##morning
##mita
##mara
##mida
##mika
##maya
##mire
##mila
##malia
##maine
##mimi
##museum
##mouth
##yb
##yen
##yther
##ybit
##yfish
##yona
##ylla
##yduck
##yinah
##uver
##uell
##uah
##umo
##uous
##ucy
##uence
##uisa
##uki
##uania
##lut
##lay
##lake
##lind
##love
##lang
##list
##lett
##lag
##liz
##lisa
##leah
##luc
##luis
##luke
##locked
##dick
##done
##dark
##dew
##dian
##dre
##diel
##dler
##dude
##dandy
##dnee
##dberg
##bid
##bau
##bry
##bish
##bard
##boney
##bush
##banger
##bler
##bud
##zone
##zil
##zma
##zub
##zag
##zunt
##zier
##zlo
##zabeth
##zania
##zyna
##zander
##ztof
##san
##sere
##see
##ssh
##same
##soe
##sph
##sider
##sint
##spr
##sumi
##smith
##suko
##vere
##vra
##vide
##vic
##vine
##vro
##vah
##vana
##vav
##vac
##vio
##vik
##vette
##vani
##vium
##vonte
##vety
##qman
##qwon
##jee
##jit
##jun
##jos
##jac
##jira
##jaguar
##jado
##juna
##jandro
##jesus
##2me
##200
##35
##79
##49
##6ch
thaw
thicken
##oua
##ouise
##oulie
youse
youare
youcan
yousaf
bex
beve
bera
beny
bess
beng
bellow
beeb
bella
betha
bekim
##erie
##erty
##erich
##erance
##ertha
##erican
##aty
##atat
##atar
##atie
##atack
##atown
##atwo
##aties
##atrice
##atthet
##ateresa
##atthep
##atwain
##atcould
thei
thea
thee
thec
theun
thede
thebear
thevel
thelittle
theta
thebeat
thegrinch
theput
theadore
thehall
##anc
##anu
##anke
##anell
##anmar
##ancing
##ansa
##anvi
doe
doce
doraw
dony
doree
doesn
dovid
dondi
donya
toc
tomm
tomy
topple
tonie
tosie
todo
topper
torie
toott
toiley
tollie
tomecia
noa
noy
nol
nod
noal
noone
nozzle
nola
noella
noland
noelle
nolan
whom
whist
whass
whey
##erent
##eredd
##ereport
##erelda
gon
goll
gown
gogh
golly
goyou
goober
gowri
itz
itzar
itzia
itybit
##etor
##etum
##etus
##etown
##etail
##etson
##etree
##etria
##etitive
##llind
##llia
##lligator
226ch
##inen
##inct
##inary
##inony
thatuh
ona
onika
oneredd
##eamp
##eaway
##eazar
##eashia
##eamman
##omy
##ombe
##omari
##omara
##ometric
##omotive
whatsoe
##orour
##orate
##orail
##orian
##organ
##orrest
##orshot
##eey
##eeight
##eesi
##isf
##isell
##isal
##isio
##isla
##isker
##its
##itie
##itane
##itiv
##itila
##uta
##utz
##uture
##utious
##utadora
##ays
##ayou
##ayle
##ayza
##owski
##vesty
##vement
##velene
##oos
##oove
##ooey
##oozi
weston
weldon
##ndle
##nden
##ndaz
##antee
##antage
##antina
##sex
##sely
##sect
##seus
##igy
##igd
##igone
##igio
##igans
wantyou
##kest
##kelly
##kender
##kevie
##kebox
##keley
##leg
##lephant
##leni
##ledge
hereaf
##arr
##aru
##arite
##arep
##arri
##aration
##arfish
##ariel
##arpen
##arantee
##omew
inin
inis
inice
inman
inari
infl
instru
inher
inhal
innoc
insect
hai
haw
hae
hak
hau
haith
hail
haage
haile
hadle
hazy
hala
hagan
halee
haden
hasen
hagen
hassie
hakim
hackey
hailee
haeden
hakeem
habla
hajar
hafs
shon
shand
shau
shish
shil
shack
shuff
shub
shera
shator
shallow
shena
shene
shred
shlo
shirl
shift
shole
shannie
shivan
shandon
shocked
shamarion
shmaya
shomari
andra
andria
andrik
therefore
theresab
hem
hector
hehaw
helena
hehh
hepcat
canary
canvas
cancel
##ighty
##ighton
ones
oneda
onesti
oneninety
yeaey
yearold
haven
yeahyeah
##stor
##sting
##stal
##stess
##stance
##sthat
##onis
##onon
##onther
##onent
##onkey
##onca
##onomer
##illie
##illiant
ster
stee
stall
stal
stinger
stash
stunt
styl
stella
stacy
stole
stacey
##iree
##irie
##irley
##irachel
##lder
##ldemar
##chow
##chain
##cheep
##chime
##chew
##chus
##chak
##chris
##chae
##chonon
bao
bail
bacil
baila
babar
bakery
ofelia
##uron
##urry
##urne
##urizer
##urgeon
##ureeight
##ingy
##ingue
##ingbook
limo
liana
limor
limous
comedian
##akemi
##odis
##odod
##enth
##enance
##enisha
##enco
##ension
##enbau
looking
##cean
##cecil
upright
wille
willis
willam
willough
willett
willson
willem
goodby
goodmorning
plot
pleak
plumb
plaz
##iese
forbid
##that
##than
##thish
##thair
##thel
##thog
##thus
##thoot
##thunder
##through
kno
knit
knute
##ithvi
shelly
sheera
shela
shella
shelena
knowledge
##mend
##meir
alli
alle
allon
allissa
juj
jull
juna
jude
judie
julia
juicer
juwon
jugger
jukebox
trea
tris
tres
trout
trum
trent
trend
treb
trigger
trippy
trula
tressa
truffle
truc
tripping
tresa
troi
tritan
tressie
troub
tradarius
treasa
socr
social
sollie
##idon
##idie
##idap
##idio
##idcamera
##eadful
thinki
ala
alee
alie
alic
alast
alix
alma
alise
alvie
alson
aloni
alida
aliya
alka
aliyah
alvis
altha
aleta
alfa
alta
aleem
alivia
alayne
alberto
algie
alvester
alethia
almad
altogether
alpine
##esph
##espin
##verine
says
saydie
chu
chand
chal
chlor
chup
chia
chav
chucky
chika
chaun
chave
chayah
chayla
channie
chookie
chrit
chatter
chereo
chandria
chyla
chagall
chisel
chaston
chyr
chilton
chumper
playag
playtime
playstation
atom
atmo
atif
atchoo
atla
atiba
atatat
hub
huddle
hugging
hustle
##tleigh
##icky
##oreon
justis
justus
justina
justyne
justyce
whogoes
anu
anay
anie
anice
anson
ancil
aniy
anette
anona
anael
anetta
anisa
anabel
analie
anetha
ananth
anely
anaran
anaka
##opt
##opic
##opofthe
##opatra
##mmit
##mmetric
downby
##rac
##rach
##race
##raim
##ravel
##ralia
##andi
##andme
##andspin
##indle
##oselyn
momoko
orn
orin
oryn
oretta
orvin
orem
orrin
orville
##otis
##otty
##otage
##otah
##otion
##otaro
makena
littlebop
littlemermaid
littlemis
littlepumpkin
littlebud
##adin
##adink
##adub
##adio
##adena
##advent
was
wale
walf
wahoo
waldemar
##byl
##byrne
##myne
##myla
##myrah
##mysun
cari
carie
carne
caria
carvel
carlin
carisa
cariana
carissa
carrell
carpen
carlena
carnell
carlyne
carys
carmin
carabella
carmina
caridad
carlean
carbur
carrel
bris
brigh
brice
brion
brigg
brian
britch
brena
briana
breah
brief
brule
brianca
brannan
bristol
browny
brilliant
backing
backboard
backrub
buse
budy
bummy
buena
buford
reilly
reub
reus
reward
reign
regr
reco
rella
reva
rendy
renda
reload
coast
colly
coord
cola
colet
colt
coax
##ellor
##ellyp
##she
##show
##shad
##shua
##shthem
##sharpen
##shirley
##aud
##icen
##icide
##icture
##icent
##icious
##icially
butler
bla
bland
blain
blair
blouse
blinn
blaire
##alle
overrea
overload
overtire
##gei
##ged
ahne
ahchoo
ahem
ahren
ahmir
ahkeem
##ohy
##ohol
takeoff
pus
puke
puja
##terson
##apara
##apito
##apotty
needham
##ryor
##ryear
##ryel
##ryeel
##rydberg
myra
myron
mylo
mykel
mylan
myles
mylar
myers
mynor
mychelle
mydaddy
mylinda
mygym
myanmar
bos
boink
boise
bobie
bozo
##alon
##along
##alah
##alien
##alert
##alani
##alisa
##alya
##alayan
abry
abbe
abag
abrah
abbag
abran
abdel
abrielle
abandon
aberd
abrianna
abbre
abuelo
abnorm
##amay
##amoo
##amab
##amia
##ament
##amara
##ammed
##amveer
##unciate
##ppet
turkish
##anka
##tyeight
##lyr
##lynd
eateat
eatitor
tweezer
twylla
frilly
friger
frannie
griddle
grubby
gratef
grethel
grisell
bigly
bigboy
bigwheel
biggest
##mball
##mbling
throne
threw
thresia
joa
joash
joint
joanna
joetta
joani
jolene
joline
jolena
jovi
jostin
jogger
joelly
jovita
joesph
turning
cla
clive
cline
clint
clari
cleto
clinton
clobber
cletus
clingy
babycl
babyjohn
babypatrick
babywipe
babynicholas
babykevie
##abir
##abth
##ablo
##abitane
##ethan
##ethis
##ethatcould
spook
spine
spence
spero
spilt
spurgeon
##ameblue
pran
prin
prime
prune
prior
praties
prithvi
##ishon
##ishaun
hoang
hollow
hobert
hocus
hovan
hosea
hostess
hmmhmm
##iler
##ilin
##ilng
##ilson
officially
colorer
colorblind
heliod
sitandspin
heyden
##eariel
roan
roen
robit
roanna
roley
rogel
roco
rozell
roshawn
rochelle
rogene
##ffith
##fford
##ffany
##ghis
##ghost
booker
trysten
dady
dadda
elp
elk
elan
elay
elver
elas
elton
elmore
elson
elina
elzy
elba
elgin
eliah
eloy
elvin
eliyah
elston
elmer
elridge
elwin
elroy
eleena
elaine
elayne
eloise
elishia
elvena
elwanda
elanor
elidia
eleazar
elchonon
guider
gusn
guppy
guiller
gulp
guzunt
guarantee
gumball
neon
neater
neft
neita
neda
nelia
neoma
nedra
nekia
neomi
nehem
nechama
necole
nefert
arin
aron
ares
arly
arel
arct
arma
areal
arik
arla
ariy
argel
arisha
arlen
arena
arron
arbor
arsl
ariana
arwa
arlie
arelia
armond
arnell
arayah
arih
arshia
aritza
arlys
ariyana
arlean
arvid
arvil
arnesha
arvella
arjuna
dred
drey
drippy
drift
druc
drbarrow
dreshawn
drkar
dreadful
worked
aware
##being
##before
##behave
handwash
handhand
handwr
jobie
swat
swap
swift
swoopy
##asar
##asim
##aschool
##asuarus
##ongiant
watchout
agnes
agata
agness
agapito
mayday
mayah
mayim
maythe
maybell
mayuk
mayleen
mayhem
flow
flight
flake
flore
flirt
flav
fletch
flutter
##ards
##arded
##ipo
rease
react
##arti
##artin
uhohs
##uline
##ulation
##uliano
waylon
showandt
slink
slab
sliding
slave
slayde
slamming
##elp
##elee
##elah
##eltower
ballroom
watersp
waterski
waterreed
daddys
daddyhug
timesha
##epop
guyla
heroc
herni
hercu
hermine
heracl
herchel
muzzle
muggy
mumi
mumbling
##issia
firm
bluebag
blueprint
bluelag
##edan
##edie
##edra
##ediah
##edahl
##eduardo
honeybun
honeydew
##amah
##amaka
##upmommy
leaann
leaha
leavo
thingie
thingthe
##roach
##rofo
##rovise
reddy
redhead
redial
redsea
useful
sticki
scen
scab
scum
scaff
scatt
scyther
works
workshop
seym
seher
seirra
selden
manon
manie
manly
manav
mannie
manning
manasha
mannyn
threelittle
greenbean
oph
opa
ople
##ouri
##ourne
meil
megh
member
meister
meghan
meggin
meighan
asiana
##nys
##ahut
##ahnie
##aherman
hike
hija
hilda
##moly
kinder
kindall
kinderc
boyce
##ssi
##ssyou
opencl
##zzi
##zza
nameless
pushed
pushup
coupe
cousc
hurley
yelling
umer
clem
cleda
cleotha
clesson
clenton
cleopatra
sube
subr
suella
suda
sugey
sumner
suicide
cate
catbook
cather
catwoman
yellowgreen
dio
dimmer
dipper
dimple
dianey
dianah
dippy
diantha
diadie
##oebe
keeping
##venue
cutout
wrinkly
movement
##umu
birtie
##ablego
crunk
cripple
##angler
##plex
finley
mousy
mousa
mouham
mourad
mousse
mouryeel
leo
leke
leone
leana
leob
leman
leory
levy
levie
leona
leyl
leather
leero
leisa
leola
leira
leota
lehi
levi
leyna
lexy
levell
leanthony
leandrea
lemuel
levada
leotha
leodis
funshine
quh
quake
quster
quade
quaid
quynn
quenisha
breakthrough
stuffing
hurting
##istic
##quin
##quiet
##quetta
##quila
##quiad
finished
##nei
##neigh
##neider
hotrod
hotchocol
ourself
calli
##imine
##olin
##olog
##olus
##olomew
kitt
wowwow
stillwater
##ionary
headon
headie
dana
danon
danell
dania
danimal
danney
danni
danille
danilo
dannette
dannah
evert
everlyn
everardo
evergreen
fishel
minh
minosaurus
minnette
hardhat
hardware
sorter
sorren
##arkatthet
haired
hairwash
hairband
hairspr
washrag
##ewedahl
##ngine
bearhunt
##areo
##arey
##arese
cookiesheet
##entine
sweetly
sweetart
sweetlove
exz
exist
expose
express
##pha
##phrase
##phono
nub
numb
male
maill
maven
maci
maily
maest
mavin
maky
maki
mazzie
malessa
talkie
smud
smuseum
sillylooke
squeek
squeezer
squeezy
grain
grainger
grager
gramma
grafton
sided
jumprop
dogbird
dogtape
peer
peow
pend
pele
pema
peggie
mateen
matoe
matvey
matasha
matias
##oschool
##osition
##oslav
tickity
loveda
##irta
manya
laterria
laterrica
mmmhh
mmmgood
numberoftheday
walid
waleed
walton
papercut
paperclip
birdell
glas
glada
glover
monet
monee
monter
monita
monya
monta
monique
monroe
monzerrat
monorail
monalisa
##avin
##avon
drinker
milo
milan
milas
miliana
milissa
military
afro
afnan
schoolhouse
schoolmate
daya
dayan
dayne
dayna
daylan
daybed
fitz
enh
ena
enid
enoc
envy
enola
enza
ennis
encycl
enoch
ensure
enunciate
ciria
runne
standup
kissing
legal
dina
dineen
##obo
##obot
##obal
##obia
##obus
##obics
garo
garry
gareth
garci
garrie
garhett
faceup
missj
missus
missile
misspet
missden
misserica
missincredible
misspam
missjill
missmor
missalice
missdeed
misswhit
misspaynen
missmam
misserican
missshirley
missouri
tiring
tiras
deven
dezy
deona
deird
deva
destruction
demit
dezzie
dejuan
deandre
deanthony
dequita
deangelo
deylani
dexter
deidra
debera
deinony
sach
said
saad
saige
saima
craisin
trees
##mach
##ifi
##ifa
##ifier
##ifict
##ifacio
horri
joeann
marth
maric
marly
marine
marven
marye
marken
marri
marina
marnie
marik
marilla
marland
margot
marco
marlen
margo
marque
marino
marlene
marissa
marium
markel
marnee
margor
margie
marzell
marshawn
marianne
marylee
marjan
marquez
marsela
marvelene
boof
boobie
boohoo
##usn
##usa
##toff
##toise
bedford
bedhead
bedelia
##ilege
elek
elese
elena
elemer
elecia
hattie
sandee
sandie
sandeep
sandford
sanders
sandhill
sandtoy
##whoop
earle
earop
earlene
earnest
earwig
earnestine
##mancy
##mansion
##manned
##ails
##ailable
##ailani
grandmat
grandcany
##anning
##annad
##annette
foods
foodfor
elmosnack
elmosong
bari
barret
##ontay
##ashi
##ashe
##ashad
wooly
woozy
funnylooke
##igglie
coldy
coldie
##acake
chevy
chequita
chevro
##assa
rocks
rockisland
lighthouse
lightbul
lightening
##armen
cardigan
kittytoy
kittykat
##berish
##berian
##berrie
wordworm
skie
skipper
skiler
duckyl
flowerpot
flowerpond
coolidge
keil
keona
kegan
keilyn
kevion
keiona
kemarion
keldrick
keanu
starr
starlyn
starlynn
starling
starsky
##achi
##ached
##achup
##achim
##achugg
##boa
stray
stress
stream
stregan
##theice
##thegr
##thebear
##themoon
##thestation
##thegreat
nightdress
nightcrawl
eggy
catchphrase
moi
moy
moss
mozell
moziah
##ayona
clique
listo
liston
duan
dull
duvet
##kenzie
stepsister
stepahnie
phyl
phonic
phrase
physic
phooey
phoebe
sixflag
##ocious
##orde
icefish
icepack
iceskater
winston
winfred
winneth
pinkney
chicaschool
##ushi
airrion
penina
pennie
peniel
camber
cambr
camarie
cameren
camcorder
bader
badtzmaru
actor
acting
endive
poley
pottymouth
beeper
##irtydog
busdriver
##zese
sunglas
sunrise
friendshipday
horseoft
peekyn
peekayou
peekamoo
poptart
windchime
genia
genug
genelle
gennes
genghis
##vya
ladd
ladar
ladon
ladora
laddie
ladonna
ladawn
ladaisha
idara
idris
chickenlic
uni
unp
unicycle
unatt
unbirthday
unscra
unhook
unlike
unbuckle
universityofchicago
unlocked
unravel
unmanned
scrib
screech
gabn
gabor
pantelis
pantleg
##endance
##plank
##plum
##platt
##kinah
##kinney
##hale
##haela
armin
armor
armour
armoni
armiyah
arminta
hoppity
perro
perci
perley
perlene
pernell
persu
percilla
periwinkle
buttery
buttercup
hanging
hangman
hangnail
oooie
##nerd
bunnybook
secondary
##agame
##agree
emry
emett
emmel
emiya
emerald
emili
emilee
comer
comic
complex
greatgr
restroom
firejohn
peas
##toman
cornstar
cornelia
gentleman
brownbear
gabbythego
banister
kido
kidney
monkeys
monkeybar
hugo
pige
pigsty
tomandj
tomislav
birthdaycake
blackbeauty
smaller
easier
toothache
flyer
##uginmy
snowbear
snowboard
snowghost
##mello
dinosaurtrain
para
parke
parisa
parris
parfa
paramed
parthenia
conner
conroy
conifer
concept
conrado
constance
rainah
eightynine
swinging
swingset
swingading
tenthirty
tenthousand
sevensea
strain
strapped
##alena
dumpster
adom
adis
adie
adam
adale
adio
adna
adeb
adler
adrain
adria
adrin
adaire
adriel
adrine
adelyn
adelynn
adrielle
advert
adaisha
adrionna
adopt
betza
betsey
storybook
##rique
##rika
shakena
ramy
raison
raigan
raquel
raelin
poohs
poohbah
biza
bouncing
cloie
clovis
cloyd
##ristmas
thanvi
whoopwhoop
straighter
foy
foamy
spinnie
spinosaurus
text
tevita
teyona
markee
markis
markus
sistergrace
sistersister
brothers
farmstand
patrica
patrice
patrecia
patterson
patacake
##naut
##crayon
##cream
##creamp
eden
edil
edmon
edrick
educ
eduardo
jacky
jacklyn
jackrabbit
jackthecat
mixa
mixdy
miximo
ouida
christan
christie
christian
christella
christelle
christoff
mrd
mrq
mrrick
mrworm
mrsnake
mrbeaver
mrlion
mrcruz
mrmarco
mrmagoo
##cialk
##cience
##ippe
covering
##zypoo
honor
honora
bottled
peachy
belch
belal
belvin
belinda
trivium
chocolatecake
##ofum
##ofthef
##ofpres
loudly
chewing
laying
layne
laynie
monstertruck
monsterinc
spotty
##flyer
keyley
keyari
keylon
keymoni
keychain
desere
desido
desiree
laisa
lavenia
lavena
lawayne
lavelle
lajoyce
laiken
stairway
staircase
stairwell
acie
tailbone
erma
erna
erlin
ervin
ermie
erskin
ernst
magoozi
mady
madge
madam
madde
maddo
madison
madline
maddie
madonna
madsen
madalynn
maddis
madalene
madele
madelynn
madelin
madelene
madalynne
madhav
madameblue
##ikka
breadstick
wondertwin
spacey
choochoochoo
##masaurus
deli
delay
delight
delon
delia
delton
delsie
delanna
delance
delbert
delford
delilah
deloyd
delmus
delrae
noisemaker
shortly
ewing
##umbus
polina
##bran
godfrey
halfhour
halfcircle
faris
farid
faryn
farney
farley
farris
farrell
farrah
farren
faragus
farfetch
##lagg
grassland
learning
rubin
rubbish
stinkie
plantain
bootsy
skyhigh
##ebus
carrotsicle
##cila
##boxe
basel
dotty
santo
santiago
santagame
wheelsonthebus
beecher
rustle
##adean
dax
daz
daqu
daze
dawan
daxton
dammit
fuller
rounder
rounded
walla
wallace
dishie
petr
icecreamman
icecreamcone
fruitsal
antar
antone
antoney
antler
antagon
antwo
antwan
antione
antigone
##iyha
heartsh
##rez
##reanna
##register
burst
burper
burgl
burrell
burlon
saleen
salina
salinda
sadie
##ibu
##ibelle
growling
strongly
bellyache
bellyeater
mooney
##letale
##letruck
disa
disagree
##ako
##akai
##fisher
##fishing
twentyfirst
twentyfifth
##frank
##freak
pencilsharpen
lefty
##sys
figureeight
clockwise
speghett
specialk
compose
compete
comprom
competitive
computadora
mical
mickel
micahel
##garee
thomasabc
##unti
caption
##izey
goldia
mooo
moody
moosie
moosey
install
##working
##cling
##clair
##clover
##claration
curd
curse
curios
panfilo
##yln
##yloo
##ylittle
##yloose
##ignment
princes
princeeric
pointa
pointed
lover
loss
lozen
lokel
loghan
excess
excelent
bobs
bobbe
bobette
bobbook
bobbi
##bowl
donal
donato
donette
donno
donnel
donica
donelle
donold
donzell
donathan
donavin
softscr
maila
tunic
rabie
##ginethatcould
auntiel
auntier
auntmarie
auntellen
auntjoyce
auntcindy
auntcecil
supervis
supersuit
supersack
##ancey
stickybun
##melia
swimtr
tighter
tightrope
##arial
klay
klare
##noah
spilling
spidermans
olie
olita
oliva
amit
amil
amuse
amiy
amity
amira
amorie
aminah
amrita
amorita
amillion
cael
cammie
caelan
cautious
woofwoof
jaic
jaice
jawan
jaidyn
jaivon
jajaira
jaimie
jaqwon
jaedan
luk
luster
luigi
luqman
jellywell
dearl
dearrius
ooky
decaf
shutter
veg
veil
veola
##ivate
##ivian
##onnia
bram
brack
brady
brailyn
##carri
##carious
cali
caly
caliah
calissa
calandra
calorie
caleesi
choir
cholent
beanbunny
##fulworm
##dest
##deus
fillmore
fillilng
flatter
princessbride
princessandthepauper
princessariel
##ielis
##geluis
melody
melisa
melanny
meleah
melanie
melaney
melaina
melitza
melville
melinna
melquiad
melakai
pinkey
pincer
pinetree
poolparty
rhea
rhett
rhian
rhona
rheya
rhyland
rhashad
weekender
##izing
prem
prevent
preston
previous
precilla
precarious
lapiz
lappy
bernd
berma
berlin
berser
berkeley
bernerd
attempt
attendance
telephono
cerealboxe
diedra
diezese
soupy
trae
travesty
splatter
##arazzi
scratching
pax
paiz
pavel
paolo
paxton
paije
pavement
tyh
tyou
tyne
tyron
tyanne
tyrek
tyasia
tyryn
tyishia
tyeesha
tymeka
tymia
##actoe
papel
papier
papaya
paparazzi
##spiece
sharer
sharin
sharen
sharra
shareen
sharyn
sharissa
sharrod
zebul
beginner
triplet
messymess
jema
jeane
jeanne
jeston
jelena
jevaun
jehad
##joel
##joanie
fullhouse
##onym
scarey
sugarama
sugarplum
doctorkim
doctormari
doctoroctagon
doctormalia
signature
signlang
##nier
medha
medardo
##adaisy
grandpach
buzzing
worms
piggytoe
spitball
muddle
farmermary
farmerinthed
johnney
johnjohn
ryen
ryah
ryder
rylynn
##soap
##socean
england
addis
addam
tweettw
uncleandy
unclepat
uncleanthony
unclenathan
uncledude
unclefrank
cuss
cuyler
cuidad
hooks
cora
cork
corie
corby
corian
corina
coralyn
corwin
coriann
corabelle
corryn
corinth
daren
darrow
darre
dariel
darrah
darede
darral
##ymcguire
squirrelly
octa
##ddie
digest
michell
michal
michiko
michae
lili
lilie
liliane
seabron
##coke
eleventhirty
remove
remus
remnant
remigio
snappy
ribs
robb
robbert
artie
artic
artez
artific
kene
keng
kenith
kenzy
kenzel
kengo
kennis
kenesha
kennon
kenichi
kenzli
harass
harley
hartley
harnoor
landy
landis
landon
nae
nao
naom
naesha
naaman
nautica
nakina
sharkattack
sharktales
sharkatack
resume
reshard
pretzelstore
gema
geometric
beatrice
beatfreak
hamza
tubing
liesel
nini
ninfa
ninethirty
##iena
##iene
hippie
tao
taft
tammie
tajuan
tajon
tamya
taquito
taariq
##ophop
smartie
thirtyseven
thirtyoclock
leafy
leafs
policecar
magically
magiccard
magicmark
pedro
pedicure
integrate
shai
shaft
shailyn
shaindy
livingston
fighter
##oyle
secretarial
##umptious
##birdie
##anias
misterbig
misterchagall
misterhass
misterpic
honking
ism
isis
isab
summersault
barnard
barnett
pearce
pearleen
##doodle
excellente
noreen
norman
norvel
charlee
charlton
charletta
charlotter
jamea
jamon
jamen
jamia
jamari
jamiel
jamier
jamiyah
jamila
jamarie
lipglo
recopy
karan
karee
karie
karth
karly
karena
karissa
karessa
karolyn
karstyn
julene
regain
larra
larence
laranda
larisa
larrell
larrissa
alec
alese
aleiyah
aleli
aleki
aleatha
timea
timisha
woodie
woodrow
woodpile
diper
charis
charish
charlena
charolette
charisma
pepperonis
syll
syaire
syrina
syndi
syrena
symmetric
##aziel
##aziz
seedling
porshia
visine
vision
wishing
##enezer
angelea
angelice
angelika
scoopie
merina
merna
mervin
merline
meridith
meridian
samie
samera
samba
samayah
samiam
samantha
collen
collette
collene
collision
gymini
gymshoe
hilli
hillard
radha
suckle
tiare
tiana
gordy
memorize
screwer
kieth
kimble
brek
breea
breona
breather
frenchfry
erasto
mindi
oatmealcreamp
jesa
jesiel
jessel
jessey
jessenia
##ormous
angy
angler
##youfeel
alphonso
chickchick
auntiemay
auntiedebbie
auntiesus
auntiejulie
auntieisabel
extinct
jayv
jayme
jaynie
jayna
jaycie
jaymi
jaylan
powerbar
powerpuff
##lern
abcfishing
oceane
ocelot
passion
rayn
raya
rayan
rayne
rayanne
rayford
rayburn
raynor
raysean
raynard
##mario
##marvel
stringy
##ronia
##umeka
bells
bellan
jarin
jarom
jaren
jarett
jarret
jarred
jarrett
sarabeth
##colm
##columbus
goldfishcracker
jasm
jasie
jasper
jasira
jasavion
jasimine
##awole
spreader
iln
ilsa
nutcase
simp
simmy
siera
simmer
sibel
siberian
corde
cordell
cordale
improvise
jerin
jerid
jeral
jerard
jeriah
jerardo
jerrad
jeramine
jermane
jericho
##reem
##reece
saltwater
oceanarium
nicki
nickal
nickola
nickole
nickayla
michaeljackson
sealion
trayvon
peterpark
##iyai
laurin
laurell
laural
laurine
laurent
laurette
laurier
shellie
shelley
shellene
dougherty
janeth
janine
janise
janett
janina
janessa
janylah
katty
katye
katina
katien
kattie
katianna
katrin
katrina
katlynne
katriel
##flip
##flash
vegetarian
remotecontrol
killian
verner
vermell
verdell
wildcat
wildanimal
##rico
burnett
burnadette
crossbone
annis
annah
annetta
annissa
annacl
anneta
annaly
annsley
annabelle
annamae
annamaria
dustin
dustie
eastergra
easterbasket
brighten
pancakes
spongebobsqu
spongebobgop
relaxing
relaxed
jeneen
jenifer
malina
malike
malva
malvin
malika
maleena
malique
malaina
malibu
malcolm
satisf
##cual
emnet
ashn
ashby
ashish
ashlee
ashunti
ahhhh
cassy
cassian
cassondra
cassaundra
tayah
tayson
taylynn
tayler
taylan
tayte
tayjon
tentative
hennes
thirteenth
thirteeneighty
denn
denay
denise
denzel
denora
denya
denys
denmark
dennys
psl
pssh
psal
betweenth
##jammer
##jamyn
roadrun
muffinman
cece
celene
celena
cecelia
florice
florrie
florinda
florencio
floridap
florentine
kami
kamor
kamau
kamoni
kamala
kamden
kamille
kamerin
kambre
kameran
chinny
chinatown
children
childhood
childproof
backyardigan
backyardigans
esl
esma
esper
esias
mrsm
mrsun
mrsju
mrsbar
mrsducky
mrsfarmer
mrsjansen
mrsgock
mrskinney
mrsfisher
cherrypick
flashing
sueann
sueanne
valen
valecia
breathing
filter
filiberto
filomena
janean
janeice
kingston
kingsol
rosina
rosanna
roslynn
rosalyn
rosabel
rosalia
rosilyn
rosalie
rosaria
gladis
gladys
gijoe
giuliano
roughhouse
flamenco
kaya
kayoo
kayak
kayda
kayli
kaylee
kaydon
kaylan
kaykay
kaycee
kaydn
roseanna
roselle
rosemarie
rosezella
roselind
gardiner
hayz
hayes
haydon
haydee
haydn
##olding
bullfrog
leanore
vanillawa
jungleboy
##otts
bubbly
macaria
hoof
hoothoot
natale
nataya
natalia
natania
natasha
natrice
nataisha
natashia
natallie
vibration
##slow
##slie
bendy
balk
balancing
##icolor
##amaru
##cupy
##glue
valente
valentino
camellia
evi
evone
everest
evander
evarose
evolve
liner
linette
linley
linwood
linsay
poodle
silas
silvio
volt
volpix
##iente
doreen
dorri
dorky
dorito
dornell
dorinne
dorianne
dorsal
dorrine
dorrian
dorthea
dorthey
gooseyloose
soccerball
soccerzone
cindrom
cindyloo
gerome
geral
gerldine
disneybook
faiz
fafa
faisal
khy
kham
khara
khiya
khayla
khryst
khizer
khaylee
khamarion
lenny
lennie
lenna
lenient
lennis
lenoard
lenzie
lennix
osamah
peeha
brocoll
countertop
firemanjoe
jeanie
jeaneen
jeaninne
jeancarlo
torment
torrey
##aroof
darleen
jaclynn
jacilyn
jacquel
jacoby
loree
loris
lorri
lorina
lorena
loralie
loriann
loraina
loreto
lorrene
loribeth
lorretta
loretto
seraya
sergei
##consin
draga
feisty
female
jameson
jamesn
jamelia
logs
logroll
motivate
titirachel
##hms
##saida
clayton
clayborne
worldwart
##ression
##lius
toiletpaper
marycl
maryjo
maryanne
maryellen
marypat
marybelle
marykay
gasper
indee
indeed
indiah
indigo
naughtiness
benson
bentley
bentleigh
benjamyn
rubberducky
avon
avia
avory
avianna
avatar
avanell
available
hlee
lessie
yax
rossaroo
patrickflynnn
ayman
ayala
davon
davine
davian
davona
davita
davius
daveena
davante
daviyon
kamy
kaed
kammy
kaily
kaisa
kammie
kajuan
kaelynn
sheron
sherie
sherlyn
sherley
hundredand
colum
colson
colada
colonel
puffer
puffin
puffpuff
nerissa
ragan
tamir
tamas
tamika
tameria
##beef
junky
hunk
jumpingjack
duckiebook
nahomy
yuvan
fredi
freda
fredia
fredrich
frederich
violette
irby
irma
irina
irving
irongiant
lavin
lavar
lavone
lavina
lavance
lavada
lavetta
lavonna
laveta
opponent
sonny
sonnie
sonja
smashed
stephone
stephane
josen
josey
joselyn
joselynn
joseline
joseangel
josefina
voila
rexy
prescott
scrappy
alexi
alexia
alexander
alexandre
alexjandro
powwow
sweating
ghostie
bonfire
bonifacio
hans
haniel
haniyah
hanamaru
lamir
ratsnake
wilton
wilber
wilford
wiliam
wilhem
himalayan
ninetail
sarahann
sarahgrace
vitaminc
aidin
freshman
pacific
camelia
define
defense
deforrest
elleen
ellise
ellwood
ellias
erial
eriberto
eriyana
teron
terilyn
##hams
laken
wolfy
wolfgang
obl
oboe
obbie
obadiah
obryan
##merize
shaden
shadoe
shadrach
##rains
freeway
clipclop
##ifferent
domini
domitila
buhbye
buhdra
cockroach
joelie
apply
kojo
koston
itching
stealer
jesuschrist
georgi
georgina
georgiana
emmal
emmalyn
keely
marshall
marshel
scoobydoobydoo
celie
celissa
jones
jonnie
joniyah
jonatha
lyd
lyle
lyon
lyana
lyman
lyda
lyssa
lynda
lysandra
mismatch
missthing
misbehave
netanya
brok
darnita
junko
azar
azul
azlyn
azary
azael
aziah
azalia
ulrich
billbug
moria
moroc
morene
morrell
morrisa
nicandro
nicolina
racer
rivers
tarp
taren
##ansas
baaah
baaaah
chancey
bushy
cynd
cynda
cybill
cyndi
cyclop
cydnee
citymuseum
kyr
kyra
kylyn
kyre
kyasia
kyung
kyran
##mataz
##scout
##scopic
shakea
brandnew
bouncieball
bertram
fiftytwo
cartoonnet
audra
audree
audition
audrea
audrena
denton
sabine
sabina
sabotage
##cheus
##checker
confident
amelie
amelian
amelio
bzzt
lyna
lynell
lynita
lynsey
lynae
lynnette
rodell
roddy
rodnesha
tatianna
tatyana
##aele
claris
clarise
clarisa
clarissa
clarinda
clarnce
clarisse
claribelle
captainmarvel
silverio
cantasuarus
kathry
kathlyn
kathryn
katheryne
kathyleen
oyvav
senor
senia
senora
senior
##ernanda
stitchy
carletta
carlito
carlotta
musab
hicimos
kalon
kalie
kalif
kalman
kalib
kalya
kalinda
kalandra
kalyse
kalijah
kalieb
nakeia
possess
ramari
ramsey
ramzi
warrick
warthog
treana
tremell
trecie
trevon
trejon
franck
potatoheads
destiny
sawyer
rashi
rashe
rashan
rashon
rashod
rashell
rashanda
rashaad
smoky
smokie
teena
##relli
nestor
posture
postman
postoff
peanutbutterandj
shawnell
felipe
felica
cayce
cayden
caylei
equation
jahl
jahid
jahara
jahkari
jahmeir
jahshua
jahaziel
trexes
##rahman
subway
subtract
jessica
jessicia
jessalynn
jessilynn
jessamine
roma
romy
romona
romilda
rommie
vlasta
fortynine
bratty
durant
duron
durell
durwin
latter
latessa
latonia
latiesha
latrelle
mitzie
mitsu
talin
taleen
talik
talbert
taliana
talayah
talmad
talbot
talmage
##urnal
georgey
georgeann
oscarthegr
correctly
jewels
cashmere
cashregister
curtis
curtez
kela
kelea
kelby
kelcy
kelvis
kelsea
kelijah
kelcey
reno
renea
renee
renay
renie
renard
renita
renetta
renardo
terrie
terrick
terrifict
virgel
venie
venice
venson
venna
venessa
alyce
alyiah
alysha
alyric
alycia
alysson
reception
slapstream
nineteenth
nineteenseven
damita
damien
dametria
mikia
mikail
mikaila
mikhaela
valera
valorie
wls
yln
##ollie
##aunna
joylene
maxell
mariap
marial
mariane
marilyn
marietta
marijane
marialice
mariateresa
dalven
daliah
dalayza
fradel
frazier
miller
millie
millissa
otelia
otilio
ottoman
pathway
tuvia
tuxedo
yaritza
andrina
andriel
diningtable
salem
nyle
nyra
nyla
nyree
nyjah
nydia
randy
randee
randie
randolph
##littlebrother
lizette
scotti
gaither
keri
kerisha
kervin
kerchak
lindell
lindley
schyler
schneider
schmancy
schristmas
velia
velva
velinda
velveteenrabbit
velicity
velvety
fortino
seventyeight
seventysix
jeffery
jeffrey
jefferson
ambros
distance
dashawn
estle
estab
estil
estelle
esthef
mickael
mickaila
mickaela
marti
martina
martini
martinn
martians
##niti
infect
hoorah
arielah
sixtyfive
poohbears
lazytown
ageless
emaleigh
fieldmouse
natha
nathen
nathalie
nathaly
nathanael
sanay
saniah
sanjay
bryant
bryce
bryden
brytt
bryndal
twinklestar
protection
wrestler
wrestling
mattn
mattalynn
matteus
glowinthed
aquil
deray
derward
derrek
hooper
kellan
kellee
kellen
kristee
kristen
kristeen
kristel
kristena
mathias
mathilda
mathilde
mathemat
ssquelch
vinicio
zeyn
zeyna
trapdoor
alban
albany
albirta
makail
makiko
rudell
kamariah
fabone
lashay
lashaya
lashae
lashaun
lashawn
lashanta
lashunda
murrell
murial
murciel
mandee
tags
belleville
statereport
huntlee
claudis
macall
macandcheese
lucas
lucyn
luciano
lucetta
lucca
lucille
robinson
kaleb
kaleiyah
tanti
tacorey
safiya
kendal
kendrell
kendahl
kendarious
temperament
mailmanmike
timmya
timmytip
imaginex
akash
aksha
centerpiece
msruth
msfenay
nananan
yov
##jeff
transplant
angelynn
arlan
arlana
arlette
arlita
arlisha
arletha
fireperson
glitterglue
devi
devil
devri
devlin
devron
devonte
tennisplayer
recording
dragontails
mistaken
deputy
depression
langston
langdon
maman
mamas
paschal
pasadena
pascual
retarded
tasha
julious
juliet
juliana
carolos
carolanne
##aphone
##aphyllis
elizabth
daniell
daniella
montell
cheeseburg
tyran
tyrome
tyrel
jasoncoe
josephina
skateboarde
skateboarder
augusto
augustus
kiree
kirby
kiril
kirsty
leeann
mcnugget
nikkie
nikkita
nikkolas
weddingpeach
chanz
chanel
ankur
antonetta
antonios
antonyo
refuse
reference
clubhouse
babysat
babysanta
eliud
elija
elihu
elijio
strangelooke
bumpyjohn
veggiecheese
englishmuff
grownups
koolaidjammer
billybug
emboss
gilmer
johnt
johanna
johari
johanny
johannah
menards
menashe
tanzania
##hhhh
##robot
assignment
cathie
cathye
cathline
cathryn
catharine
dialup
quintin
quintus
quintilia
quintavious
apolonia
apolinar
uhuhuhuhuh
gingerbreadman
autie
autum
autoscope
autobus
astronomer
savon
savilla
savanah
zoeyn
zoeya
##reya
tickytoe
activate
bernetta
bernhard
continuous
dominque
dominico
journi
journee
jourdan
jimena
jimmey
louanna
louvenia
nichelle
raheem
tonny
tonka
juhn
anique
eightythree
belowthego
timbertoes
boris
dyron
dyanne
dymond
dyami
detach
detangler
richie
richey
richardo
teegan
teeghan
vaseline
zakari
zakiah
##imyah
##blay
##zaria
halina
halston
halsey
shelah
shelba
shelbi
ordinary
rebeca
rebekah
rebeccan
countrybear
bedtimebear
lawton
lawanda
burgerking
lincolnpark
gwyn
gwene
gwynne
geesh
gayle
gaylon
gayleen
jakyla
kazia
lanah
laniyah
lanessa
odelia
sylina
sylvia
syliva
##temple
##pops
##kittycat
##rodite
##ussin
josue
josette
speedy
leonila
leonardo
maurine
maurene
mauricio
marcelene
dakotah
jaegar
jaevyn
kennan
kennard
auburn
aubrey
aubriana
douglass
elleanna
ivo
ivana
ivory
ivori
jeremia
maham
terell
##cense
##cenia
##leenginethatcould
##attoos
shayanna
shaymus
shouting
travin
travius
travarus
althea
organizer
privilege
hollye
hollywood
arcadio
washingmachine
marielle
mariella
marieanne
ringaroundthe
tweetiebirdie
isaiha
smooshed
tambra
momento
aldin
aldon
aldene
galina
galeez
glenn
glenis
lilli
lillia
lilliah
lilliam
laszlo
nader
nadeen
nadine
nadav
nadja
nadalie
sidra
sarai
saraia
sarajane
takera
takita
takisha
takiyah
##ihan
interfere
brittan
frankye
holymoly
muhsin
susan
susanne
susumu
leiloni
marlina
margarite
margarett
margarete
courtland
jennalyn
virgia
ferby
ferbie
fermon
ferocious
ferrell
izabel
izreal
naveen
ronee
ronnie
ronette
yanci
yanette
zaylynn
##ysandra
wheatfield
shushed
babs
babette
basilia
chanti
chantel
chantale
britney
britten
bostonpub
arkansa
ariela
arielle
sequoia
newsprint
marquette
marquavious
marquavis
marquiese
discolor
traveling
tattletale
positively
232me
aarion
aryn
aryel
aryana
aryssa
evelynne
issak
issabelle
korin
korena
prairie
ssssss
##riti
##delin
donaven
shantal
analicia
mysti
archer
meganne
crisp
christophercolumbus
twentyfourth
hydrang
aphrodite
daryl
daryon
daryel
faythe
jorge
jorene
jorryn
jorgeluis
jerris
jerrica
kadie
kaddish
mirian
mirabelle
mikel
mikemike
nakie
ranee
ranette
ranisha
selby
selma
selina
wyman
zyaire
##gumdrop
shaleah
juanangel
##version
##versary
lexi
lexis
squidward
philis
philjackson
philofthef
peaceful
lakisa
celesta
ninetyfive
ninetytwo
ethyn
ethlyn
ethyl
heee
jadon
jadie
jadarius
jadarrius
jaleen
jalaila
narayan
pierina
tinnie
yolande
zoii
##riona
##mcguire
##mcgraw
##leary
donta
dontae
wendi
wende
wendall
wendolyn
andrej
andreus
judea
judgment
myrt
myrle
myrna
myrtha
abdoul
joshn
joshalyn
joshua
spiro
spiros
elnora
suhayla
crista
cristian
cristina
cristela
cristobal
demetre
demetria
demetrius
demetrio
marcos
generation
jacqui
jacquetta
benjie
benjamine
lynde
lyndon
lynden
lyndell
tyrannasaurus
zawackin
arad
arasely
baybridge
bayyinah
derrica
eeh
jedi
jedediah
locomotive
mikin
modern
mellody
merritt
merrilee
merridith
multi
multicolor
oakdale
wynter
wynette
##pinner
nonny
nonnie
blastoff
ariad
ariannie
swirlie
slurpy
maeve
maelynne
debi
markell
markesha
markeeta
genecis
jazlyn
jazmine
lucygoo
seasons
vernice
germain
transformers
chinesenew
chutesandladders
auria
aurora
casi
casing
eldin
elden
eldora
eileenn
gloriann
jakey
kwasi
kwesi
kallan
kallie
kahiau
krystyna
leslee
ricky
rickie
ruthann
ruthanna
ruthanne
tabby
tabia
tablet
tabius
thelbert
##itione
steward
alfonzo
cheepcheep
humor
humid
humaira
brenisha
brentley
jollyroger
royal
royden
arnett
arnetta
elevated
unzipped
dawna
pigglytown
octavious
octavius
charlottewedahl
aerie
aerika
aerobics
amyn
dillie
dillian
dungeon
dungaree
ett
etna
emanual
emanuelle
imran
kylin
mckay
munchie
paulette
rimmer
sahar
sahil
vrooom
vivianna
vivianne
vivienne
xrays
##puppy
hahaha
humanbeing
carnation
brayland
braylon
scrapbook
suzan
suzann
dionicio
dionisio
##ification
adriana
rafeef
raindrops
thomasthetanke
twentyeighth
southeast
oluwa
kenyen
kenyada
taelynn
taegen
taelyr
rosalea
rosalina
rosalva
emmanuel
emmanuelle
ralphie
heffalumps
athens
dwane
eben
ebrahim
gangbanger
gangplank
kanish
katelyn
katelyne
kolbee
kolawole
kailin
kailash
kailani
kieran
mohican
mohician
mohammed
mohannad
nija
romelia
tahir
wanza
zigge
zigzag
thermon
beyonce
bethany
whitman
whitney
whitley
weightl
nelina
nelva
ardell
ardath
ardelia
waterslides
creola
saxon
hatchet
concern
rawleigh
razmataz
mrspickle
mrspaynen
mrspotts
meowmeown
jaques
jaquavis
directly
claudio
claudette
claudius
curiousgeorgebook
barnaclebill
dartanian
eura
fouryear
falon
falisha
gazpacho
janavia
krisha
krzys
khaled
karli
karlo
maude
omari
paula
paulo
painty
portia
reef
reema
rapid
rental
sinjin
sinatra
sedar
sedrick
variety
##helper
##topia
##footright
gogablego
gobot
shirlene
sherrill
sherril
lizzymcguire
treadwell
soysauce
roxi
roxie
roxanna
roxanne
arrival
##ependence
underdogs
bunkbe
bunkbed
strumming
tempt
template
mrname
lavern
laquitta
laquinta
loyce
loyola
jazzlyn
jazzlynn
alisonlynnn
sydne
tiffiny
snuggien
jacquelin
rubberbands
irritated
complaining
palmtree
trevar
mckena
axe
avalee
dallin
dallis
flexible
ffff
geraldyne
honesty
harlin
harleen
lisandra
molar
mosie
neeva
vallie
zareah
doodie
sofie
alfreda
alfredia
chelby
chelsie
howardn
husam
bridle
bridie
situate
gustaf
maneuver
hilde
hildreth
diagonally
walterthew
garnetta
marianela
barefeet
poppers
bowwowwowwow
advantage
adelina
raegan
salvator
salvation
shawndell
scooperupper
jermal
boogityboo
jeremyah
eskimos
zombieisland
aaleah
cortez
eugenie
feetsie
jabrell
jordon
keaston
kasyn
kaspian
kynlei
krisanne
lacie
lacros
mateo
pitiful
qtips
zackary
##music
##thetrain
altamese
playhousedisney
breya
breyer
prentiss
preferably
robel
handydandy
hermano
scorcher
severa
dietcoke
glossy
deloria
teethie
mrtiger
dawid
dawson
dawanna
daffyduck
lucien
##coloringbook
##colorfulworm
najwa
jamieson
jamieorour
annalea
annalisse
kaylum
kaylanie
wilhelmine
jonahtan
gregory
gregoria
marcello
marcellous
christyne
chapterbook
glendell
glendora
oluwase
oluwakemi
unfortunate
alessa
alessia
aaaah
corynn
cootchy
dellia
dalesha
euell
ickie
keene
keenan
mslaur
mslilia
nalani
nalini
omega
route
tessica
tyneshia
yeni
zenas
##wester
##weisel
##fifofum
doodlebug
doodlebop
tommyteal
shimmer
shavon
ohohahah
candace
candido
candidcamera
##sthumb
bassoon
allrighty
alvah
alvaro
alaycia
alaynah
chayce
chasing
atlanta
anastasia
makenzi
brooks
brooklyn
brooklyne
##aunte
##ishek
sugary
queso
nosedive
expand
maisee
maisen
maisie
maisyn
walgreens
cornelious
magdalene
daved
daveion
donnal
donnelle
steffi
isidro
accordion
accordian
nuttytree
khalil
khaliyah
columbia
katharina
connorjoe
abdulaziz
community
mckinzie
honesti
australia
clydell
damarco
ezriel
edyth
evelin
gyasi
gillian
hideaway
jinny
jannell
kandis
kentucky
kashiya
kerria
kerrigan
nicoll
nicolle
nicolena
oralia
pamula
ronnette
renaldo
ulysees
viking
yuli
zhoop
zacchae
zaccheus
##murray
thedarkatthet
dococ
shorter
shorthand
hewlett
##christma
upsydaisy
williemae
tracing
alcohol
carmelita
bluish
clogs
spenser
agustine
agustus
seanpaul
catalog
catalina
demolish
grandmaherman
grandmaphyllis
skimmer
deshon
delphia
oliviaoctopus
contrail
contraption
kimberley
jayliah
henriette
cecille
cecila
cecilia
servant
erikrydberg
martinlut
immediate
pbskids
raphaela
punishment
acrobatic
123
aislee
ayaan
ayaiyai
bartolo
derell
dilate
dagen
dutchy
elyjah
evaline
ghoulie
gaines
gallop
gallery
gavin
gavon
galena
gerritt
ishanth
jsln
karem
karey
keela
keelie
kawika
lupe
lillyanne
latoyia
midget
nils
nilsa
pandora
rivi
rivka
serafina
serafin
vicky
vickie
wiping
yowzer
yashua
zamira
zahra
thaddeus
shanequa
stirrup
cheng
chenelle
anvay
anvita
anvitha
anselmo
branon
brynly
brianni
briannia
mykal
rozalia
rondal
robyne
roshun
elsworth
swisscheese
byrne
byrdie
headbutting
headbutte
graciela
graciedo
deanza
##magic
maricela
maricelda
cheylynn
keiron
airconditione
happyhalloween
adelaide
amarillo
amandalee
amandabitane
caitlyn
caitlin
braedin
esmerelda
naturally
smokeythebear
valerie
valerio
mccall
siddh
siddhan
siddhar
237s
multiply
multiplication
saggybaggye
timothygoest
communication
grandparentsday
measurer
##hungrycater
stadiumchecker
avelyn
astra
aurelius
aviel
ciaira
cavin
dariush
ephram
ephraim
faheem
fahima
fahmida
ginette
gadge
gibberish
hinie
iraq
irelynn
jream
kortnee
khoa
litle
nandi
nandika
nasreen
othelia
seferino
tylar
vonc
wisam
wisdom
wisconsin
weeny
yvetta
yvonnia
zanaya
zoopal
##yourhand
##ziry
##6666
toadstool
oneten
international
invention
hammond
shocker
williams
chetan
cherylee
playmobil
##raging
orpha
orphan
briar
bronx
bronwen
brieanne
brimstone
brynnan
blakely
ahniyah
pupil
jocelyn
rojosf
elieser
elieweisel
areyanna
swerps
scarlet
scarlette
birthmark
birthdate
cranford
mattye
##obobobob
kevontae
banananut
christohper
monstersincorpor
madisun
wakeupdaddy
rudolf
antwane
microscopic
amadou
amador
amaliya
caldonia
princesslolli
bernece
berneita
jeannine
jeannette
stevenson
tawnee
tawney
taquitos
extremely
rugrats
janaysha
evanston
khristen
ellenora
shhhhhh
sabastien
destinee
destinyn
maxxwell
zevvi
fabricio
claudean
mackensey
mackenzey
yoshio
yoshua
angelyna
wheatthins
viewmaster
celestia
kalliope
kahleah
shirleytemple
trickortreating
zimbio
oluwatise
columbusday
entirely
hauntedmansion
optimuspride
cheezits
foxinsocks
aayanna
aayushi
averie
amberleigh
boden
dinkadink
ekta
ekamveer
eustace
fernanda
iyauna
jacelyn
jiggily
kohl
kearston
katerria
kassandra
kreg
kreston
lurlean
lainey
lisset
lanese
marely
nadean
pimple
reesespiece
rumba
sqaure
saintmonica
synia
synonym
tanyan
tamaria
tamarcus
vomit
vomitte
vangogh
virda
virdie
verta
vertis
wimp
wiggin
wiggling
yazmin
zohra
thurber
doreatha
havannah
shalen
shalev
##charles
##chestra
tricey
cherelle
cherrie
anecia
anniversary
bruin
brigett
reinhold
regino
reginal
reynaldo
coyote
bloody
publish
abhik
abhishek
abracad
abbiegail
fredy
priscila
elfie
elmwood
eliazar
eliseo
dreidel
suffer
suffocate
crusty
cruiser
leighanne
gargoyle
deontaye
marguarite
marshae
grandmaname
keiandre
permission
adonis
adolphus
raffi
raffaele
antionio
bobbiejo
rheana
rheannon
tyshun
michelina
artemis
artemio
response
hippityhoph
merriam
ileene
jerrald
malyssa
piratesofthe
hamburgler
hamburgular
nataniel
khaniya
seraphine
kaitlyn
kathleene
francies
alyxia
schmutzypoo
estefanie
akshaya
detector
detective
mackinzie
aerialflyer
structur
mrnooks
illustrate
illustration
gustavus
unitedstatesofamerica
airconditioner
measuringcup
##bweebweebweebwee
splishsplashe
egyptian
meteorite
wwwyou
hildegarde
ainsley
ainslee
denai
ethelyn
folk
filemon
fontaine
hometown
illeana
illegal
issaiah
jhoan
kessel
karmin
kaching
kippah
kako
kymorah
kerensa
lourdes
lolita
lubna
lubertha
lusine
miracle
nishan
omauri
oberwe
pipsqueak
pompom
ruta
sindia
ssln
tsch
tassle
terryn
zagge
zaidon
##callit
##bottle
theveryquiet
theveryhungrycater
doopie
doloras
dodgeball
nocturne
nocturnal
investigator
sharde
sharmayne
sharlize
shylo
shauntell
andygri
canadian
canadians
styrofo
liftoff
trishelle
soledad
alvera
channell
chocy
chugga
chuggachugg
humpback
mommies
mommabear
carmesha
caribbean
bruno
buzlightyear
reyes
blurr
blugah
ifeoma
mychaela
abigale
twakedaddy
twakeupmommy
freeda
freedom
greeks
jozef
priscilla
priscillia
twothousandand
roemello
elaiza
nekoda
neiln
areonna
ardyce
ardythe
aristides
herminia
herminio
threeleafclover
operator
meatex
meateater
sukkah
suspense
diamantina
crockpot
leyton
lezlie
mavrick
matthrew
fivelittlemonkey
marjorie
maryln
marylou
marielis
marymartin
margret
elmosworld
chickendance
gabryelle
emiline
tomasita
convertible
adjustment
patryk
christophe
chewybar
maddix
teddygrahms
teddygrahams
disappointed
##francis
auntmargie
jaimeson
steppingstone
tonguetied
tonguetattoos
geovanny
tajanae
tamyra
ismael
larenz
scoobysnacks
alphonse
trashytown
malikah
ayyub
alexandr
wilfredo
elliot
broadus
broadway
nicolaas
bzzzzz
faustina
rodricus
rascalflash
mikaylah
andreyusn
harrythedog
harrythedirtydog
pasquale
pasqualina
ethelmae
mikeyn
multicolore
multicolored
casimir
casimira
sportscar
sportsmanship
encourage
encouraging
bridgetandthe
nidoran
nevaehlynn
oneeyedwilly
antoinette
gamaliel
hungryhungryhippo
hungryhungryhippos
southafrica
southafrican
17th
achmach
ameera
boone
cicada
cipriano
cairo
citlaly
dedric
ditiivi
eithel
elora
eusebio
feefifofum
fiddler
fionn
fivethirty
festus
homerun
ilyas
isobel
kramer
kainon
kavita
lareina
looneytune
meade
mesmerize
moses
munasar
mabry
mspiggy
occupy
obedient
rumaisa
sirron
sulaiman
uzziel
uneven
vittoria
werewolf
weeping
xxx
yatzee
yasser
yudith
zaryan
zayaan
##wearit
##klose
##fingersthumb
##banana
##joseph
theophil
toddy
##isahose
##ooooooo
inaaya
intense
hadas
halleigh
shraga
sholom
shondell
shikita
shaniatwain
candelaria
##children
baptism
lizziemcguire
uppee
plowie
platespinner
alynna
chatty
chasten
chistopher
chakita
humbert
hussain
##opedia
carolyne
carbonate
brockton
reunion
blanchie
ahahahahah
bogdan
freezepop
spiteful
elzora
neysa
ardean
drayton
hermana
herbyfully
muskan
honeynutcheer
scattershot
seymore
sebast
sujey
suleika
suzzanne
catapult
crickett
crisscross
finsih
quantez
quirky
toysrus
danzane
exeggcute
peatone
potatoe
enrrique
missmargot
dezaree
saverio
hortencia
bartholomew
napoleon
kenderick
keviedoo
moataz
moisturizer
phoniest
philemon
snackeroo
choochee
gennaro
emireth
kidsatthep
kiddypool
adilenne
videorecorder
scoobertdoo
quickdrawmcgraw
##breaktheice
godblessyou
anticipate
speckly
bobbette
onceuponapotty
amongst
amairany
ameela
caidance
caesar
typical
doctorkaley
tiphany
harrison
landscape
taiylor
karriem
porsche
timmothy
raynaldo
raymundo
jaretssi
katarzyna
veronika
cecily
nattalie
doratheexplorer
marykath
ayomide
sippysippy
josefine
appetizing
approximately
lysle
nicolasa
kyheem
virginian
ottilie
tupperware
schuack
jeffreyn
brytnee
hologram
eagerly
islandofsodor
josselyn
aubreelynn
interpretive
ferdinand
jordynn
judithn
anthonette
commodore
pigglywigglie
ursula
hahahaha
athanasia
crystallize
huckleberrypie
berenstainbear
darthvader
productive
jurassicattack
konstantinos
shabbasdress
responsible
hongkongfue
francheska
doopydoopy
littlepiggiesgame
overwhelming
abdullahi
sevendwarfs
scrumdiddlyumptious
eenymeenyminymoe
923
aesop
axtin
aymee
bighill
biplane
baterie
bionacle
caffeine
dapper
deeksha
dwaylon
dictionary
egbert
estrella
eiffeltower
eclipse
fowler
furelise
ganley
gideon
gryff
gacka
houston
harald
iowa
izeyah
imitate
istanbul
jousha
jeevan
jicama
kuu
komodod
kewana
kingerlochcamp
kungfoo
lithuania
lahoma
maintenance
mcarthur
miquel
nivek
nainika
naseer
niamh
omelette
oxygen
pongo
poonam
pachysandra
pizzahut
pietro
pbandj
prabh
queer
raudel
rtwodtwo
slyvia
saskia
serpiente
sfirstchristmas
tigran
tasting
tilden
tainted
tactic
tictactoe
uckie
umyour
umpire
ubaldo
vaporeon
vannesa
vyncent
vinessa
verenice
werner
wissam
wolverine
x12
yzabella
yurem
ynez
yaremi
zilphia
zeenat
zubzub
zyniah
zipporah
zephyr
zitlali
##hadafarm
##family
##miguel
##makeyoufeel
##samestreet
##sphere
##sintrouble
##video
##junior
##jacob
yousef
youaremysun
berakha
benyamin
bengal
##atwoa
thedeclaration
thebearsnoreson
thevelveteenrabbit
thelittlemermaid
thehallofpres
dorawear
tommaso
toottoot
whassup
gollum
itzarelli
itybity
##llindenbau
onereddot
whatsoever
##iskers
##ndazs
hereafter
##arepant
influence
instructor
inherit
inhaler
innocent
haitham
haagendazs
hadlei
hasenfefer
hackeysack
hablaf
hafsah
shuffler
sholem
theresabuginmy
hehheh
yeaeyeah
##sthatmakeyoufeel
bacilio
limousine
willoughby
plumbing
plaza
##thishouse
shelagh
juggernaut
trebor
trufflesintrouble
troubletruck
socrates
alicea
alastair
almadelia
chandler
chalmer
chlorine
chupachup
chuckycheese
chauncy
chritopher
chumpering
playagain
atmosphere
atatatata
whogoesfast
anaeli
analiese
anaranjado
##opofthestair
downbythestation
littlebopeep
littlemissthing
carpenter
carburetor
briggs
britche
breahna
briefcase
reuben
reusable
coordination
##ellypizza
##icturebook
overreact
ahnesty
mydaddyandi
abrahan
aberdeen
abbrevi
abnormal
eatitorwearit
frigerator
grateful
bigboyjohn
claribel
pratiesf
hovanes
heliodoro
robitussin
rogelio
elasmasaurus
guzuntite
arctic
argelia
arboretum
arslan
dredge
drucilla
drkaraman
handhandfingersthumb
handwriting
swoopydoo
mayukha
flavio
fletcher
showandtell
waterskiing
herocity
herniate
hercules
heraclio
bluelagoon
scaffolding
scattorshot
seymour
threelittlepig
kindercamp
openclose
couscous
sudais
catherina
leobardo
leeroy
hotchocolate
##ology
hairspray
maciah
maestra
smudge
##oslava
tickitytock
mmmhhmm
encyclopedia
garciapara
misspeterman
missdenise
missmorgan
missdeedeen
misswhitneyn
missmamien
deirdre
deinonychus
horribly
marikay
margorie
grandmatellor
grandcanyon
elmosnacks
chevrolet
rockislandline
duckylucky
streganona
nightcrawler
phylicia
sixflags
icefishe
winnethepooh
sunglasse
horseoftroy
gennesis
chickenlicken
unscramble
percival
persuade
emmeline
emilija
greatgrand
cornstarch
gabbythegoat
tomandjerry
paramedic
swingadingading
sevenseasocean
adebayo
betzaida
bizaare
christoffer
mrrickn
maddox
maddisen
madeleine
madameblueberry
fruitsalad
antagonize
burglar
pencilsharpener
compromise
curiosity
lokelani
excelente
softscrub
auntieleen
auntierachel
supervisor
supersacker
swimtrunk
jellywellyfish
melquiades
berserk
tyronne
papierm
signlanguage
farmerinthedell
tweettweet
corinthian
daredevil
artificial
sharkatackatwoa
magiccardkit
misterbigbird
misterhasslern
misterpicasso
charlotterose
lipgloss
symmetrical
oatmealcreampie
anglerfish
auntiesusu
peterparker
eastergrass
spongebobgopant
roadrunner
floridapicturebook
mrsjudy
mrsbarrelli
mrsfarmermary
cherrypicker
kingsolomon
vanillawafer
gooseyloosey
brocolli
worldwartwo
wilhemina
buhdraf
cartoonnetwork
oyvavoy
postoffice
peanutbutterandjellypizza
mitsuyo
talmadge
oscarthegrouch
terrifictrains
ambrosio
esthefany
glowinthedark
mathematical
murcielago
temperamental
timmytiptoes
englishmuffin
belowthegoal
bostonpublic
philofthefuture
lucygoosie
chinesenewyear
thomasthetankengine
krzysztof
walterthewhale
bowwowwowwowwow
lacrosse
jamieorourke
zacchaeus
thedarkatthetopofthestair
martinluther
saggybaggyelephant
timothygoestoschool
monstersincorporated
abracadabra
theveryquietspider
theveryhungrycaterp
andygriffith
styrofoam
chuggachugga
kidsatthepark
hongkongfuey
komododragon
youaremysunshine
thedeclarationof
thehallofpresident
##llindenbaum
theresabuginmymug
