<s>
[UNK]
[PAD]
[CLS]
</s>
[MASK]
[SEP]
"
$
&
'
(
)
*
+
/
0
1
2
3
4
5
6
7
8
9
<
=
>
@
[
\
]
_
`
a
b
c
d
e
f
g
h
i
j
k
l
m
n
o
p
q
r
s
t
u
v
w
x
y
z
~
##i
##e
##g
##o
##r
##t
##h
##a
##p
##y
##n
##s
##z
##b
##l
##w
##d
##m
##u
##c
##f
##k
##q
##v
##j
##x
##5
##9
##6
##7
##3
##2
##1
##0
##8
##4
th
##ou
you
##er
##at
##in
the
##an
to
wh
go
do
##ere
##ing
it
that
##et
on
##re
no
##ll
##ea
##om
what
##es
ok
##is
##it
##ut
##ow
##ay
##oo
##nd
we
##ant
your
##ee
##ig
##or
##se
want
##ve
##ck
here
##le
in
##ke
ha
and
##ht
oh
there
is
##ome
re
can
##ight
this
##id
don
sh
going
yea
##ar
one
he
yeah
##ook
##on
##st
get
are
st
be
me
put
let
ba
of
##ch
##en
see
##ld
have
##ir
li
##od
look
up
where
right
pl
good
##ur
for
##th
come
kn
##ce
like
wa
not
##ith
##ink
##ie
ma
got
know
with
did
all
ju
ll
##me
some
ta
so
##ra
out
now
##ver
mo
al
at
##dy
ch
##itt
##ould
how
##ick
play
rea
hu
##wn
think
##ry
they
them
she
##mm
an
just
who
down
say
##op
##ed
##and
##ot
mom
##ter
or
##ittle
little
##ose
##ill
ca
##ther
##im
##ind
huh
##my
was
back
co
mommy
##ca
##by
bu
does
##ell
more
too
bl
##ad
her
but
wat
##eed
over
well
if
ah
##oh
##pp
##use
##ide
pu
then
##ive
ab
bo
uh
need
##right
##ro
##out
my
alright
##un
##ice
##ge
tur
##ank
##ear
mm
beca
because
about
##ic
##eth
##ly
make
tw
##ain
big
##one
##sh
jo
turn
take
eat
cl
##ma
sp
why
##oug
##uck
##mb
##eep
car
baby
##il
thank
yes
##ish
ho
hmm
##lor
##ure
off
##ap
##ound
mmh
him
doing
##ty
fa
those
these
ro
color
##lp
two
hey
mmhm
##ff
fr
##ame
book
give
help
##nt
##ue
ti
br
should
dad
sit
try
gu
##lly
##mber
when
ne
other
wait
wor
##al
##ies
any
el
hold
aw
his
##be
hand
##mp
ar
##ree
job
sw
##ough
##ul
som
##ong
find
##ery
##ers
ag
watch
may
fl
##ting
ready
##ss
sa
##king
nice
done
##ead
by
way
uhoh
whi
##ess
again
ball
tr
show
##art
##air
##oney
very
##ack
could
sl
##ite
gre
##ys
##row
##ething
daddy
something
##day
water
##ease
please
maybe
##ine
pr
##les
##ne
##ip
dr
##rea
##ab
##mo
mu
##other
another
read
blue
##ct
com
away
time
##ock
honey
pie
pick
goes
tell
tra
##up
la
##ful
##iss
##eet
##side
thing
##gg
will
didn
mama
##ble
se
gir
reme
##ool
remember
red
le
would
care
##raw
stop
else
##ix
##el
sn
man
##irst
three
doesn
which
green
op
pic
girl
##our
as
use
##ture
really
lea
pret
from
picture
che
kind
were
##ouse
##ny
bet
lo
hi
open
careful
##zz
##nder
cou
push
##ah
di
happ
hur
yell
su
cle
um
##age
oop
first
around
has
##ep
##ang
name
throw
boy
##ange
##uff
sc
yellow
clean
##ent
ooh
yay
##as
keep
sho
cat
work
bring
##os
bit
cut
##ven
qu
whoa
stick
##lk
sure
bir
##um
##ath
##am
today
##pe
##ist
##lf
##red
looks
fin
cook
##ple
##ard
mou
##oon
hm
foo
hear
##aper
hands
draw
wr
fun
letter
##thing
stuff
lot
##qu
har
oops
under
bye
finish
getting
gr
hot
move
our
room
better
had
piece
house
##ia
fish
pur
mouth
##airs
hurt
##ore
##est
call
pull
##ate
dan
start
##xt
head
wow
still
happen
##ion
##een
pretty
ever
four
min
table
hard
guy
sor
close
##room
##uh
##ving
##ater
##illy
mar
wash
##la
##co
fall
hair
##ng
##ft
top
bear
##oop
truck
##ether
guys
ey
outside
game
box
##ought
sweet
cr
next
##kes
##gether
together
stay
##ild
train
leave
ex
nose
nu
##ces
##orn
though
sha
silly
##oor
##eel
purple
shoes
##ast
ve
dog
minut
sleep
juice
gra
squ
cup
orange
five
jump
pe
sorry
##ds
door
mat
tick
ones
block
mad
playing
##irt
many
##bb
every
later
chair
mmm
##chool
number
sing
day
##ott
##ana
puzz
said
bro
mil
mon
##cle
coming
might
mean
pot
af
side
paper
much
##ody
po
school
drink
en
##ph
##self
cir
milk
says
us
##ouch
stand
fit
##bye
new
ra
floor
build
joe
bud
gar
touch
leg
brea
din
##mmy
##us
kiss
looking
##ug
pro
after
run
##stairs
##ress
love
##ts
sweetie
app
cra
won
yet
break
only
yep
home
part
ahead
pieces
byebye
supp
##ves
long
##ton
hor
roll
things
bott
boo
toys
face
found
##igh
tickle
bar
fing
thought
##to
##unch
suppose
count
blocks
making
diff
eating
enough
puzzle
isn
hit
##body
bird
##igg
##ese
tired
hat
##mer
feet
almo
comes
eyes
fix
kitt
ear
star
fi
ele
bed
happened
almost
pain
##cks
differe
mess
minute
wants
##fore
made
lunch
yourself
before
##itch
grand
sand
elmo
##ont
##ster
##wh
walk
while
woo
went
inside
dogg
food
bath
different
##ark
##bo
cold
funny
supposed
nope
wo
##na
books
light
last
song
##each
de
##ise
##ants
cookie
sk
te
dance
stuck
alrea
already
miss
tow
hung
am
ow
##own
duck
tree
##ba
flow
ke
even
sound
##sic
wrong
night
trying
##way
hungry
##ett
bun
egg
feel
cheese
circle
##ew
cool
nap
kitty
du
##ber
##ayon
bat
shh
##ane
gone
old
hell
talk
crayon
##where
chick
foot
bite
ph
hello
list
pee
##key
six
yum
##man
into
##ile
##ha
##ummy
##imal
gl
page
##huh
animal
uhhuh
thr
blow
wear
far
pa
through
snack
##ord
buddy
pink
##bab
shirt
##ous
##ucky
##ally
bag
ice
real
probab
probably
##ush
##ning
##bage
garbage
exc
listen
pen
##iend
##lking
fire
##ins
##ople
air
being
##ub
choo
pictures
##ri
end
people
anything
##ream
ride
##fe
beep
ask
potty
##irty
bus
sun
button
##vor
friend
pop
eleph
paint
##ace
##vy
bad
apple
yours
high
step
##rew
sma
rock
##aur
##ipe
##ooh
music
called
peek
##ich
##ister
left
chicken
##cond
##ipp
bow
wet
forg
cow
un
fro
##are
cars
catch
gab
gent
id
butter
cry
broke
win
##ory
##ach
elephant
same
sm
wind
cho
##ually
goodn
write
phone
favor
toy
arm
hop
##ider
##iding
ooo
pants
second
idea
guess
##end
match
grandma
great
whoo
##dle
putting
their
horse
whole
needs
##ner
fast
colors
change
bug
str
##ian
##osaur
bubb
hang
brown
act
gentle
press
upstairs
ban
fell
unt
kid
gabby
white
dora
birth
bottom
corn
##ger
pig
rest
##itting
saw
em
##pl
black
front
##lyn
doggie
##more
tom
favorite
kitch
kitchen
set
small
##ked
##sed
##ways
eas
##eal
anymore
eight
hug
goodness
camer
kick
##ze
slide
playd
drop
playdoh
tv
until
wipe
##og
##cing
##ag
##mell
lots
con
82
##vie
taking
snow
rain
dinosaur
##read
spider
seven
##sk
##imes
##col
shap
aren
camera
##night
bunny
swing
pretend
line
ten
vroom
knock
excuse
stra
dump
birthday
par
happy
dirty
##oth
##imb
bubbles
check
diaper
da
##oud
letters
finger
##llow
word
na
cookies
##oun
smell
dry
climb
bowl
##oops
talking
card
fo
##kin
##ames
pooh
tape
##aboo
##ci
boun
told
##idge
ac
bi
##rist
##nie
peekaboo
came
than
ad
always
##ney
everything
ja
okay
gets
quack
straight
thanks
crayons
tea
##ator
pupp
animals
sleeping
square
straw
socks
window
yup
##ina
hiding
tre
spin
balloon
fly
saying
somewhere
whee
cloth
missing
downstairs
never
both
##ort
legs
fingers
mark
took
lay
been
lady
nothing
gi
##hind
pat
##ball
behind
couch
bathroom
eggs
##ol
lucky
##ward
##ets
jack
sister
yummy
clothes
tast
brother
banana
story
spoon
monkey
hide
ed
per
brush
working
shake
flowers
##ither
frog
fine
movie
christ
ga
mix
##ier
slow
##iger
crack
teeth
actually
blank
##angle
bask
821
bea
##bies
##mas
batter
##ey
boom
8217
hon
wanted
lion
hole
mr
haven
##ary
wee
cute
pump
share
##orrow
peach
##uch
##lass
airpl
either
##mmer
dinner
##ato
##ctor
##ross
tri
##cy
eye
cake
chocol
basket
ouch
##ries
bel
makes
##lc
must
chocolate
eh
loud
war
boat
forgot
##zy
toes
glue
chew
meow
sna
vide
##iddle
somebody
flower
babies
sca
##rot
##ac
alone
des
shoe
stairs
click
##lcome
welcome
likes
minutes
running
having
strawber
sitting
couple
finished
##ley
##ied
middle
##ling
##hai
tomorrow
er
tail
spot
ears
ru
##izz
ithai
watching
dancing
bottle
own
##uit
mine
##io
##wich
used
sandwich
airplane
cover
dra
##ped
peaches
dress
##terday
yesterday
##orning
candy
cards
matter
morning
ding
##der
kids
glass
nine
ted
works
bread
park
place
mag
butterf
crying
bigger
##ica
##res
drew
ew
##ans
hors
##ught
woah
tower
few
doll
wasn
inst
somet
##fast
tall
quick
wonder
easy
hea
##iff
dada
scoo
half
swe
track
buy
##ik
##ors
words
stickers
##int
lost
grass
breakfast
taste
lear
##ation
whoops
god
##eb
##gon
balls
ap
del
##ren
##choo
corner
##umb
seen
triangle
##bble
stink
sky
gave
beaut
##wor
soon
carrot
coloring
mouse
##lla
bridge
save
##ale
##cil
noah
sometimes
tummy
wheel
##ings
year
bless
trains
party
games
##pes
hurry
teddy
plate
##urt
char
puppy
money
##bit
leaves
christmas
grow
##ever
##cles
base
carry
feed
##ious
##ping
ate
teach
bounce
fu
monster
round
heavy
sant
someone
clos
pol
##tle
bike
dish
##ni
wall
choochoo
bur
##iful
shape
##izza
broken
beautiful
thom
batteries
sad
##ash
sciss
sal
##ues
fruit
trick
video
8217t
pizza
towel
blanket
warm
##ona
##rat
##igger
girls
apples
butterfly
happens
##cial
ste
live
clock
##iet
##mi
spr
##und
noise
shar
soap
buck
strong
scissors
##inc
##anut
drive
means
moon
##enty
boots
##box
hope
store
peanut
pumpkin
dis
##mon
friends
pill
roo
##ya
twenty
jumping
##ract
barney
pencil
##ls
spell
hmmm
crazy
##lo
sounds
nightnight
learn
pet
space
sleepy
thomas
fig
pigg
yucky
belly
upside
spe
##fect
each
jell
##ower
##ird
cap
comp
cream
mis
##gu
##ohn
##ips
moo
poop
##ouble
##irsty
pillow
##ges
scared
zoo
##unt
cliff
##vel
dri
##gar
##work
special
##boo
##li
ground
icec
arms
figure
ri
gold
neck
seat
yuck
##cl
thirsty
perfect
icecream
dar
##ann
##wards
bee
yog
##br
farm
ain
gosh
quiet
##ette
lift
##roll
heart
building
kevy
sur
##no
##nel
##yl
clifford
cur
lu
rab
babe
##ides
reading
instead
best
##ms
cla
##uper
circles
jj
tigger
##ari
coff
tonight
cleaning
grapes
smile
rabbit
oo
mail
mmhmm
drum
##ction
exce
tun
pre
tiger
##ince
kisses
##fr
##reet
##ign
bump
##ym
##let
##mming
##ade
sticky
forget
dark
pract
##unk
birds
everybody
coffee
tight
puzzles
##iz
##oup
fork
able
fits
yogurt
spill
flip
snake
pap
super
once
giving
##bow
##stand
huhuh
woof
edge
lin
pan
##de
shut
bugs
jelly
dear
wigg
##ita
##anda
ka
aunt
##ert
soft
numbers
dec
##eeze
hel
reach
princ
dragon
##son
##ence
rub
sink
##lee
##mel
##alk
ty
##pr
grab
bucket
bra
walking
##neath
hurts
##car
##eak
backwards
santa
lose
##aff
##ote
coat
ry
##anna
hammer
underneath
key
apart
lad
sick
##ime
##jo
homework
shapes
fill
##stle
att
trucks
princess
##ison
##ope
flat
throwing
##iny
mel
without
week
comput
pool
##ment
##roc
turtle
##yn
##iting
sheep
slipp
falling
oink
pour
swi
potato
nana
pin
giraff
horsie
lid
bob
turned
stars
bang
pock
##ereal
whatever
wake
##gel
spiderman
glasses
cereal
##iah
##pa
brought
drawing
desi
computer
lap
##ust
##cr
beg
##mpty
understand
lights
soup
##ance
board
singing
ring
zeb
##lle
##illa
wouldn
such
sticker
follow
times
##of
##bie
clap
##lph
closed
##etta
practice
##da
##ja
nobody
lookie
##iel
whose
##erson
tracks
scrat
crackers
missed
scratch
john
si
since
sean
garage
tele
full
pea
toast
strawberries
peep
stack
rocks
laund
doggy
laundry
rh
vac
je
holding
sugar
drawer
swimming
mich
ant
##ather
legos
##lynn
res
##do
##dd
##ating
doctor
zebra
ge
mick
bubble
proble
giraffe
body
ug
##bug
dropped
##ressed
bought
ln
##fish
sock
##icy
starts
wearing
##roller
buzz
anywhere
squir
squeeze
booboo
messy
across
stinky
sign
##uce
##ugh
##amp
##cakes
bobo
waiting
trees
##pack
##lie
##ani
##ity
##ara
mud
##iano
cont
eng
row
##go
##va
##sting
castle
farmer
fold
##igator
med
butt
heard
usually
delic
land
yard
tweet
##astic
dishes
hook
##per
shor
stom
street
alligator
##able
add
flying
markers
strawberry
##cer
dots
plant
##eart
trip
tunnel
pocket
##eri
##als
squirre
delicious
sea
##zel
point
cu
tiss
##ates
stroller
##sha
grandpa
napkin
rainbow
dinosaurs
oct
person
short
thinking
trouble
cor
##get
##pet
thumb
played
##ult
easier
carrots
dirt
refr
surpr
tie
##ruck
##the
##etheart
##isha
art
swip
laugh
sweetheart
refriger
##so
##ooked
##len
helping
safe
uncle
ernie
problem
backpack
tractor
birdie
luck
##ase
its
##anger
keys
refrigerator
bre
##ael
##land
##sent
baba
turning
purse
eleven
ladybug
dressed
free
lock
thirty
##ero
##ony
living
raar
conne
present
tim
threw
tomato
piggy
##elle
twel
##ggie
pile
##ka
tong
rem
##phone
painting
jacket
papa
vacu
sat
shark
chang
boys
sort
snacks
twelve
fan
##bear
##oot
shouldn
listening
mer
##act
##mar
##irr
lives
chalk
##opter
caught
picking
driving
##leep
##con
##ino
##ggy
pretzel
##lloween
treat
##ife
##rick
##etch
halloween
telling
asleep
telephone
past
##pt
goof
plan
##lash
pengu
tissue
##ees
##sw
toe
cal
##icopter
marker
helicopter
vacuum
near
tiny
##ered
ham
##oni
case
anyway
switch
hipp
skin
pack
piano
spit
couldn
send
dust
popsic
wheels
teacher
##mily
mickey
tongue
##ud
##ubb
plants
forward
knee
cart
loves
standing
rais
police
##inet
whoop
int
##onge
beans
##oph
sponge
leaf
quite
barn
##cret
empty
ped
dot
meat
knew
ros
worry
ken
van
ups
rob
tip
smart
##onald
ribb
pay
lick
##lace
dogs
squish
barbie
busy
ladder
##dog
##anas
##keys
chips
splash
##ntain
scary
sticks
drinking
using
pages
connect
fight
tub
##ood
moving
carpet
swim
sammy
trace
suit
nail
shorts
ruff
whale
nood
neigh
asked
cutting
magic
##rench
engine
mister
##cie
##ingo
snap
days
class
##pper
##iling
watermel
##ipped
excell
watermelon
fur
##ten
##nor
##lin
lil
excellent
croc
##ump
showing
comb
##zzy
matches
honk
lip
also
cats
buttons
jen
nast
poor
rope
##light
cous
summer
crash
swiper
east
hour
pear
##ron
##nies
dolph
##eez
beat
angel
##pped
roar
##nex
secret
pushing
calling
exact
climbing
belong
nick
##ying
family
picked
scream
unl
balloons
##house
##sp
##den
##meal
gor
nono
##ited
reg
bell
order
tooth
monkeys
rolling
scooby
nasty
craw
jay
klee
##bird
alison
nicely
bib
kleenex
vis
wish
##ugg
##cd
tada
##pping
bedroom
closet
##erios
danger
##30
dolly
owl
beach
hill
oat
sy
##rie
##yah
nor
##ident
stor
knees
uhuh
cheerios
matth
bunch
cracker
peepee
french
suck
##ars
sweep
screw
everywhere
acc
roof
begin
gym
mind
##fu
##kins
mother
cher
answ
fair
started
race
smaller
acting
baseball
squirrel
intere
##cdonald
##ove
##ho
##vis
##itar
##ida
faster
neat
scoop
oatmeal
matthew
jes
rad
##hett
##aces
##isa
plastic
##inky
jules
cups
##nieth
crocod
exactly
dip
gate
##nch
##doo
##que
##inkle
##ieve
chin
worm
##epooh
cleaned
choose
era
hose
mirr
por
##nter
##vin
stamp
turkey
spag
asking
everyone
doggies
believe
fence
rec
bananas
basement
spaghett
cour
oce
rip
ang
camp
jojo
shovel
medic
##niethepooh
mirror
ber
jam
rin
##pot
takes
riding
##any
##cake
guitar
leaving
quit
hotdog
michael
calm
bead
ki
nut
##ake
shop
stir
##thy
wal
anybody
rocket
8230
ext
jas
oven
pair
##ric
##je
alph
##opus
spread
crab
winniethepooh
sharp
geor
ugh
raisins
ale
hitting
pad
vi
wra
##ak
##wise
##van
shell
cupcakes
lines
##fully
imp
umb
##ta
##erg
##ital
##che
turns
sam
weren
battery
mrs
spaghetti
medicine
jan
ps
rice
##oy
##tor
##ella
blues
abc
otherwise
tray
mountain
bears
higher
basketball
salt
slippers
surprise
unless
accident
rinse
seal
sides
ter
##teen
##time
##py
##von
##rella
##mper
blowing
knocked
pedal
bon
fore
wild
##anne
knows
along
##mble
holes
timeout
trash
##ards
writing
fishing
steps
cord
dough
rug
##ler
##cue
##lene
mem
##ene
cass
##ico
##bel
muff
dire
##ents
veget
month
rubb
peter
##dding
noodles
ocean
kill
sim
zip
##gr
##ris
##cu
##ora
ship
flag
harder
early
excited
fre
jer
pony
rid
tel
nois
##esome
hen
clou
clown
sticking
scoot
auntie
octopus
popsicle
crocodile
##ily
##ru
##pea
rela
##ira
chase
##ala
queen
happening
pepper
mmmm
touching
longer
bunnies
feels
tricky
##ctions
##icycle
easter
dangerous
answer
relax
bone
zo
##za
##lies
##etubb
shoot
knife
most
awesome
##ions
songs
##ika
closer
visit
bright
cross
pir
##par
##cia
##corn
cann
map
chip
ahh
##ohead
span
blueber
laur
cooking
fishies
washing
poin
remote
ribbit
gross
ran
##ween
##atohead
##eek
##sters
plane
##mond
feeling
extra
umbrella
kat
kar
soo
woops
##fit
thirt
##itam
nemo
fixed
earth
smiley
except
alphab
##ible
##sa
##ens
##urger
outfit
road
##ular
lemon
between
quest
shall
popcorn
polar
thirteen
dig
fat
jar
kay
names
sar
tent
wip
##ume
##can
goat
##nda
##ste
rake
##board
windows
rescue
band
tay
##cat
##ky
##erp
child
fridge
hurting
##fteen
fifteen
scare
robot
cousin
memory
##met
##cus
hamb
shy
meet
libr
wagon
spank
##ila
tried
##ention
sweetpea
piglet
belt
sweater
attention
library
ay
ce
deal
jane
late
pow
vale
##allow
##ena
swallow
flash
pulling
woody
snowman
pumpkins
magn
wiggle
##ject
cough
kh
king
looked
ya
##iana
##zer
##book
##val
##led
ago
lean
##bob
horses
rooster
breath
pasta
banda
ger
sue
##iya
weird
station
##tern
cab
arrow
flam
paja
spray
sharing
stomach
spanish
bandaid
lar
mcdonald
power
rough
ses
##rum
##anny
##cky
jung
soc
snugg
glad
smells
mixed
spongebob
double
hoo
horn
ketch
ray
wre
##ike
##lia
rex
colo
bull
boing
grape
poke
##monster
decor
potatoes
size
changed
upset
teletubb
cannot
ketchup
colored
gard
ser
x4
##but
##wa
##ker
tor
##vent
sher
bother
fries
mush
comf
keeps
nugg
pigs
##brush
goofy
psst
fil
##ines
##inthe
cand
seeds
knight
wave
shelf
boxes
pass
kicking
years
charlie
goldfish
beginning
course
jungle
dead
gen
low
vo
##nam
##nday
##iday
bend
##urch
ants
##ops
bumble
##ables
scra
starting
batht
hanging
peas
radio
cind
hay
sip
##ire
##vies
shot
dizzy
danny
cookiemonster
##ippy
string
raining
pretending
vanilla
valent
bathtub
ash
es
flor
sil
tank
ver
##ib
##sing
##sure
##vi
##sey
forth
macar
church
least
scar
bites
##ache
matching
##agon
chewing
spots
##clock
wiggles
dolphin
screaming
beads
clouds
soccer
garden
cd
kang
##fa
##aya
bal
plus
goodbye
movies
ann
##adoo
lawn
burn
penguin
tough
wings
##wash
##reen
web
##aroo
##ield
##illou
cause
cage
ross
gum
world
counter
edges
disney
tomatoes
hana
tear
vol
stool
hund
caillou
##inda
##ersa
log
caterp
stays
ducks
exciting
8217s
shopping
pajamas
caterpill
kim
kam
os
till
##ola
##hm
##ccol
whist
goose
##ition
##sel
rect
orang
broccol
##ipping
hugs
pattern
necklace
decide
laughing
satur
pretzels
angry
vegetables
teletubbies
macaroni
hundred
aid
heal
mic
toil
none
rew
ben
liked
##itter
##angles
bringing
moved
mary
grace
monsters
##bert
paci
choice
squares
hippo
alphabet
bicycle
ind
lor
lower
rul
witch
##az
##for
##ated
##ining
mach
##icks
anyone
flour
grey
march
washed
wood
sunny
patrick
nails
porch
den
##ize
##leigh
##ided
##ons
##ston
waving
##raid
spaces
fran
handle
lotion
lego
parts
naught
slowly
regular
rubber
nuggets
ell
less
##mouse
##fty
bees
life
twist
afraid
smiling
goodnight
horsey
swings
sprink
darling
##ophone
kangaroo
toilet
broom
bingo
dies
len
ner
rose
son
yu
##pie
##via
young
waff
cheek
##ters
puff
punch
clay
dia
sandbox
smoo
interesting
erase
broccoli
naughty
gas
groc
ripped
##hoo
##bles
##line
##min
##cup
##erella
##lew
##sted
jun
myself
spark
##ilt
##ula
somersa
finding
mus
scri
rag
bubba
poopoo
curve
cinderella
lord
nin
nah
ninet
##year
##erb
meant
chairs
hun
##otap
worms
sauce
##ardon
underw
counting
steph
##ortant
videotap
pencils
important
dess
opp
peel
##ient
##sy
##erc
onto
##essed
cost
shower
kinds
wrote
crumb
smash
giant
salad
pancakes
penguins
stories
##host
viol
wrap
hamburger
caterpillar
rectangle
diamond
av
eri
fe
ko
ky
pres
pardon
##iv
##auce
##po
##andy
##eapp
tools
alrighty
bigbird
stopped
loll
crank
exerc
kittycat
batman
puppet
applesauce
pineapp
cucu
machine
diesel
cucumber
digg
gro
ghost
sippy
##iyah
##hat
##bs
##ju
ohh
bean
##tha
chas
chance
player
needed
##rol
##ales
##issa
opened
birdies
duckie
rocking
const
gift
taller
scooter
poopy
##connor
rewind
rules
fred
ly
rat
vitam
##gan
##sie
##fin
##rek
##oose
##kend
chilly
flo
separ
scr
stuffed
##oopy
sandals
older
##ianna
brothers
drag
wonderful
presents
crawl
directions
question
film
bank
ev
oil
oclock
poo
sir
##bor
##dri
##men
##fer
whew
##irl
##andra
hers
pudding
trunk
drill
pole
##boy
deer
deck
choke
snail
snakes
fresh
oranges
pacif
oppos
cant
die
james
##rup
##tain
whis
dor
##rey
shad
shrek
chan
himself
shows
##gging
squeak
skirt
laying
blankie
triangles
butterflies
planet
sarah
grocery
digging
grover
crow
cott
der
fir
kee
##place
##john
hall
##idy
shade
##onna
##ches
seems
liam
motor
reason
coll
colle
##case
fishie
fourteen
tickles
project
dollars
##iko
alex
snuggies
healthy
ama
aud
born
bert
fer
jew
lat
mitt
num
plen
zero
##tles
##nic
##fl
##anes
golf
men
bagel
##cha
taping
chop
eats
speak
faces
true
load
umhm
hearts
purp
shawn
squirt
boog
owie
weekend
piggie
driver
river
ugly
candles
underwear
##driver
plenty
emm
icky
messed
pas
smo
##ob
##ried
##bster
##lish
##cut
stove
##uring
##itty
huge
cock
buh
arth
sees
picnic
lobster
quar
gray
hats
##ettle
##ipper
grown
pillows
superconnor
helmet
george
taylor
children
cabinet
lollip
chasing
bill
mea
nat
rar
##gine
##ond
##nce
##don
##five
##rell
##ites
bake
plug
tal
##rain
ana
cluck
##iles
fla
sail
slee
prom
doors
fireman
cows
tastes
percy
##ical
drums
##ustrat
seah
screwdriver
michaela
noises
##adoodle
saturday
somersault
separate
jon
rod
sent
##ium
##eer
##gest
##all
##mat
##etruck
##oman
##ised
##owed
lets
gotten
backy
helper
sword
##ipes
opening
oopsie
woohoo
parrot
fox
patty
sweat
saved
control
stomp
fancy
laura
florida
pacifier
firetruck
bes
cin
dest
met
tee
##ses
sheet
##ppy
##shirt
frustrat
watering
level
##ept
minnie
woke
froggie
winter
bouncing
##acla
desk
learning
begins
livingroom
gymn
jesus
months
father
ir
kite
lyn
net
wil
za
##ria
##ki
##vered
itch
donkey
stea
##urs
allowed
hulk
bush
joel
bran
ballet
prop
compl
mari
shhh
magaz
santacla
darn
belongs
muffin
henry
pirate
whistle
crumbs
cranky
backyard
boop
hid
jose
ms
settle
##port
##zing
##wk
##ford
##ute
puts
baa
tapes
sol
chica
playroom
##aine
##ils
##itely
##ela
diap
##amest
falls
earl
football
##iled
toybox
jean
locked
##lightyear
gorilla
blueberries
junk
arthur
##amestreet
cree
eey
hy
kel
loose
nic
rings
##ham
##ald
##mine
reind
##ids
lie
cond
puh
holl
aww
snoopy
cheating
pullup
fixing
fifty
corners
bouncie
spinner
##cycle
growing
figured
melt
changing
skinny
cartoon
lips
nuts
zoom
##button
scrub
eeyore
dent
kuh
kept
tar
##ridge
##cock
##chair
##mmies
hero
clear
office
showed
lake
leap
staying
lovely
defin
elephants
gently
conf
swinging
spinning
stepping
rhym
buzzlightyear
cherries
lemonade
flamingo
sesamestreet
mushroom
chicago
creepy
reindeer
bzz
city
mice
yo
##ga
##sc
##esha
##uth
##oring
##orse
donut
##oda
taught
col
blah
biggest
##uel
worked
elbow
biting
haircut
paints
wolf
eighteen
ruin
captain
ryry
weeks
opposite
cockadoodle
definitely
bry
cel
hate
kath
oy
tat
##truck
##how
##bone
##eta
##omp
stitch
seem
tap
##ram
thinks
covered
herself
clip
##ssing
jumped
sideways
skate
##rible
winner
parade
camel
jac
dishwash
##clues
peacock
mickeymouse
hotdogs
bluesclues
abcs
forest
bulldo
cy
cub
nan
pos
rather
tuck
##if
##gh
##he
##bee
##ding
whining
sham
##aria
seeing
plates
tool
##rold
##ices
babyj
hosp
friday
handsome
bark
kitties
painted
restaur
puppies
##ortable
sisters
##lasses
instrum
feeding
rhino
fighting
silver
violin
seahorse
dishwasher
hospital
dam
hic
ima
ram
und
##ae
##wo
##walk
##uar
##under
##vator
##ering
##ito
max
mask
chest
abo
carl
slam
named
post
circus
roller
boot
##boat
##ousand
winning
##ations
walls
hours
scoobydoo
##ruction
pineapple
restaurant
dice
mill
oli
pant
ras
tues
##ience
##ok
##nis
##zen
town
##theb
aha
watched
proud
##lest
leop
hasn
pulled
marsh
glo
bags
mrpot
quickly
steve
spring
surprised
norma
sucker
##cheese
##ground
powder
shadow
flavor
bulldozer
tuesday
bin
binky
fel
gun
ker
lou
mow
ob
oval
panda
sen
trea
wand
wide
##mit
##com
thunder
##isy
wend
##sen
liz
mop
moves
chir
caboo
turtles
cloud
sneak
sub
potatohead
sidewalk
naked
closing
papers
contain
corre
neighbor
flashlight
costume
construction
motorcycle
frustrated
caboose
cre
equ
flew
ging
hanna
lind
mist
nest
xyl
##ien
##ser
##dad
##ddle
##vous
thick
thurs
##eaking
##ayla
##eeha
##lena
candle
forty
knot
cave
spong
brat
awake
against
lamb
##ums
rac
rail
paintbrush
winnie
connor
patient
mixing
airplanes
ouchie
burp
capital
mailbox
spilled
slippery
rhy
jeff
squirrels
##umpy
nervous
exercise
jewel
magazine
thursday
dv
date
jah
pal
pairs
test
tshirt
##hero
##app
##cent
thousand
##oupe
##ini
##iness
beet
##uroy
notice
chomp
ange
##ada
##shine
pickle
cheer
opens
sunday
##athers
##eena
tickling
breaking
diffic
sixteen
ends
seconds
mustache
curvy
pinch
popsicles
cherry
corduroy
blueberry
magnet
wreck
comfortable
aiden
vitamin
lollipop
earlier
mrpotatohead
correct
geez
ig
kal
mor
mart
math
ny
ol
##iy
##ray
##rus
##head
##zie
##die
##craw
wed
seed
##urn
##med
##rah
ord
cam
##roy
joy
spy
tracy
sew
sevie
losing
grill
grizz
poss
skunk
highchair
smack
frosting
stripes
dropping
##aguar
curly
##melia
brace
itsy
package
dusty
kiw
noisy
katy
spanking
##inthebox
voice
oscar
waffle
scribble
dessert
gymnastic
hiccup
grizzly
az
amb
cone
curt
hip
##gs
##glasses
##ners
tony
doo
##stick
steal
bench
plays
##ppie
bored
##unny
##icorn
##shel
spicy
slip
leash
finally
crib
exp
shaking
wooden
amen
unicorn
bowling
jackinthebox
peanuts
disgu
disapp
learned
interested
jasmine
georg
pointing
##cano
volcano
yumy
ninny
nineteen
sailboat
treasure
container
##eehaw
kiwi
ast
boring
deep
fry
joh
jess
pil
path
tan
tink
zipper
##gers
##zo
##bell
##coon
##ature
tot
toot
shoo
heat
bacon
##rack
##vers
aly
ornam
hol
tires
flies
##ssy
tells
##athan
dining
bottles
towards
penny
sunglasses
##osaurus
dumped
design
stinker
charl
towels
hopefully
surf
##ized
muddy
dolphins
crawling
fairy
##inthehat
##selves
keeley
promise
chirp
rhyme
difficult
ak
aqu
borrow
sch
tit
val
##off
##rin
##ave
##ders
goo
##ete
inv
ohno
beha
##chie
places
monday
blood
##una
eaten
flap
trade
sevent
scott
finishing
beard
mont
dino
message
##wheel
ducky
##iley
##order
##ordan
sunshine
friendly
windy
stretch
checking
bouncy
mustard
dolls
apron
type
attach
medium
jesse
##cially
balance
sprinkles
preschool
##juice
crown
cotton
rhymes
creepycraw
fra
lon
nur
pound
ss
tu
tbone
x5
##gen
##pber
##you
##win
##ude
third
##ania
##llie
mal
##ille
cape
##mallow
flush
saf
##abeth
##ixie
##pecially
heads
crane
energ
barr
skipped
sixty
wears
airport
oooo
team
jackson
warmer
sandwiches
north
bonk
muffins
valentines
especially
cantal
talked
santaclaus
raspber
marshmallow
spongy
gymnastics
disgusting
creepycrawly
est
ema
field
lying
vir
##ez
##town
##hile
##av
##nes
##noon
##fter
##vey
##arm
wherever
fort
waste
maggie
somehow
alike
chain
hunter
##mmie
momma
taken
spl
awhile
saus
lazy
mango
screen
catinthehat
drawers
marbles
matt
garba
afternoon
booty
bathing
bats
shirts
straighten
stronger
bellybutton
golden
seatbel
##shawn
##getruck
hamster
bones
bumblebee
valentine
scarf
channel
diapers
dentist
xylophone
energy
garbagetruck
amelia
dal
dist
dream
digger
fitting
hoor
ji
jere
lan
lala
nanny
rides
soda
ven
vic
vel
wife
##rr
##han
##nn
domin
##its
##iter
##eem
ink
ref
##arie
letting
bare
lily
humpty
shel
##ands
momm
built
##road
clar
##ilia
fact
brand
awfully
##ulous
leon
carebear
loving
crooked
kissing
rolled
granddad
dev
glow
##rich
froggy
gabrie
whoosh
knocking
##cious
boats
dresser
stepped
##garet
##cloth
decided
following
freeze
remind
crashed
syrup
pirates
yawn
stephie
cockadoodledoo
aboard
wendy
hiccups
cantaloupe
cop
dw
lead
mica
sour
zion
##two
##hia
##nit
##brow
##lan
##ws
##ko
shal
belle
mak
alb
hunt
blink
##idey
above
##icia
twinkle
helped
sale
prote
reds
yellows
cleaner
pokey
barking
pamper
business
uno
puppets
candyland
##ebook
##umble
jello
caps
scratched
stamps
recipe
camping
breathe
mcdonalds
##namon
muscles
erik
gifts
decker
purpose
leopard
railroad
beetle
seventeen
hooray
amer
cell
dunk
hous
mur
pter
woman
yar
##iers
##ikes
##ril
##aid
##aca
##nack
##dr
##cting
##kie
whine
##ingos
itself
##eah
##igan
isa
##arra
##argaret
area
stirr
notebook
tax
anton
##cavator
twink
tire
holds
##ssa
##ocks
##eline
manners
granny
ours
minus
expl
excavator
skip
firef
##ages
seventy
poohbear
gives
lions
erin
stem
spells
brain
attack
octagon
squishy
furnit
cousins
magnets
sesame
comfy
##form
smooth
quarter
cinnamon
celery
curtain
houses
furniture
ape
krist
lang
luh
loop
tant
tig
tush
tied
##iver
##nell
##bir
##four
##jah
##era
sting
bawk
##enter
##ode
ani
cash
##used
##shop
faith
saving
##essa
trans
dried
trail
lamp
cath
poe
kitten
temper
##berto
glu
popped
peeka
cowboy
easily
dash
daught
teapot
tasty
brushes
frogs
rude
polite
tricked
sprinkle
moose
##izabeth
artist
ladybugs
freezer
treats
##opher
noodle
gordon
bells
toothp
crabby
rescuehero
flamingos
volume
kamari
feathers
hallway
sleeves
steam
wednes
bracelet
tigers
wednesday
21
aug
during
fou
hint
jing
lul
mik
nich
nik
ot
##ama
##ns
##bl
##bunny
##lon
##mower
onion
##anta
hal
harold
##iders
plain
tad
molly
alf
cha
anna
cali
buster
bock
##icing
##etha
spitting
##mbo
holly
fault
bookshel
helps
##rowave
pickles
##zzle
pushed
grumpy
crush
graham
##bbles
sings
craft
barbies
glub
pail
realize
listener
sunfl
##conda
frozen
tennis
louder
rudo
instru
##annah
bumped
pancake
jeans
resting
tweety
timer
robin
squished
storm
sharpen
simba
lawnmower
microwave
videotape
anaconda
besides
propell
yumyum
pilot
marshmallows
mommies
stirring
center
dep
dare
dying
gil
hoop
kool
pets
ret
rom
ske
titam
##iam
##ilyn
##eight
##leen
##winkle
##du
##uild
##cca
##forn
##kers
##uto
wedding
##ckle
island
rece
shiny
##sty
stu
stat
juicy
someday
chuck
##opot
##imp
club
timmy
bricks
sits
##alie
##iest
swish
##aira
slap
slides
lak
yelling
##redible
pepp
everyday
racing
messing
cheeseb
applejuice
highfive
chickens
strings
kidding
emily
dollhouse
practicing
lined
wiggly
kaz
bobby
hippos
cartridge
licking
suitcase
jason
powerr
serious
cheeks
dragont
amazing
imagine
holiday
virg
sausage
twinklet
214
august
jingle
bookshelf
skelet
titamargaret
ara
cay
duh
fut
pon
ron
tuh
##hop
##beep
##ks
##ata
onions
##rel
hamper
shr
alarm
sheets
##ota
caca
buggy
##ado
##shed
joke
joany
clue
spo
spiders
tile
shoulders
##alee
eli
hiss
drank
sneeze
##amus
harry
poison
bars
starfish
napkins
phot
beepbeep
eighty
trex
dollar
fuzzy
tricks
curious
tuna
##friend
bumpy
banging
landed
hippopot
furry
toothbrush
berries
forever
questions
##stein
larry
decorations
bothering
videotaping
rattle
measure
rarr
dvd
itsybit
ambul
tinkerb
tantrum
daughter
lulu
californ
rudolph
instructions
california
aar
bing
bitty
dy
ely
han
jal
kell
mck
ost
sear
ze
##aa
##af
##wood
##dge
##mill
##jas
##itive
invis
bam
pluto
note
mall
tag
sofa
china
playground
anno
cozy
##ppad
##gedy
makeup
brett
guh
holder
awful
ariel
##ults
sliding
greens
leappad
##asia
##ardo
grr
calls
squash
peck
##bbie
polly
prog
difference
missl
feelings
firehouse
##rian
strange
##balls
dollies
carrying
##asha
fruits
##arium
jellybe
televis
english
sharks
raisin
paying
uhuhuh
record
ponyta
points
wiping
younger
waffles
sparkles
poof
whisper
passed
branch
astr
email
gabriella
langu
koolaid
hippopotamus
ambulance
invisible
television
ass
ache
billy
coo
dea
died
eag
mike
od
pra
poops
pans
troll
##ole
##rit
##aw
##sshop
##big
##wah
##ua
##uc
##fla
##anie
##llen
##isc
##ises
##iddy
stair
stri
lett
bah
##ury
tables
ank
##imo
blond
twice
clo
carol
babys
whenever
##arten
pray
##ggies
carefully
snuff
cheater
kinderg
danie
fourth
marce
stayed
ticky
mmmmm
enjo
##uga
barbe
missy
##bag
##baby
glitter
choking
##ians
activ
snowing
spinach
##olas
brushing
beak
eric
wondering
##world
teachers
fussing
##undy
luc
lump
tights
bobtheb
pockets
ringing
vacation
contin
shorter
swiping
##marie
upsided
connected
##eezing
decorate
pattycake
teeny
sense
submar
raccoon
cheerio
behave
nurse
seatbelt
protect
propeller
twinkletwinkle
language
kindergarten
bobthebuild
upsidedown
ald
age
cooked
glen
giddy
ls
mwah
niko
pj
pine
sle
syl
tere
yikes
zak
##old
##rice
##ted
##hip
##bu
##bea
##will
##ual
##uss
toss
doh
##ayah
##lend
##ken
shan
shuff
##ones
bent
beating
##lda
wawa
mami
juh
alive
justin
##otter
##ima
blind
##useum
##tyl
##alia
swir
fluff
prince
lav
##elia
dial
sus
group
married
maraca
crunch
##aster
grasshop
cupcake
ticket
uses
touched
##onte
lightning
demet
dude
fireplace
catching
dumping
jammies
below
russ
scooch
charge
##nize
buckle
peanutbut
rabbits
mailman
tyr
cube
planes
pedals
register
walrus
terrible
killed
powers
large
torn
marching
##erbread
bills
hidden
instrument
rhinocer
gingerbread
ornaments
pterod
peppers
dragontales
bobthebuilder
peanutbutter
emb
fool
gw
mir
pott
ripe
sou
san
teet
yoy
##gi
##gre
##rophone
##hh
##alyn
##pider
##field
##vid
##ern
gobble
##ety
ren
shant
shoop
bald
##engine
lill
mamm
##dyn
chose
champ
downtown
##ots
cas
bloop
##ung
twister
spout
spend
diving
oopsies
mariah
tops
##aste
grabb
pond
polk
buildings
smush
choices
##iann
setting
acorn
8217m
##actyl
horsy
apol
beauty
##onaut
claus
shuttle
braid
filled
johnny
farmerjas
merma
ribbon
further
walked
##party
microphone
spaceship
lesson
curved
float
collect
quarters
mushrooms
mistake
grilled
totally
aquarium
toothpaste
cheeseburger
tinkerbell
ostrich
astronaut
submarine
farmerjason
aut
cert
emer
fed
gay
lun
nar
rah
wuh
wins
wiz
##ius
##ives
##eat
##ring
##rina
##tie
##train
##here
##pen
##pants
##piter
##sys
##bar
##erina
##atula
whales
goal
##rent
##anth
inc
reco
shay
##around
stage
stable
baking
seek
mac
jul
jupiter
someplace
ches
chunk
hull
anal
##icle
##shi
spatula
##aph
guest
ways
print
stops
sniff
grammy
pots
##using
rolls
country
paul
pacie
fireengine
##rica
stripe
concent
##coln
dryer
blankets
clicker
tails
covers
teaching
salty
lived
mood
drives
spilling
melon
hooks
address
brend
nearly
kenn
pears
mountains
direction
vegetable
simon
wipes
sprinkler
dessie
sleeve
destroy
babyjaguar
normally
raspberries
micaela
taxi
sunflower
skeleton
ponies
grasshopper
pterodactyl
teetert
wizard
##syspider
recog
amy
blew
border
jad
les
mome
ore
rand
vase
woop
yah
yeehaw
##hi
##ps
##zi
##back
##loo
##las
##web
##din
##mie
##cope
##cards
##crack
##vier
thro
##ints
##ancing
doro
##eared
##ities
##itude
weather
shout
##ura
master
july
tamb
moll
hugging
##ryst
whoever
cocon
waters
boston
##rob
holy
fab
rox
shoulder
others
worried
##aloo
ark
swoop
sab
sash
tricycle
slim
slice
slinky
law
##ggle
leila
chef
##quan
gran
##ately
headache
crist
shak
veggie
jumpy
jumps
drinks
rae
rash
builder
runs
runny
sweetiepie
tickled
walkie
tex
towtruck
duckling
brownies
kicked
dumptruck
bikes
jaz
teaparty
piggies
##print
ringaround
siren
stacking
farmerwill
tweetie
coral
##pete
unclepete
sweeping
racecar
eraser
court
bern
shells
rubbing
zoe
wiped
logs
benj
filming
purples
confused
position
toolbox
panties
disappear
distract
jimmy
victor
temperature
rescueheroes
eagle
yoyo
certain
teetertotter
recognize
moment
throat
coconut
bop
cents
dee
dun
dame
gigg
kin
meal
museum
sell
siss
sara
sandy
va
wy
wing
##nut
##nine
##bop
##lah
##wow
##mom
##mcdonald
##uk
##fly
##vo
##inn
##inch
##uty
##ori
inter
rep
sten
steak
##enna
waking
maj
mass
juli
alth
cheet
chuga
coal
bum
##outs
myst
twins
josh
spidey
babygr
fake
colorful
##ffal
brid
arg
army
mayonna
trixie
drip
##abelle
bluebird
pickup
laure
sequ
cheers
##ahah
keeping
quint
washroom
washcloth
cru
crick
##otte
milkie
news
towers
sounded
glug
glove
pinky
firework
adri
mixer
eyebrow
sometime
stinks
burger
pete
lincoln
brave
ladders
attitude
princesses
timber
tubby
lipstick
screws
##quel
terri
leaning
rexie
balancing
sparkly
feather
collar
meas
zaw
ruined
skateboard
cubs
shamro
shrimp
##iscuit
lettuce
snuffie
rhinoceros
embarra
pottie
hullab
dorothy
stencil
babygrundy
mayonnaise
fireworks
bay
bish
det
elle
iz
ices
igu
jed
jill
jour
jeez
mc
mand
nas
rick
ruh
rich
ruth
vie
##oom
##ti
##tory
##ail
##yx
##sia
##bra
##lar
##little
##lic
##ware
##cht
##foot
##kate
##jane
##jordan
##anley
ton
wheat
dood
doink
##ising
##idd
shush
heck
##ookie
stone
beds
bab
bamb
often
##cho
##chan
##chick
lilo
wakes
##very
alas
themselves
cact
backho
coins
bol
##icer
##iculous
clues
##eeper
babye
##ilo
helpful
neither
grease
dru
willy
self
##elizabeth
##ourine
hurric
thrown
##enta
cutter
##atha
funky
##qua
marqu
cupboard
madeline
##pher
horrible
##iggly
chicks
parent
##ippers
snowfla
rains
jae
patch
rule
tallest
##worm
##incredible
company
poopie
##arius
filling
melting
slipper
##ielou
##dden
problems
folder
goofball
rosal
unlock
sucking
##vonne
ridiculous
crossing
german
horns
scrabble
kimaria
scribbles
ninety
nicer
condition
cartoons
positive
instruments
gloves
object
hiphop
georgie
frame
tube
barrette
yawning
explain
firefight
statue
continue
shuffle
apolog
luncht
tambourine
hullabaloo
cactus
lunchtime
ary
cro
dro
eil
gear
hil
jet
jim
ni
nay
nina
sig
sss
tidy
wore
wider
zay
##ii
##ial
##ias
##olyn
##ned
##six
##munk
##cess
##fro
##kitty
##jay
##jack
thin
##erick
##ative
whack
non
##ork
wanting
hamm
##aris
states
stumble
meg
bas
##chips
uppie
##thed
mack
sore
chico
chris
hush
##oppy
##theros
bul
puddle
##ican
jos
speed
carri
##ilah
##ffic
##amel
bookbag
britt
brick
guard
arf
swan
swamp
##ssie
sally
ballerina
sla
##nedy
muh
##ups
cleanup
hearing
marg
shaggy
##otten
enter
counted
kittie
peeking
pennies
rocky
uncl
favorites
##ianne
##plant
jail
teasp
market
spoons
##ieda
teddybear
charac
steer
steering
##load
misty
clapping
coats
ladies
slipped
pouring
lids
michigan
landing
thumbs
freezing
policeman
kennedy
paddle
cloudy
chipmunk
pointy
hambur
ceiling
wrestle
##former
musical
mitten
emma
##matic
sweaty
itchy
branches
proper
joseph
hydr
lizard
igloo
possum
split
fountain
gilbert
future
annoying
strike
giddyup
##anthony
granola
ringaroundtheros
although
measuring
bishop
teaspoon
23
aim
cig
crea
cds
eld
hee
kis
py
ronald
ripping
sme
tang
zook
zach
##ios
##oc
##rod
##hood
##pan
##pons
##zart
##ben
##lad
##less
##dan
##door
##ucer
##crow
##cury
##vion
##xy
##inea
##rena
nook
okey
##itos
weigh
##ige
##ved
##arf
##onia
##stool
##sticks
stock
becom
pliers
##thday
##itha
mah
mas
maur
maze
tash
chelle
huckle
##otch
cakes
boss
myr
##une
##icated
twirl
join
hokey
roly
frank
##ali
##bey
flick
sack
slick
drool
trap
traffic
lam
##ggage
sec
whichever
girlfriend
sudden
clever
##angers
##ami
grind
headed
marc
cried
crust
gram
grade
gracious
squid
ticklish
##bbit
ramp
joey
##white
##boys
skating
skipping
temp
toward
##berry
talks
firemen
rocker
hoping
hopping
##mellon
snowwhite
spiderweb
daisy
fingerp
bounces
marks
christopher
##angled
beaver
warning
covering
dramatic
##ically
heaven
deliver
burning
bootsie
disco
jellyfish
scratchy
scratching
folded
alligators
tissues
mercury
jenn
forehead
easterbunny
karate
scarecrow
aye
flashing
tort
##venture
twisted
pineapples
vitamins
diego
whiskers
smoke
minniemouse
lynn
complete
complicated
undies
shooting
refle
glowing
yarn
##birthday
powerranger
misslilia
ponytail
barbeque
##beauty
fluffy
mermaid
mollielou
bambi
backhoe
hurricane
firefighter
smelly
mollieloumellon
aph
aub
biscuit
dick
deed
heehaw
hannah
jeep
kit
kor
kare
kyl
mi
mower
nad
nath
ought
pose
sang
tubb
tinky
yan
##riel
##her
##pop
##yle
##zia
##band
##burn
##lers
##duck
##down
##mil
##coo
##cone
##vina
##att
##atch
##ination
##ano
todd
gofish
dom
onyx
##oma
##utes
weed
##lent
rebe
##ido
##story
stole
bec
##chor
##enia
upper
wasting
notes
juni
tam
taco
soph
##rabbit
chim
chap
chutes
annie
##ander
cast
##mya
coco
blan
blown
twis
##shell
##mae
speaking
bru
flore
flipping
saucer
trin
trust
trump
##acki
##mother
comm
commer
laver
legg
chees
##oscope
cutie
grits
##iona
marl
marie
marble
##ooper
sweets
cris
shaker
sleeps
breaks
starving
bedtime
owls
duckies
##ettes
eggplant
cooler
phil
pause
##ubby
##vyn
##oohoo
cowboys
uni
windmill
toystory
hopped
cons
drying
bowls
##cio
jama
jaco
hideands
baskets
beast
desert
dressup
twentyone
luggage
##fruit
dragonfly
##ynn
peace
##doll
micky
##arae
farmerjohn
triple
paste
swims
suits
catsup
killing
clowns
pepperoni
goats
cement
knights
ashley
##fall
disneyworld
saturn
franc
smashed
##pokey
##thai
bushes
jacque
oliver
noticed
humptydu
copy
##nacks
return
kazoo
spoiled
photo
itsybitsyspider
mmmmmm
tyrann
south
emergen
concentr
slimy
massage
zawacki
alaska
hydrant
cigar
hokeypokey
fingerpain
trumpet
commercial
hideandseek
humptydumpty
aun
aah
cuck
cyl
cooper
dim
et
eel
gee
glor
gree
hom
il
im
jaguar
mater
mult
nun
sid
tin
tut
vine
vio
ye
zy
##elyn
##gie
##green
##girl
##ox
##rill
##rings
##het
##had
##aly
##nee
##ssed
##zell
##bi
##bors
##lets
##mary
##cul
##cicle
##fth
##vious
##eren
donald
baker
plum
knives
june
softer
alan
alien
littlechick
cammy
bleed
blast
abd
joker
##mast
babydoll
##ilee
facing
brit
arr
arie
slur
##iped
tragedy
lash
cheat
lolly
brings
quin
##umn
##amarie
finishes
fishy
daniel
dancer
headstand
mini
maria
washer
boxcar
nuzzle
##bber
kissy
afterwards
woods
##isey
kend
kevin
nighttime
naptime
realized
stepstool
pressing
pige
shaped
strap
adventure
jake
thanksgi
sleepingbeauty
christmast
april
fudge
stef
sprouts
disc
seats
claud
##ariah
superman
dragons
giraffes
season
##shaun
splashing
neighbors
gorge
accidentally
cassie
cassidy
##cuss
lately
grapefruit
esca
vern
cucumbers
mittens
santaclause
condu
##scotch
babyjack
##lestar
normal
smacking
charlotte
barely
america
tushie
gluing
tadum
depend
praise
acorns
texas
distracted
mystery
cricket
parents
apologize
##frog
kissed
zookeeper
become
emergency
concentrate
cuckoo
thanksgiving
bom
bree
cush
cust
dive
ee
eug
fay
gal
kr
kw
lee
mul
nn
nanas
oak
pitch
rotten
tangled
winky
yap
yak
##gor
##gos
##over
##ober
##ai
##ye
##nore
##nna
##si
##say
##wc
##di
##ded
##mina
##uary
##cen
##ji
##inia
##instein
theater
##ington
##lley
##esh
##isen
##iti
##oof
##seng
ing
repe
cans
##ario
##stling
stre
upon
forwards
##ief
alley
julie
soa
sold
mocha
chill
cheep
##ryn
ori
abs
##ics
fax
roast
worse
whip
slo
slime
dries
semit
opt
##zzie
scl
cuts
margar
washable
fallen
single
newsp
elect
messes
walker
##boom
colder
buns
pinkie
ending
popit
unz
unbutton
##achute
smar
hopscotch
ooooo
ideas
hanger
frontroom
drops
rainy
parachute
happybirthday
checkers
dak
smelling
jak
spoonful
snapped
drain
magenta
whoopsie
buckets
piggly
lucy
claws
forgetting
##joe
pinty
geoff
cuppie
october
mercy
cartwheel
roses
snaps
nickel
syd
##potter
walter
spaghettios
##icole
decoration
##fawc
macaroniand
frances
dieselten
floss
squeaky
audience
numn
boogadoo
passeng
lollipops
steady
confusing
tatt
mowing
neighborhood
equal
paintbrushes
attached
safety
dominos
carebears
glued
study
harrypotter
program
jellybeans
enjoy
russia
chester
sissy
##mommy
eyebrows
shamrock
pyram
aphids
chimney
conductor
ame
aside
cs
dou
frea
gene
hips
hood
ill
js
jor
kad
kryst
lis
lit
litt
loops
munch
nathan
osw
pent
pipe
til
tul
tumble
vr
vin
vick
vest
vuh
vinc
yas
##ique
##em
##ex
##gum
##oclock
##pam
##yea
##now
##bill
##los
##ull
##cor
##cro
##fting
##fort
##erica
goog
##ndon
##ante
##antern
##seven
##ckey
##lenie
hah
halo
shir
shah
hex
heffal
##onica
stap
stew
stanley
memi
##chy
##ldo
plank
wah
##inkie
gotcha
jud
alab
human
##mma
anj
anchor
##opes
##anded
##lys
twig
##aina
jolly
##mbered
hola
hockey
offer
rolly
brr
brus
guinea
anyways
anytime
elise
##mpy
ari
arl
ard
agree
agua
saggy
trist
telly
lava
##gged
remembered
lex
##elope
sneez
sneaking
mangos
##nyard
coupons
suz
science
cutters
##athon
harmon
##xton
hairs
crinkle
shaqu
shakes
##asthet
doghouse
gravy
squeezing
squiggly
africa
stands
raf
raise
ralph
railing
barb
barnyard
##toes
dem
amar
dub
##aney
blows
farther
farah
iced
buses
action
kiddo
bottoms
##lynne
convers
jazz
##olute
mrincredible
horsies
grows
polish
buried
thomasthet
twentyfive
spelling
spelled
misse
##annette
yoga
##yler
tune
darker
##iza
aunties
scratches
sifter
zebras
bubblegum
stomping
piggyback
##kai
merry
crocodiles
chinese
porridge
angle
##ricia
wrapper
wrapped
katie
coughing
cabin
gener
scrape
scramble
baloney
indians
woodchips
avo
frederick
lynd
floating
evil
cottage
fern
metal
complain
solid
hollering
melted
heroes
silverware
million
equals
olu
ordered
sewing
expert
reminds
curtains
stuart
emilyelizabeth
virgil
cooled
activity
pinecone
slept
blinds
tornado
brendan
ducklings
eileen
##iedaisy
hamburgers
reflection
swimsuit
tyrannosaurus
cylind
tutu
fudgecicle
ingred
semitruck
macaroniandcheese
oswald
pentagon
heffalump
alabama
brussel
conversation
##olutely
ava
bj
ble
beth
cort
ds
dre
ep
ez
event
gin
gang
hut
ire
jab
jordan
kas
kol
piles
rap
rack
sill
sleigh
tart
tus
tumb
ur
vet
wan
wea
west
wrench
##gra
##ged
##game
##rid
##pu
##yla
##york
##nish
##nest
##bed
##bile
##lea
##litt
##lides
##linda
##des
##mous
##fic
##father
##vet
##vian
thread
##inal
theod
tock
whit
dos
##etrack
nove
noses
##eas
##omi
##isse
##itz
weight
##ords
##seat
ins
inches
andrew
iss
rever
shi
##star
sta
steth
becky
mex
##chel
##chico
##odon
force
##thet
knead
knob
##cember
waves
main
mala
mashed
known
taped
nowhere
mot
alice
however
playpen
huggie
##opy
##andlad
moms
##illas
calend
backward
background
bust
buff
abre
boil
##sher
##mbol
carries
cargo
babychico
roy
bray
gust
history
handprint
arc
arch
##ssible
sassy
wayne
trave
tracing
sev
section
##elin
snatch
mans
diet
scu
shove
hears
drawings
hardbo
crani
##ilda
grampy
squaw
pew
pegs
newyork
appre
booger
barna
barrel
earrings
elmobook
##ontae
wol
december
tech
evening
sounding
hellokitty
##mani
pens
unload
grandmas
grandmac
pressure
##ogra
dumpty
checked
dama
nappie
adult
patience
blanky
blankies
beam
chewed
videos
buying
charles
growl
burr
salsa
##undra
pooping
perfectly
##ylee
wiggling
kaley
softly
braids
##critter
geese
booboos
changes
meatballs
answers
recess
nutcrack
psy
flags
freck
##ndall
celest
germs
sheriff
scaring
patterns
kangaroos
nerves
##piece
koala
president
##pole
menu
shawnboy
rode
beso
wateringcan
holler
donuts
imag
thunderbird
seviedoo
disappeared
ornament
raspberry
ankle
grabbing
polkad
waterslides
fabulous
major
##quelch
hammers
carrier
properly
junior
chutesandlad
cocoa
francis
christmastree
gorgeous
absolutely
tattoo
pyramid
##yearold
hexagon
scrambled
reverse
calendar
hardboiled
cranium
chutesandladders
aur
ath
bong
cent
cred
doug
daph
emmy
fidd
gy
gates
jame
kier
kash
kiley
nam
ora
oooh
pins
tou
tour
tread
tico
ul
wes
xray
yon
zs
zer
zig
##iot
##iator
##oise
##oint
##tom
##hmm
##squ
##sley
##zar
##bt
##bang
##wu
##dunk
##moon
##mich
##cee
##cra
##cos
##card
##cling
##fred
##just
##jito
thy
ther
thre
##atter
##atops
##anodon
gog
gopher
##ereo
##lli
##esa
##ndra
##antis
##lei
##lean
##iden
dont
##arose
heh
##ooky
##stor
stereo
mechan
bage
##chelle
##enne
licor
righty
tak
soy
sox
outline
ali
chant
chlo
##eda
##ando
organ
littlecritter
##illo
##cass
##adi
boa
needle
##lyne
##shia
joking
spike
##mba
babyross
##ilocks
tiff
bruce
site
guide
worn
worth
eliz
elisen
##beat
arn
arri
sag
sax
tricer
slife
grew
waterfall
pri
priv
reader
picks
telletubb
tramp
trapped
launch
sever
lever
stopping
chex
loy
loren
lofty
dibble
sum
##eph
##epend
scan
##asa
bitsy
quilt
##amese
##pect
foots
mouths
sorts
mars
##coaster
doorbell
enc
raw
raven
raja
wont
eyeshad
fifth
elevator
grandfather
lighter
skates
owe
bunk
naps
dumb
duster
pawn
paws
fires
ended
suns
pops
peeky
united
##arent
cryst
brownie
##aged
nav
cardboard
##ciate
adults
##oline
jackets
slower
8217re
lionking
mrro
##izzle
dressing
dresses
placemat
halfway
bounced
##mike
soapy
discuss
capture
ribs
goldilocks
##ylin
bumping
typing
bangs
siamese
peepees
rows
thirtyeight
paintings
planets
introd
dotted
rosy
jenga
syste
symbol
##vania
brighter
ahhh
nemos
##ensive
robots
khal
wrestling
mushy
gumdr
tears
ellie
lessons
smoosh
erika
ohhh
rewinding
opposites
chopper
boogers
smock
natalie
irrit
leapster
rhyming
jacqu
cubes
nanarae
undo
slamdunk
postcards
rollercoaster
pantry
guns
jewelry
palm
total
surface
title
safari
jeremy
venus
leader
##brown
blinking
transformer
tantrums
jellybean
ankles
blonde
swirly
susana
champion
chunky
benjam
viejito
bolog
drummer
ronaldmcdonald
becomes
deedee
toddler
castles
aunts
bleeding
slurp
depends
repeat
sclues
newspaper
dakota
doubt
vrroom
farahfawc
thomasthetrain
eventually
stethoscope
##ograph
credit
licorice
elisenicole
triceratops
eyeshadow
system
aa
ais
boney
dill
dell
dab
dah
eve
esk
ella
ease
este
fff
heel
iris
iza
jord
kir
kent
kate
kort
kale
lur
mig
mod
nell
nuh
ox
obs
pout
pies
port
pier
rome
sirt
sbig
squelch
teep
tease
tilt
teena
von
vill
vent
x6
zom
zur
zah
##ih
##ients
##olph
##tock
##hel
##hana
##pat
##pon
##pity
##yer
##yan
##yon
##name
##bath
##look
##lion
##well
##word
##dly
##dies
##mus
##mint
##ule
##cla
##cri
##fire
##kah
##jon
thor
##ountain
##eric
##iner
##inth
tore
gob
dori
dodo
##esia
##ism
##iser
##isel
##orp
##seuss
hass
haha
hawa
hawk
andre
rent
report
##aro
##sth
stain
stup
stac
stiff
stud
beer
megan
##cher
lime
knuck
waddle
wags
maple
judy
juggle
##ras
outer
chr
chen
chel
chubby
##oulder
huff
shed
anth
anto
##edd
##andre
core
cocoon
##cah
##cade
##cado
busted
blu
##adrup
overall
ahah
boiling
boiled
josie
spir
spins
carseat
babyk
babybop
tipped
bridey
situ
worst
##aline
##bees
ariz
##ulie
##eryl
flipped
##essie
troph
slid
greas
prin
prick
prints
##ipment
drunk
##abella
reads
travel
##upe
##gger
william
sneezing
dion
diagon
suh
sunda
sushi
scot
##ascar
keeper
bits
cutest
##venia
quadrup
##umes
##america
stuffy
##quack
##quake
underdog
hotter
ourselves
fishes
hardly
marlin
##laces
shaun
tickets
ticktock
blocking
madag
##bbling
poster
milksha
raz
garlic
foundation
hits
##iggles
kittens
grandp
##what
walks
##nae
skill
sketch
tender
##ettrain
phill
phones
peeew
##manuel
paid
pappy
##rio
##riah
sunsc
bowwow
wetting
##aren
smiles
smallest
snowball
dav
dave
focus
camels
jav
jamming
tres
jackie
percent
wars
magd
heavier
stinko
skylar
charm
choochoos
burnt
scissor
steg
disk
twentysix
necklaces
##ylah
lulla
bumps
##izes
papi
linus
##andall
reaching
tying
flatten
melia
johnjordan
rhin
signal
##aniya
folding
satell
packed
dustpan
engineer
visiting
fairies
scooper
radiator
dipsey
##jean
crabs
january
##oyd
auntielenie
answering
laurie
earthquake
alphabettrain
nugget
annal
burned
somersaults
raggedy
ninja
meantime
diamonds
koki
doritos
collection
ferr
boogity
shhhh
leapfrog
column
tata
##hem
aboom
felt
sneaky
equipment
ignore
tonya
diningroom
pounds
barrettes
velcro
isabel
smoothie
tushy
##birds
nicholas
receip
powerrangers
itsybitsy
marcell
enjoying
twinkletwinklelitt
grabbed
polka
##robin
giggle
interrup
repair
sequins
terrific
stencils
conditioner
gears
basil
unclet
christopherrobin
domino
pigeon
unzip
smarty
missemily
avocado
oluw
cylinder
ingredients
squawky
appreciate
wolves
freckles
##storm
pawns
bologna
zombie
stupid
trophy
greasy
quadruple
madagascar
sunscreen
twinkletwinklelittlestar
10
ax
bino
cory
dag
dary
eur
eth
elly
ethai
gator
iron
kl
kach
kings
kyn
kites
kaira
loo
lone
lal
lisa
meep
mate
mantis
nee
odd
pb
pou
pit
pame
ric
rush
ropes
teal
wig
wyn
zar
zuh
##gy
##gom
##ovan
##onda
##ran
##rose
##ruff
##rion
##hon
##hose
##alynn
##park
##yana
##zee
##low
##wars
##dles
##dia
##mes
##mix
##mark
##mountain
##uz
##cco
##vice
##ville
##jan
##erin
whether
gonna
doc
##eret
##eregg
itty
ital
##esting
##itra
##orts
##leon
rey
##idi
donn
shere
shining
held
heater
##onzo
##onimo
##sten
stump
stella
style
mell
mema
bass
baggy
##ching
##char
##ense
lifting
##odie
##three
##cey
allerg
tah
tackle
tacos
soak
mold
alad
chi
ching
chame
chag
chedd
##itta
##mmi
anast
##andria
org
calc
##indr
coin
bub
bugging
##ellini
##adee
herman
puck
bobb
boli
boggle
needles
became
joan
eater
clara
carni
carwash
##ili
##ishia
hmmmm
##tyn
faking
faust
fauc
france
##amed
tier
tippy
brook
gummies
elia
elvis
elizabeth
handing
##mpt
swear
flips
flops
flute
sav
saber
trix
sloppy
prud
##nels
drseuss
mug
laser
##eli
snu
mane
mania
lore
loaf
london
dime
throws
workers
foods
harri
grip
grinch
calla
dann
marin
washes
##lady
hairbrush
gravel
gradu
squeaking
##bbly
##otted
meaning
pox
poking
envel
rak
raft
raindr
dinah
dinos
barf
earring
starwars
grandmother
sandca
sandal
##onta
##nake
amir
owies
kev
cooling
chicka
chicky
##ilen
##hawn
##hael
penns
##riana
popping
##aurus
uns
uncles
unfort
frosty
##achel
fasten
cameras
concret
daff
fingerna
adel
##ortre
jacks
mrt
pumping
descri
sweating
##umbus
##alene
fussy
closes
burping
trickortre
##miah
twentytwo
twentyeight
##loaf
pooped
grounded
yucko
heartbeat
##nold
lukey
tighten
##izing
kai
##ments
toasted
antenna
##bugs
##ughn
controller
##vacy
planted
laughed
unclemike
##eroy
##maria
meatball
meatloaf
rosita
connects
classroom
summertime
easteregg
bellies
radar
walt
walnut
seals
pedaling
simple
henri
auntielynn
peppermint
ranch
extras
swallowing
flashcards
pajama
spraying
bandaids
mixedup
genius
shots
tearing
health
indian
smooshed
peeling
costumes
exercising
rattles
whisk
college
##ondra
frustrating
irish
magazines
diapie
pullups
cockadoodledo
nanie
olives
ginger
lindsay
racetrack
pinching
martin
possible
expensive
##bells
surfing
gooey
##chiecoo
flaps
montgom
##avious
albania
trailer
nichol
##blue
poisonous
aaron
fruitsnacks
danielle
activities
astronauts
duncan
embarrassed
icesk
iceskate
iguana
snowflake
snowflakes
germany
drove
characters
ringaroundtherosy
stocking
tortellini
completely
rebecca
twisting
##culars
custard
soldiers
electric
geoffrey
numnums
passenger
blender
##puzzle
burrito
nutcracker
centiped
fiddlest
toucan
privacy
##ependent
mrrogers
gumdrop
easel
sbigday
overalls
prickly
sundae
satellite
ferrari
receipt
dominoes
binoculars
gatorade
poured
aladdin
chameleon
chagall
cheddar
faucet
prudence
envelope
pennsyl
unfortun
concrete
montgomery
amber
achoo
aaa
avery
bord
cyn
coot
dur
due
dug
eu
eul
eva
evan
fever
gel
ick
jana
jace
jeal
kes
kab
kris
lisey
leroy
mika
manta
nim
nue
ov
pers
pressed
pixie
ree
rout
rik
rico
sipp
sled
sizzle
tir
tball
troy
var
vas
vall
wick
ward
wire
yam
zor
zen
zam
##iberto
##eo
##ele
##gn
##gile
##goose
##tra
##yce
##yun
##yanna
##yond
##nugg
##sea
##zan
##bil
##bul
##locks
##water
##wyn
##dis
##dell
##mc
##mor
##mia
##mari
##uct
##uwa
##far
##kn
##vive
##vas
##vio
##vada
##jer
##11
##ount
##atro
##inja
thew
toby
dokie
##rese
##east
##omas
okie
##owers
##orge
##sean
infin
##kel
habit
ohoh
cane
##ighton
##idra
dong
dona
donna
shery
shane
height
##stitch
##stower
stur
stout
state
bever
beyond
bash
##chi
lilly
##celyn
##ielle
mae
maz
maid
maure
mavis
allright
juan
##meow
tale
alt
alys
chand
chal
##itten
players
huggies
whoow
##edra
##andthe
##andstitch
backs
cos
cob
coke
##byn
bleach
butz
watered
overfl
##oho
##ros
bigb
##shon
clump
##mal
##maica
spik
splin
spooky
caro
cary
caramel
babymo
babycass
##ilar
rond
roger
twos
##ffe
froot
##nton
brig
brian
brandy
guido
nels
necess
anyhow
handles
##mpoo
arre
archie
jobs
swords
##ulah
ages
agent
flame
flipper
##sses
sah
byr
tru
greg
##abear
##abaa
##mol
laqu
lamar
sem
lem
snicks
snoring
girlie
asht
checks
lolo
##entate
workbook
ques
##ista
##lfish
fins
harvey
grim
grouch
fisher
##ores
dana
maris
##color
hairy
eyed
eyel
eyore
trained
examp
expect
shaw
shampoo
graci
numbertrain
floors
garr
garn
kissie
##ressive
loved
crap
rollers
staring
wond
wobbly
delor
death
##wayne
cools
dudly
##berta
battle
oldmcdonald
chickadee
phew
##manent
##hammer
penelope
sunlight
popper
forgive
crybaby
whooo
theirs
emil
sets
conor
##view
dae
dawn
david
##ouda
nappy
climbed
##kini
bikini
jaw
##olo
##oluwa
tasting
perfor
permanent
cracked
mrbear
mrsp
##aryn
meowmeow
ernest
dollie
##iki
##orses
apric
##rence
charlies
closest
dishcloth
choochootrain
bury
driveway
moons
root
roosters
##annon
quietly
##ylie
luis
drumstick
drumsticks
tunnels
prefer
slipping
followed
claps
johnson
sientate
addition
seashell
cuatro
uncleyun
##lando
thirtynine
connecting
papajohn
merid
chalkboard
helicopters
rosa
kenny
ribbet
licked
lilies
crawls
stormy
frenchf
accord
scooping
recorder
berry
nutty
##rictor
##ergie
terr
similar
freight
relaxing
cannon
karl
windowsill
arrows
snuggle
teletubbie
charliebaby
charliebrown
volley
##vius
kimpo
whistling
aidan
lowercase
deno
franken
goodnightmoon
stephan
violet
##juan
keely
ferris
loading
boogies
nature
promised
seahorses
parrots
cindy
cinco
gymnast
solar
awww
##dington
maxim
postcard
gloss
lizards
creative
thicker
angela
olive
##medi
sewer
yumyums
tinker
invite
##chief
fragile
splat
seatbelts
refre
shelves
copying
dwarf
american
foul
crafts
receive
chucke
chuckie
swishy
virginia
jinglebells
cayou
futon
mckin
searstower
clover
babysitter
crunchy
gwen
incredible
analise
oreo
masterpiece
sashay
shakha
cheetah
bridges
iguanodon
journey
mandms
babes
liloandstitch
babyeinstein
bulb
slamming
character
ringaroundtherosie
creamy
##bench
biscuits
tubbie
weeds
uppercase
chapter
commun
leggos
cheesy
greedy
breeze
vincent
anchorage
complaining
tusks
november
barnacles
treadmill
threes
mechanic
sagwa
saxophone
private
telletubbies
chexmix
sunset
teepee
zurg
##looking
situation
arizona
milkshake
razor
jamminginja
lullaby
lonely
italian
allergic
calcul
maniac
kaiu
fiddlestick
pennsylvania
borders
jealous
nueve
infinity
sturdy
spiky
babymozart
snicksnack
example
volleyball
kimpossible
frankenstein
jamminginjamaica
aeri
aval
auth
bb
bart
dul
dart
emel
fant
fle
gur
glend
gouda
hin
hides
handy
jade
kour
kara
kira
lab
litter
lantern
muck
mitch
nico
nada
oj
ome
ogre
ocho
pes
pouch
reed
rins
randall
sere
sens
ts
ucky
vcr
wound
yol
yoohoo
zac
##ired
##iba
##ires
##eus
##oke
##oid
##rand
##top
##hill
##horn
##ass
##akes
##avia
##pre
##puff
##non
##ness
##nces
##sand
##bat
##beth
##bly
##bas
##bella
##lay
##wan
##wes
##wist
##dom
##dee
##dress
##may
##umber
##ucing
##uko
##cea
##kay
##vana
##jill
##jump
##jung
##xp
tha
thur
yous
##eria
##inne
##inator
thed
thelion
tomas
whiny
whirl
whoohoo
goner
goopy
nogg
##omer
##esus
##isie
##ision
##itza
##ays
##aysia
##ooo
##anti
##velle
infect
inform
hachoo
##hth
ish
reb
recy
shame
shab
shock
##aron
##arine
##arah
##arion
##onis
##sta
steel
stare
mellow
babab
baked
baabaa
##ched
##chio
lizz
##odo
plums
##thest
##cel
waa
wavy
mash
maam
maker
juic
julia
jumbo
tab
tales
soil
##rad
moh
mol
mole
mozart
mobile
mosqu
chry
chad
chall
hus
hula
##ryl
##andro
orig
caw
cait
casa
cole
coast
colin
busses
blame
blake
##ades
butts
ahha
ahky
punish
pumba
##gey
turqu
##lyssa
##ship
##shion
##shield
clea
clare
clips
##mac
##mael
##master
spa
spear
sport
spotted
##mbling
carly
carton
carried
##ilan
hog
hoses
##ape
famous
fashion
rojo
robert
frown
fried
brant
brie
brun
waited
##alt
swipe
##ulture
flu
flood
flippers
sabr
sailing
sammie
trot
tripping
showoff
pric
prison
##ablocks
##mole
##ctopus
laces
thingy
thingone
sel
semi
secr
sexy
leone
manger
pushes
div
##epot
scene
scorp
catal
worker
workbench
quail
##athy
draws
wrist
##queen
harp
oopsiedaisy
grant
griff
hotel
pulls
dane
margu
marcus
washa
##lare
shared
peg
tickey
blocked
poly
pogo
pocah
schoolwork
raking
builds
garfield
garaged
appoint
parties
##vester
booster
almond
fives
##ontas
woa
dew
skull
tend
mission
evenly
dumbo
batch
olds
chickie
pho
##mance
farting
paw
paige
firecrack
firehose
rocka
rockets
##aura
leftover
##ippity
unw
unst
unpack
catches
hangs
actual
untwist
##ogs
##agus
##agirl
conc
concer
snows
snowed
rained
knocks
excused
naz
naw
foam
acrob
ador
addy
adam
jaim
javon
teasing
spiny
edward
perfu
gaz
gail
##iera
honest
mrn
mrsh
##aryl
eyeball
deser
ruf
ruby
rusty
owner
dragging
##icab
drewy
growling
burped
salami
##rating
steff
steven
twentyfour
petals
##gull
poopies
dribble
##liana
yuckie
beef
##bridge
lifted
curls
luke
pregn
##izer
spills
superhero
##prints
attract
pinata
began
toaster
reset
rescu
signs
##anize
contra
contest
added
seagull
pointed
cudd
cuddle
rainbowfish
personal
artif
unclejohn
##erole
connector
packing
upsy
splashed
combination
jenay
gordan
synd
radish
porcup
campfire
michaeljordan
paddington
wrapping
impressive
##vonna
cassini
casserole
jerry
scootch
auntiepam
##ruct
lemons
sarc
wipers
bands
meeting
cecil
breathing
snuggly
rays
bullsey
serve
voices
hayden
webs
caterpillars
india
puffy
puffs
punching
poopoos
underwater
##polly
ghosts
constrictor
scrubb
evange
dorthy
collecting
audre
speaks
loader
grownup
natur
jonathon
sentence
sweatshirt
sweatpants
beside
hulky
hyper
loosen
target
yolk
columbus
##ghan
undone
bootie
olivia
##okie
obvious
creature
linden
jeffrey
angels
angelfish
morgan
possib
skunks
jessie
stretching
mattress
garbagetrucks
dreams
dreaming
barefoot
factory
taxicab
transform
alfie
hanuk
sears
search
zev
ponytails
carolina
babysit
praying
barbecue
lumpy
raccoons
pjs
groups
mammal
mammals
##barrow
sashie
bernard
cheetos
cruise
embarrassing
doodoo
doodle
objects
megablocks
entertain
okeydo
stockings
drooling
tubbies
bruise
uniform
consider
jacob
cigarette
immedi
violent
cushion
soaked
anjel
rollypolly
sneezes
raphael
grandmacookie
imagination
polkadots
##michael
gogurt
bagels
chloe
arriba
introducing
farahfawcett
teenager
goblin
knuckles
organize
bolivia
raindrops
describe
centipede
unfortunately
thewiggles
overflow
splinter
babycassidy
eyelash
performance
chuckecheese
calculator
rinsing
##jungle
thelionking
noggin
information
recycling
secrets
pocahontas
garagedoor
firecrackers
concerned
acrobat
perfume
pregnant
bullseye
12
aure
amo
aund
bod
bink
bard
cuh
crew
code
dh
dut
dup
dang
dum
ent
eval
empt
fart
fans
flynn
gig
gain
ih
ivey
jy
jin
jann
kan
kear
kah
kore
kha
kari
link
lame
lens
mid
mia
nid
nurs
oma
ollie
obey
pod
pam
pina
roman
sin
sup
sile
sizes
tina
testing
vers
wren
weak
xs
x7
yow
yoda
yookie
zel
##iha
##egg
##got
##gown
##gative
##ois
##oss
##rome
##rine
##tan
##tips
##hap
##hard
##heal
##aby
##ager
##put
##pig
##pad
##pers
##pock
##yll
##yne
##your
##ywash
##not
##nette
##nisha
##sse
##sive
##zon
##zed
##zilla
##ziel
##bur
##bla
##born
##bread
##bands
##lam
##lett
##wit
##wee
##wanda
##depot
##mir
##mart
##mund
##uma
##uese
##uki
##cion
##fi
##fasa
##kim
##kia
##eries
##ermin
##atan
##aner
##anor
tommy
toena
domen
##etra
##real
noon
nosy
whats
##eshia
okied
##isi
##isode
##oods
##antic
##igo
##oriz
##vell
inf
inch
incl
haz
hamp
haunt
rene
rena
recycle
review
##idad
shat
shen
shine
ships
sheri
##arian
##arious
heath
helen
hehe
##ono
##onie
##onza
##stin
##stache
stad
steep
stubb
stones
memo
meli
putt
##chell
##chip
##christ
##ences
##iro
liking
##odor
updo
uppy
plat
form
##thirty
kneel
##cept
wag
wak
wally
notre
mam
male
mali
masters
mamie
gotta
jugg
tama
taqu
tamar
soggy
##rael
molasses
ala
alc
alert
albert
chank
channe
chili
choriz
howard
humm
##andrea
##andtheb
littlepe
littlebill
##osed
##illia
calf
##imos
##imus
backside
coach
##bydoo
busty
buffal
##adillo
hermit
##pple
abby
bossy
##rother
alrightie
##george
##ict
maken
##aint
##shing
joa
jol
clink
##mag
babyke
babybird
##ilin
##ility
##lorer
officer
faker
famil
rosh
robe
rocco
twoyearold
fris
daddies
situps
gummy
nel
negative
handed
armp
arcade
swo
swiss
##uli
##eryn
floppy
##sso
sake
samp
safer
trips
truth
##airis
prim
dripping
droopy
mummy
mufasa
honeycom
laf
label
##ggest
willow
seuss
lez
lev
lepre
snot
prett
##nya
lol
hiya
diver
suk
sully
suggest
quent
##aman
##amar
moustache
##oons
writes
written
underpants
grief
fours
mines
hardhead
closeup
marvel
##coat
cray
cries
trainpuzzle
exhi
nosed
nummy
shammy
vegg
gracie
squeez
orangey
peggy
tickly
madalyn
miles
##cleaner
afric
poked
circ
newborn
joejoe
garland
diner
##uguese
breakable
homedepot
support
supplies
horten
fixes
grandad
wooo
wooh
##boards
dez
def
misses
nightgown
##etti
circled
oldma
footprint
glob
blower
pachy
iceie
##rik
beeps
poppy
##vya
badly
##ichi
bows
windshield
armadillo
matched
bughouse
untie
pigta
hugh
##mella
conv
##skids
parake
parmes
dall
dale
##ounce
cardinal
bible
peekaboos
ade
jax
jaqu
quackquack
straws
couches
##olia
##olved
jackol
brotherbear
edith
performer
perhap
brushed
christine
gall
mixes
cracking
crackies
boomer
boomboom
8217ll
mrgr
shares
ehh
##acia
eww
##ational
godzilla
delf
delete
blessings
##urtle
charger
fuss
tricking
##undred
disaster
##yaire
twentynine
petting
mischief
##guard
darth
##bron
##rollers
survive
##ylan
##ylon
##yland
curl
luz
luci
flipfl
lining
kappie
brad
hammering
keyboard
melody
melts
swimmer
pinwheel
pinoc
boards
practiced
rhe
michae
antw
resist
respo
##aniyah
streetcleaner
rainbows
luckily
locket
timoth
vacuume
##bears
pastor
casey
packages
rosetta
keny
ribbons
connectfour
ruffruff
magician
mistertom
lilia
angelica
##ugging
interest
pork
stamping
believed
recent
recipes
spaghettio
camper
bernie
walgreen
georges
padthai
##aki
impressed
##tail
doughnut
rugs
direct
mostly
washington
earthqua
alphabets
bandage
spanky
magnadoodle
khadi
weirdo
sprayed
rexes
upsetting
filthy
bumblebees
annette
rectangles
benny
indiana
independent
ruler
lifeguard
lennie
youngest
groceries
erica
##juana
freddy
rats
##borg
diez
shades
derrick
projects
audrey
jewell
##chaun
chopping
speaker
shawnt
itching
darnell
solve
kathy
cyborg
##ifred
ramun
ramone
carlton
carlous
leopards
globe
##daddy
pinched
joyce
skunkie
##zoid
shoots
titan
titairis
behaving
nursing
pounding
fortune
mangoes
dalm
victory
album
fireflies
stingy
stingray
sunflowers
sharpener
clubs
slapjack
seriously
photograph
zevi
progress
misslisa
recording
whispering
deaf
trolls
prayers
##buster
lavagirl
maracas
fools
gwend
mamma
casim
smushed
yahoo
shouting
cristina
certainly
selling
mcqueen
conditioning
nibble
bulbs
237
temple
hannahmarie
mikey
##milk
twisty
leggo
cheesen
cooperate
dimit
gloria
homes
multip
viola
lollypop
cushions
krish
pitcher
##dedo
streets
soaking
optimus
sydney
freak
littler
shirley
harmonica
dubby
stuartlittle
episode
ireland
tumbling
insides
mexican
gustav
traveling
scuba
yonatan
##justice
aliens
organized
encore
eskimo
pouting
portuguese
village
hassan
stacie
diagonal
underdogs
stegosaurus
rhinoman
interrupt
kaching
pbskids
pamela
daffod
mixedupjungle
cootie
ovals
chandler
bigboulder
quesad
grimace
gracias
wondered
apricots
frenchfries
communic
fantastic
kourt
pesach
infection
babababy
juicie
mosquito
chrys
turquoise
prisoner
marguer
appointment
adorable
porcupine
scrubbing
dumd
emptied
nursery
##ywashy
okiedokie
stadium
stubborn
chanklas
chorizo
hummus
littlepeople
buffalo
leprechaun
hardheaded
exhibit
african
pachyder
pigtails
parmesan
perhaps
mrgrinch
pinocchio
respond
vacuumed
earthquakes
14
au
aver
aya
asha
bha
beren
ci
cer
ced
cly
cong
cider
dere
das
dimes
dyn
dates
dene
eb
ef
eme
edy
ene
eph
evel
esp
einstein
fide
fuh
feb
gian
gala
hant
hooked
ib
ira
jr
jigg
jani
kon
kix
kurt
kym
kesha
mong
ned
nip
nero
nnn
om
oc
ola
ober
oley
pica
pors
pipes
pylon
rr
rut
rot
sight
sed
sana
saniya
saint
tc
tara
titar
ut
ves
vert
wink
wine
yoh
yuh
yac
zi
zoh
zzz
zoop
zimb
zuc
zergie
##ilynn
##eg
##ember
##ging
##gth
##oe
##rop
##rary
##te
##tub
##tiger
##har
##hand
##hal
##heart
##hundred
##pow
##pour
##pooh
##pier
##pump
##yg
##nan
##nia
##snacks
##bun
##belle
##bwee
##lou
##dong
##mere
##mut
##muff
##mates
##uish
##uess
##fess
##ket
##kiah
##vil
##vanna
##vani
##vity
##vika
##jana
##xter
##66
##10
##00
##ouk
##aton
##atrice
##inah
##inton
##inna
##ansh
##anah
toad
toni
tossing
tons
dore
italy
##etto
##reme
nora
nosie
##easure
##omon
##omous
##esnow
##itzy
##utan
##ayer
##ayne
ween
##antha
yourselves
##orgh
##veon
##vella
##leven
intern
invent
##omen
shin
shanta
##ooks
##onso
##stine
##store
##stalk
sty
stumb
staff
beck
bebe
bella
meer
bait
##chet
##chill
##chal
##ening
##lden
liar
lizzie
looky
pleas
##thep
knox
likely
wasted
wagging
maha
makin
mazy
allie
##meg
##meon
##mela
tae
##rams
moth
alee
alic
aleth
alyn
atl
chart
cheez
chitty
chute
cheryl
##icka
##ickey
playmo
playhouse
hum
##mmad
##mmers
anne
whopping
##oples
##opical
##edule
##andi
##andez
##otes
##otatohead
moma
littlefoot
camb
cabb
corey
coaster
cobra
##call
##cage
bully
bucks
##elly
##elliot
bla
blade
##ading
##adal
##adore
heron
hersh
herbs
##eedle
abig
##rosc
mya
turkeys
##icent
##icio
##icular
##lya
twir
tweedle
##she
##shh
##short
jokes
joann
clari
clippers
##mah
spee
splish
sports
carve
carrie
##ishe
robbie
robber
##lpture
##ntit
tipping
bret
brim
bride
brianna
neph
necks
##aliyah
##iesha
##bean
arlyn
argh
swash
swerp
##ulton
finds
##ersalt
agust
watches
samm
saum
saves
sagu
trice
tropical
sliver
gregor
##ysa
##yscra
prod
price
prime
prize
priest
##ipa
##abell
trav
las
lakes
##issie
thingtwo
willie
seis
sele
sept
remembering
leo
##elan
##elmo
##elani
snor
snick
snug
snort
asia
betty
lola
hild
##ahal
hurray
hurrah
yelled
sulley
boyfriend
##angels
scat
score
catfish
##amhat
##isto
##reda
##redib
finn
writer
stuffing
##quin
harley
harris
harlow
oopsy
grin
purses
##ionna
mint
miner
mints
marj
marke
marla
marian
mario
marym
marsha
marvin
washup
##ngth
##ftali
critter
##ilde
training
exper
shave
shaunt
shaky
shakers
sillygoose
gravity
squoo
peoples
doorway
##bba
##bbies
mmmhm
mmmhmm
mighty
potpour
poles
##phones
rael
rakes
rasha
rachel
garp
probe
profess
apparent
particular
rolland
thoughtful
hates
fired
elex
messages
##forest
lunchable
sander
##bobo
funnybunny
woow
wobble
dean
delph
demol
ski
skyscra
teething
teles
ami
amor
treehouse
kendall
nights
##berries
phon
phony
##ileigh
##happy
##hammad
glider
pais
snackie
penis
##inson
##insocks
choos
##riann
##feathers
beeping
buttoned
##acey
cowgirl
carson
choked
hopper
grandmaelliot
greatamerica
##dley
browns
emerson
eighth
kickball
##agra
##colo
straps
parking
happymeal
daz
davey
nak
naj
navy
foss
bounty
adra
adal
adolph
neverland
giul
patricia
jackhammer
edwin
peri
christie
gamma
eyeballs
videog
##leya
rud
drawn
dingdong
skye
sooner
wheelbarrow
##ingsuit
charged
feeder
teaches
saddle
sales
##rats
clocks
##ietales
roots
twentythree
figuring
moooo
##lift
##lius
##cloud
darlene
##bria
curves
curled
cursive
lucious
##arily
oobie
prep
prent
precious
##leta
forklift
linen
auntsher
decision
rubby
tyre
##proof
##joyce
flatbed
melinda
pinball
wakeup
##paul
##ofthe
johnwes
jez
micheline
doctors
geck
bubblebath
buzzing
buzzyear
buzzbu
folds
lands
addie
strawberryshort
planting
surprises
artwork
laughs
unclechar
tractors
breck
brent
##aela
thirtytwo
timon
timone
twelveoclock
merlin
goofing
planning
calvin
switching
sends
sending
whoopin
meats
payton
fights
tubes
tubtub
carpeting
combing
jene
jenny
jenni
##lights
secretary
gorillas
ordering
crawled
##ugged
beachball
symp
norman
mothers
cherie
answered
chines
eras
kiy
extreme
pads
vivi
terry
rugrats
##grate
##oraven
riddles
hens
auntiejill
##ruary
zoey
ahhah
pointer
digital
kayl
kayla
powpow
khrist
kingdom
yaz
gerald
largest
wreath
series
serving
service
##waun
passie
goldfishies
genie
scraps
ashy
silky
tanker
veronica
disneychan
whistles
orangutan
micca
microsc
maryelizabeth
index
elliot
length
koal
kyle
exercises
sippycup
banker
everet
trunks
cantel
crowded
collap
bertie
chopsticks
squirted
boogie
smokes
smokey
seesaw
grownups
jonah
jonathan
foxinsocks
firetrucks
destin
mete
teentit
shhhhh
hyp
nicco
nicol
condors
tarzan
clearly
captainfeathers
babyjesus
raminator
felic
kermit
louis
louise
thunderbirds
thunderstorm
##senia
create
lindsey
mistakes
lambs
lamborgh
jewels
dvds
azal
stealing
frying
designs
muddymountain
schedule
invit
invited
involved
scottish
ssoraven
##avier
hunters
sausages
##shawna
venomous
##rrrr
antonio
explore
otto
##mboree
crushed
sharpened
hoopdedo
skeletons
spoil
elias
fuzzywu
curiousgeorge
kelly
pecking
pollys
pollypock
fruitsnack
assume
tablesp
clothing
alden
sledding
terence
##buggy
russian
lillian
mermaids
##rington
incredib
sniffles
concentrating
courtney
victoria
giggles
sequence
quintet
terribly
shamrocks
determin
mandm
view
wheatth
ssss
speedbuggy
slapping
tango
becoming
mazey
tortilla
sophie
blankey
florent
cigarettes
fingerpaints
cooperating
sidney
jakejustice
discip
escaped
kwuh
mulan
strength
options
studying
tulips
staple
plankton
tristan
sneezed
suzanne
barbara
auntieshel
fernanda
##ridges
stacy
staley
mexico
sevren
mansion
sculpture
damage
thunderbirdfour
##bangbang
readerrabbit
trampoline
##arents
symbols
estef
model
oxford
romel
hawaii
spirit
printer
scotland
grandparents
uncletom
clarabel
sandcastle
trickortreating
iceskating
cynth
kaboom
routine
wicked
bashful
maureen
arrested
byrd
dwarfs
omelet
rebbe
challen
coasters
scorpion
catalog
phoen
rockabye
unstuck
mrshen
attractive
artifact
obviously
considering
immediately
eyelashes
bodies
entire
gigantic
silent
##withth
haunted
armpit
swollen
lafay
veggietales
oldmacdonald
jackolantern
boomerang
recently
ramunition
cheesenips
chrysant
february
picasso
titarachel
zucch
cheezits
cabbage
##adalupe
nephi
swashy
saumersalt
sagua
september
potpourri
apparently
demolition
auntsherri
johnwesley
buzzbuzz
strawberryshortcake
unclecharlie
disneychannel
captainfeathersword
fuzzywuzzy
pollypockets
determined
911
aer
aster
ayl
aza
aura
bian
cum
dj
dil
drow
drea
duff
ditch
dete
dixie
data
emy
ester
egh
elda
emanuel
egy
fright
fest
fiddle
gh
gad
hou
hong
hoops
iv
ike
ion
icea
jeth
jap
jare
kre
kea
kra
kun
kettle
led
lure
lue
lana
liter
lera
linkie
lupe
mora
mira
mode
nia
nate
nipp
neal
nino
nala
oz
olen
ossie
ozell
pand
pep
pik
pita
roh
rame
reel
riley
rori
ritz
risie
sq
sday
sark
syn
tug
tdon
tiles
tyler
umm
una
vom
vitt
vad
vik
vene
vulture
ww
wer
wom
wis
wanda
wires
women
xz
x8
yat
yos
yale
yvonne
york
zz
zell
zone
zula
##iant
##iar
##ijah
##ems
##eisha
##egrate
##gang
##gna
##good
##ost
##oya
##rite
##tz
##hog
##hung
##handed
##aan
##away
##amole
##pin
##pick
##pson
##nap
##nal
##nys
##nog
##sin
##school
##suess
##zes
##zion
##ziah
##bad
##billy
##bus
##bula
##loops
##lodo
##we
##dra
##dot
##dish
##mis
##mind
##miss
##maine
##measure
##uf
##uella
##cin
##couch
##fair
##fortable
##kar
##karen
##vant
##vir
##vore
##vroom
##jat
##james
##julie
##xley
thad
##oura
##atosaurus
##inis
##inion
##inosaur
##inary
thebig
##anee
##anha
##anche
##anza
tob
tobo
whin
whup
goom
gokie
dop
dod
dock
dome
dooh
dokey
##eter
##etty
##rest
nona
##oms
##omat
whatie
##isp
##isies
##isia
##itsy
##utter
##uttle
##utches
##ows
##owel
##ayle
##ayden
##ooke
##ooze
weee
webb
##anton
##eey
##eezy
##igio
##orie
##orro
##orize
##leb
##leleven
##kevin
hale
andri
isabelle
isabella
isaura
rel
rees
canister
canada
##idan
shea
shani
shines
##arina
##arli
heigh
heidi
##stock
##stood
##stars
stan
strollers
stacey
becca
beulah
meme
mena
##chch
##chess
##chilla
##ened
##iry
##irap
lima
liber
liza
##odee
##odey
upd
uppity
plop
plumpy
plumber
plugged
goodie
wax
wack
waist
wade
##iela
mady
malc
maka
maud
malia
maude
mallie
allan
allison
jug
llama
lloyd
taz
taper
tags
talent
##rae
##rap
##raj
##raca
##racting
outdoor
##vert
alain
aleen
aliz
atlas
chom
chee
chess
cham
chuh
chast
chichi
##ittery
##ickle
hump
huss
shey
ane
anita
anielle
justice
whop
##opa
##eden
##edown
##edrick
##andon
##andmy
##andrew
##andjane
##andthet
##andahal
orch
orlando
littleone
littlecloud
##iller
cav
cable
##thern
##imi
##iment
wasp
backing
coy
##care
buz
##ellen
bloo
blair
blub
blob
bloom
##ados
heriberto
ife
ahold
pussy
##ivel
##ived
aboo
abuse
abue
ability
bobbie
##outwithth
myk
##unita
##earf
##lye
twerp
bigbig
cli
clam
clunk
clinton
##max
spent
sphere
##mbals
carle
carra
carter
carolyn
hoedown
##lora
fal
roz
robb
rogers
##ffer
given
brin
brion
brooke
##mberly
nevada
nebula
waitress
elzie
elwin
award
arist
arbit
ariana
maya
mayra
fling
flames
flubb
##tinguish
sami
whipped
##essy
tran
trim
trud
tripped
slices
##iney
pron
##neet
##nelius
drier
drsuess
##reak
musk
muhammad
travis
lah
lacing
lacy
lasha
lavon
##issy
##isson
##issipp
##eetable
sefer
leot
leigh
levi
leggies
cares
##elah
snar
snitch
snooze
manage
oph
opie
opera
opinion
aspar
aspen
leaking
chey
kinder
betza
dipped
sud
suction
cleo
clement
scone
scoops
scient
scuttle
catf
workout
##osit
##osion
bitiba
quan
quant
quiz
quinn
##aming
##ameal
final
##arda
##quat
hart
greta
purim
##estra
dany
dannie
headband
##eenah
hardest
##uhuh
marnie
martha
##lai
hairdo
##fton
gameboy
boxing
crate
crops
cranes
exit
shaving
##eelah
veggies
grams
grades
cupboards
orangejuice
jumper
pebbles
##dson
tickie
madd
madie
singer
daytime
daycare
##anae
milag
monty
monica
poom
pollen
polare
milks
touchdown
##usual
prove
process
runway
##ressa
lovey
craig
cracks
cradle
breakdown
supper
rollerb
boogey
##tothe
counts
birdhouse
starr
differences
messier
lunchbox
grandmommy
##ontay
##ontail
##steria
##who
baths
##napped
lightyear
deane
deva
devin
debbie
tevas
missmary
amade
amount
owen
kei
##ettie
##ews
duchess
##aneisha
phyll
##keya
blowup
reals
exclam
aircond
##riam
##rika
asks
##vora
popup
poppa
poppop
bowtie
unpl
unsc
uncom
unusual
froggies
catcher
gabriel
winifred
##achu
smee
winding
matchbox
bugaboo
strugg
striped
struct
banjo
untied
cornbread
piglets
emu
emoni
##plish
##plane
setup
easiest
kicks
slidey
convey
conrad
snowmen
snowballs
rainforest
seventh
knockkn
strainer
paris
paras
parked
dai
daj
daisey
daisies
fingertips
nash
napping
nazia
climbs
tapemeasure
accept
ada
jaws
quacking
trevor
treating
wheezy
nevermind
bothered
layer
pats
patric
patrice
bathrooms
jackpot
storytime
eddy
eddie
perform
christin
gazoid
mrkevin
dinnertime
trike
ouchies
chocolatechips
warn
toesies
meowing
scares
##acles
desh
clicking
rudy
ruining
dinga
parks
magni
magical
##icals
##resa
##anson
quicksand
whoopsiedaisy
apatosaurus
##aleigh
chara
puppydog
##bitsyspider
santos
##niah
##niya
wallet
wallrus
burry
burner
salmon
sharon
bootsy
##boxes
pills
##love
compare
creamcheese
zooga
##unti
##life
##clay
darry
##bration
quieter
claire
coffeetable
smileys
oof
bumper
birdseed
forks
kae
kail
kaci
princip
##sontheb
rubs
rubin
tye
tyree
brakes
brains
melvin
melissa
computers
sheepie
##iahna
##paulie
##crunch
##crisp
lightsab
##dave
johns
johnell
michel
##ddles
gees
mickie
sockies
squirting
##ughan
contact
engines
##vaughn
farmermommy
medal
stomper
adding
seaplane
cullen
octa
octav
corb
cords
corinne
artem
swiped
unclepaulie
uncledave
luckis
##erold
tongues
remotes
merrill
##swish
vacuuming
##onique
hippity
packet
policemen
##ophamhat
rosana
kenley
robins
tips
tipto
squishing
mistertiger
classes
##nora
##noring
##linn
lilah
jenna
crashing
##ronome
##splash
regina
jayd
alisonlynn
visor
hills
hillary
northern
##honda
neatly
##isabel
diplodo
erased
erasing
recital
courten
oceans
angie
angles
berna
bertha
jamar
jammed
kiara
nutmeg
walmart
jasmy
viv
##ako
shellie
impat
umbrell
janet
janie
accidents
timeouts
trashcan
simons
freed
jerald
jeronimo
auntiekaren
##peare
pepperonis
visitor
piranha
spanked
woopsie
##sabe
outfits
fati
sarge
memorygame
cec
celes
##enae
kham
geronimo
socorro
rayna
decorating
decorated
torrie
sherry
sherril
candies
passing
voom
scrap
scraped
##irel
ashe
silk
##vior
kanga
burns
stools
logan
kimber
rewound
benn
bened
bennie
maryk
monstersinc
witches
ellen
twisties
sonic
sonny
yummies
##pieces
puffer
smoochie
sparkle
sparkling
scribbling
smashing
preser
##andyouk
exerciser
cucumberinth
rockingchair
lyle
freshen
dorrell
chancy
squeaks
cottontail
derby
alexis
squirts
flavo
sailor
destiny
metronome
irma
wilty
mariette
nicolas
hollis
fiftynine
fiftyseven
dental
tarant
confetti
elbows
bryn
bryan
tatti
forests
cymbals
barks
damn
undressed
##uarus
millions
millicent
##oko
felipa
louie
obsta
gingham
sponges
palace
palette
wrecking
ignoring
##iyana
##iyanna
bracelets
georgia
johana
tanya
charlott
borrowed
schmut
valve
inviting
montana
##wheels
lonnie
tuba
##hanie
dominic
dominque
shelby
clarice
leonardo
leading
makayla
cellar
cellphone
murray
antoni
explosion
firefly
comfycouch
transfer
sprinkled
otis
otter
##amae
tadpole
alfonzo
romper
lakameal
cheesebur
holidays
augusta
cayce
dye
mallory
annoys
programs
assist
coocoo
coochiecoo
odell
odette
daniele
daniella
fourths
lucille
lumps
sylva
##beaver
##kenzie
swirls
susan
demetrio
tornados
##great
johnnyjump
autumn
gayle
narc
julian
##rical
kenneth
destroyed
leslee
random
sliming
bernad
sissie
sarai
vaughan
wysteria
bridg
cruz
nasa
rickety
babyemily
drumming
selfish
rosaline
droctopus
whackamole
christy
speedstars
carriage
chipmunks
hamburg
233
##arfarf
franklin
delivery
discovery
aubry
dickandjane
kylie
nathalie
trinity
laverne
fingerpaint
fingerpainting
etta
##cules
abdul
claudia
escape
bomb
bomber
customer
eek
eugene
eugenia
galit
sloan
slobb
margarine
numnum
passengers
munchkin
tulip
vickie
##nowit
googly
judith
judah
arlis
tristen
generator
cortland
urch
veterin
weapon
##grace
##leaf
issues
motion
royal
shovels
techn
grandmasuz
polkadot
bongo
douglas
gymboree
wesley
zerber
elizah
several
loyal
sumner
footsie
miguel
obser
obsessed
pierce
sirtop
sirtophamhat
##patrick
student
anthony
antoine
bluearf
babykylie
babykarli
skills
phillips
##hemum
uncletim
smartypants
oluwat
europe
loosing
bassinet
moldy
pucker
carnival
carnivore
snuggie
snuggy
harriet
unsnap
fingernail
fingernails
henrietta
electricity
##nugget
##disney
##farmer
whoowee
##ffect
necessarily
truly
semic
lemur
grouchy
garnett
rollersk
mrspotatohead
ernestina
seashells
meridith
according
aerial
avalanche
emeline
sensitive
##xpress
thedford
molt
husband
original
sabrina
almonds
unwrap
concert
rescued
cuddly
syndrome
radishes
natural
possibly
hanukah
dutch
duplos
supers
##pigs
toenails
juggling
channeleleven
babykendall
frisbee
primary
honeycomb
lolita
squeezed
timothy
leggoboard
pachyderm
hanty
mongolia
utah
yacht
##bweebwee
meercat
chittybangbang
hershey
splishsplash
woowoo
skyscraper
telescope
navypier
fossil
videogames
prepare
canteloupe
meteor
teentitans
hypnot
russianblue
incredibles
challenge
phoenix
lafayette
chrysanthemum
zucchini
duffle
egypt
ionic
iceage
jethro
japan
pandabear
pikachu
vittor
venecia
www
##hungry
tobogg
goomba
doohickey
heighho
##andahalf
##outwiththomas
arbitrary
flubber
##issippi
asparagus
betzaida
polarexpress
amadeo
exclamation
aircondition
uncomfortable
conveyor
knockknock
##sonthebus
diplodocus
umbrellas
##andyouknowit
cucumberinthesnow
flavored
obstacle
lakamealia
coochiecoochiecoo
johnnyjumper
grandmasuzanne
11
130
50
aan
ady
amm
aad
aday
aven
aash
avel
aym
aust
boh
bins
bren
bony
binkie
boulder
bessie
bippity
cit
cuff
coon
copter
ceph
dir
dink
dand
dery
dips
ddd
dinky
ek
eust
esa
eben
effect
fear
fent
fathers
fiona
feast
gs
gage
gia
groom
gise
gunk
geeze
gany
giles
glady
hs
hind
hoh
hinda
iy
ian
ise
iman
ivy
immer
icy
izzy
irie
ival
jc
jig
jayon
jey
jeb
jona
jeri
jho
jamel
jhon
kc
ket
kur
kain
kair
keen
kater
kirt
kord
kace
kipp
kary
kirsty
kita
keri
kho
kora
kandy
kasha
kano
kiki
ling
lack
lup
lent
lona
lars
linda
luna
mie
mish
mard
mile
mord
mucky
mima
mesh
niles
neena
oun
oly
ooop
ovie
ocie
ovella
pi
pry
pist
pred
pizz
pomp
pshh
qack
rig
rink
rish
ria
rate
rayon
ruch
riddle
rona
rita
rises
rangers
rrrrr
sis
sod
sigh
sri
serg
sena
sized
tid
tyl
teri
tanes
ula
usher
vid
vil
viet
vann
vince
verg
vents
vines
vianna
ville
vraj
wim
wease
winkie
witzy
x9
xena
yv
yor
yook
yen
yur
yal
yul
yash
yob
zh
zad
zack
zab
zigg
zary
zeph
##iara
##ivers
##iqua
##eim
##gl
##gle
##gop
##gun
##gue
##gery
##oes
##och
##ovon
##rh
##rom
##rst
##ride
##rise
##rison
##rope
##risa
##rissa
##tw
##tip
##table
##hipp
##heem
##ared
##ails
##aundra
##pard
##pla
##pigg
##pops
##pcion
##yam
##yona
##ythe
##neth
##nne
##sies
##zers
##zard
##bes
##bon
##buck
##bah
##bia
##bals
##bingo
##biv
##bury
##lina
##landa
##lani
##wig
##with
##wal
##willy
##wanna
##winky
##woman
##dre
##dery
##draw
##dey
##drick
##della
##dwig
##ming
##main
##mone
##meen
##mont
##made
##micals
##ux
##uan
##uet
##uell
##umming
##cook
##cod
##cies
##cans
##city
##corder
##fo
##feed
##fers
##face
##fact
##fying
##faces
##fif
##funny
##farm
##fold
##keem
##khia
##keeper
##vat
##vic
##vino
##jam
##jandra
thigh
thump
thumpy
thalia
thief
##oula
youyou
##erio
##erik
##atra
##aters
##inthed
thethe
thecat
theitsy
##animal
##anberry
tont
torah
wha
whir
whaca
gogg
gong
dow
doop
doot
dope
doris
##inge
##inger
items
##eted
##etubby
##rem
##rene
##renda
noell
noct
nova
##llah
##ombone
##esis
##esse
##esty
##isyn
##itor
##ution
##utton
##utgl
##oween
##ayna
##anthia
##eeny
##igans
##orch
##orld
##orter
##orah
##orange
##sef
##sels
##vend
##ckley
##leine
##lebr
##legh
ines
##keisha
hara
hash
haul
halee
hazel
haiti
andr
therese
isid
isac
isiah
ispy
israel
isadore
##omena
rein
reuse
remo
requ
relie
rept
replace
canad
canni
canines
##idee
##idence
##idyn
dony
donnie
donta
donovan
shit
shann
shmel
shield
shirl
sharyl
##arri
##aristo
onehanded
hew
hend
heman
hemi
hedge
##onym
##sto
##str
##stles
##stanley
areyou
stub
stream
stale
stings
stalk
mend
ment
meate
menor
mellie
meyer
meandmy
putty
bases
basc
##chris
##ency
##encer
##enium
##enzie
##enzo
##ldon
##irra
##irah
##ircle
liqu
lili
limit
limbo
lookout
updown
pluck
plans
gooder
##uri
##urts
##urbs
##thel
##thia
##thomas
kno
##cell
##celynn
wast
notch
##ieval
mai
mav
mait
mast
maca
macy
macl
macdonald
maida
gots
diddle
allen
alleen
jule
juju
juices
##meet
##meout
##mede
somewhat
tas
tamy
task
tami
tavia
tashi
sof
sopla
##ral
##rase
##ramp
##raine
outg
mose
mopped
mollie
moshe
mochilla
alar
alton
alto
aleez
alicia
aletha
alois
alonza
alisson
##dye
chat
chere
chea
chow
chay
chugg
chops
chaya
chaz
chryst
##ittles
rearr
humming
husha
huyg
##ryne
shelly
sheba
shepard
anim
anees
ansel
justine
justus
##oping
##ede
##edog
##ande
##andthep
##oto
##oten
##teria
oris
orlanda
littleman
cae
capes
causing
cauli
##ims
##iman
##imar
##imon
##imah
##imate
##imately
backdoor
##cal
##byes
buys
buggie
bugger
blur
blug
blaine
##adora
##adada
herby
heros
herbie
hercules
butler
overnight
ifyou
##oha
##ohs
##usepp
##idel
pup
puddles
##iven
abb
abel
uhh
myl
myla
##unna
##anka
##ankie
##icles
##icus
##lyse
##lynda
##ains
##shan
##shay
##shot
jocie
joanne
jogging
joanie
takemeout
clod
clop
clair
clum
clary
cloy
cloyd
clippity
clogs
##mare
spar
spool
spying
spikes
spencer
carn
carmon
carmen
carmine
carmella
babysha
babybear
babymat
##ilio
##ilani
##ilical
##ilities
offering
##apy
##april
fabr
rover
rolf
robyn
##lpha
frans
fringe
helpers
tiph
tiko
tiera
tiyana
bron
bront
dads
dadadada
gus
guadalupe
neil
nept
nelia
waiter
##alo
##iese
elo
elm
elim
elad
elmer
elastic
elisha
elsie
elwood
eloise
handful
##mpsey
aris
arbo
arno
arlen
arianna
arnold
swans
swirl
swept
mayola
samy
sakes
sams
samar
savan
##kings
whiz
balloo
balled
tries
triscuit
trombone
##artment
slug
slither
slade
slicks
##itement
gregg
##yson
##ysandra
##rowrow
pleased
##inem
prat
prisc
##iph
##iper
##ipizza
##rease
##reamy
##abc
##ably
##movie
mumbling
bluejay
##ctagon
##ctuary
honeycrisp
trape
traves
traci
traps
tracee
##upon
laid
lace
lael
lavonne
lavenia
##ggi
seite
redo
lelia
##elon
manley
manager
threeyearold
threeleaf
greenish
greenegg
oper
oposs
##ouri
asa
cheated
chemicals
kinda
betsy
betsabe
loree
loser
lorena
hijo
hiyah
opener
##zzare
coupon
##aho
##aha
diana
susp
clem
cleora
##angel
##angela
scen
screamy
cleans
##asus
##asaurus
shoel
##oser
cuter
quet
quince
stickies
birdy
##athered
##istopher
cooks
cookbook
mousie
lottie
##quita
undershirt
understood
byebyes
grundy
rooms
purr
purplish
mouthful
##ested
dani
danell
dances
headbands
##ional
##eenrabbit
sora
sorting
soraya
closely
marry
maril
marty
marina
marlene
margr
marcia
marissa
##lav
##coe
##cole
##cola
hairball
##fts
sweety
cranberry
nextdoor
##kespeare
exha
extinguish
nosey
nukie
shady
sharee
sillybilly
purpley
veh
veva
grac
squat
squirty
squeal
fivelittle
peato
blockbuster
dayle
##anael
broad
mila
monk
meanie
meanwh
potter
polys
schoolbus
##phy
milky
usual
newell
newjer
raa
rav
rach
raquel
budd
legol
##usion
kissmeon
pros
runaway
applet
approp
cram
barber
##toy
birdkeeper
hatch
hattie
##mera
earma
earnest
painter
madeleine
grandman
sanda
sandp
elmos
##whit
walkiet
bathingsuit
differently
coldcut
##nakes
lighting
lightly
dek
devel
deja
dego
demar
devon
debor
deond
demit
debra
dempsey
skies
skittles
tequ
missde
mississippi
missouri
towing
amee
amari
amado
amaris
duckied
duckduck
kean
keisha
##sico
hungryhungry
eggles
eggroll
eggnog
cheesecake
dummies
##berg
##bertha
oldies
talkie
chickach
chickend
yumiko
##ilene
##haan
##haun
##hawk
glittery
glutgl
pace
paco
icewater
##usha
excitement
listens
listened
firehat
##riate
##rilyn
##rique
sunburn
##vynn
badge
rockwell
peeks
forgotten
unroll
unheal
frozon
gabs
idell
idaho
winne
winfield
##acho
elephante
toyota
armand
armida
armando
hops
hophop
guessing
strate
strips
stranger
strumming
hangers
brownish
active
actress
emme
eminem
blacks
cameraman
playdohs
##agen
connell
snowy
snowpl
snowstorm
raincoat
spidergirl
##ski
##skin
##colate
vroomvroom
dumper
parish
happyheart
daw
damy
davie
dava
daisha
davis
davin
nake
naomi
##ouncing
folk
poohpooh
ader
adre
adella
adelia
adjust
advice
jaice
jaly
jaeda
straights
puppick
trey
ladyandthet
giovan
giusepp
patton
patio
patsy
##ballgame
##olina
##olani
jackpack
edw
eder
edgar
perley
perrin
gau
gaile
##ierra
slowing
crackle
mrswish
##atoya
eyeing
chocolates
beluga
warren
chewy
scale
scales
##acar
##leyah
##iedo
err
erma
erlene
rumb
##iola
parker
ewa
##ansas
instant
##iffy
##inta
dela
carrotman
mousepad
wheelchair
hurrying
charley
charls
feeds
bouncey
burg
##ashia
salv
appleseed
stems
##miere
sprite
springs
buckles
disp
twentyseven
##loey
caprice
composer
##guire
##velt
##boot
##liz
##liah
figures
golda
seaturtle
##clop
##club
dario
dariel
darrian
darius
surgery
##nox
lumber
luanne
claw
clapper
##ariq
presto
premiere
##ymouse
coffeecup
tighter
tightly
superstar
onceupon
##dean
shutting
jellybell
kass
kaile
auntnan
decar
brake
braden
ryanne
princesslo
flatstanley
melanie
melodee
banged
ringmaster
##ofer
##ofthed
johnetta
johnathan
johnanthony
vaccu
jeann
jeannette
michele
ante
antelope
##atherine
mickymouse
uganda
buzzes
england
rowrowrow
medieval
delicios
lander
alligatorman
cubbies
corie
corine
cornel
cornelius
surprising
artur
safely
brey
freeman
freefall
locker
locking
thirtyfive
thirtysix
timing
piled
tonguet
sorted
merce
merri
merril
##marion
##marcus
nearby
switched
##uding
##ubba
cartridges
rosary
rosanna
rosaria
kenney
kenya
kennel
vanessa
payne
busybeaver
##anasia
##oodoo
ruffles
classic
classmates
watermelons
furthest
##lined
lilian
combs
combed
crashes
pearl
##ronia
beatrice
angelina
roaring
nickle
##dene
region
monkeysong
rollingpin
scoobysc
scoobysnacks
jayne
jayjay
wishing
wishes
bedrooms
sybil
norris
storage
sucked
suckers
##queline
stamper
campbell
jamie
kiana
kiandra
##rico
alpha
aleks
paddles
vivian
impala
umbilical
##chele
mrscla
janee
janel
ricemilk
bluesstock
tera
bonnie
trashy
cordelia
director
peterpan
auntiejoyce
##ilyne
visits
crossword
lauro
karisa
karolyn
roads
polarbear
polaroid
fatter
bandana
##kyla
cousinmax
ayden
celebr
dealer
powdery
swallowed
woodys
khan
kharis
gertha
powerful
snuggling
pokemon
seraph
torri
sherr
comfort
candida
passes
junglebook
genene
voca
bends
scraping
vera
gardening
annast
annetta
burnell
##washington
rossie
whistled
orangish
broccolipizza
hundreds
rewrite
maryjane
##bertron
lorin
lorne
machines
woodchip
deni
dennis
fransico
sprinklers
brooms
broomstick
nerd
yumm
punched
smooch
##minio
muscle
mussels
nini
ninjat
stephen
videotaped
violins
erich
kobe
##poly
lollie
chancey
constant
constance
freddie
separated
evamarie
evidence
evaristo
##ferd
drilling
pacifiers
dorsey
dera
derrill
collin
colleen
alexa
alexandra
alexandria
amazed
audra
audri
jewish
latch
latra
##flower
chopped
loaded
emmarose
smoking
##obia
graydon
georgeann
georgeandtheb
billie
anakin
screwdrivers
separately
jonnie
rods
foxes
gymnas
wilmer
wilson
wilfred
wilhel
steamed
backyardigans
solomon
kelsey
##hamad
condo
holli
hollie
holland
lakemich
bzzzz
##gail
##uther
captaincrunch
kathlyn
kathryn
katharine
stitches
abcsong
cyber
cybertron
cubby
nancy
tucked
barkley
damon
maximo
masks
carlos
millenium
leopold
gloom
felton
wendell
##sense
chirping
sneaker
sneakers
suburbs
containers
creighton
lindell
patiently
burps
jeffery
angelo
blueberryhill
wrecked
igna
kali
morg
morton
morris
martina
##iyyah
camion
camille
joye
sewage
curtis
hipcat
explorer
disappoint
johan
johann
alyx
alyse
alyss
aqua
schl
schu
valarie
##offer
##rinne
behavior
seventies
monte
montez
attaches
lonita
lonzie
malissa
maltom
sixtyfour
northpole
fields
distur
distracting
jeremiah
lanise
lannie
vicent
veloc
##rrr
shelter
clarinet
clarinda
brandon
dwight
makay
murry
murphy
antonia
attacked
kristin
kristoffer
faithe
cathy
poems
toothpicks
mikay
nikk
ott
haloween
tadums
hollyh
tweetybird
sharpening
propellers
deposit
department
gilberto
romaine
##ccas
receiver
static
augustine
augustus
arase
arace
harrythed
toothbrushes
tinkerbelle
elysa
hannie
hansel
kellie
kelley
mckay
mallet
hippopotamuses
assisi
billybla
prag
##riti
caroline
babysitting
daniela
lucre
pjfunny
sylvan
sylvester
teresa
zakk
swirling
lavina
susanna
rhinocerous
miriam
sanctuary
##gregor
renna
lillia
floats
collected
autie
automat
narrow
shayne
julious
guests
sniffing
pauline
paulina
paulino
leslie
##webs
shouted
fabian
roxine
sliced
racecars
bernice
disappearing
##boppity
##wowwow
##vonda
julius
cheetohs
joshu
argue
lauren
quintin
cruising
crickets
adrien
adriene
izac
jillian
journal
richie
ruthie
##chocolate
bolts
marquetta
rosalva
crossed
hilary
##jackson
##thedinosaur
britten
slapped
uncler
235
zachie
zachary
nookie
mauricio
myrt
myrtle
rolypoly
franklyn
tempting
daisyduck
discovered
jennica
karen
tinkywinky
rebeca
blanca
bruises
florence
lavera
crisp
crispy
philipp
jacobe
jacquelyn
hokeypokeyelmo
material
multi
tinnie
vinegar
yelp
##rillo
donaldduck
blasting
babydolls
british
arrange
minivan
stefania
cassidyann
vernita
depending
bombs
eugen
faye
galvat
mulberry
mulberries
oakley
chilling
slobber
unbuttoned
smarter
cartwheels
nickels
geneva
illusion
lisandra
googoo
humans
twigs
ardell
rafi
rafael
barnyardbingo
hutch
tusk
westley
##veteenrabbit
theodor
whitney
novella
andrewwayne
mainly
buffy
buffer
snatching
barnacle
grandmacathy
psycho
psyched
celestia
celestial
presidents
tattoos
aurora
kileylynn
zeros
donte
bageman
scanner
footsies
encoura
captured
introduce
natalieanne
irritates
jacquie
benjaman
auntsara
farahfawcetty
aaah
daba
dahill
evelena
eskimos
irises
kortney
luretha
nello
##claire
##sthing
##sthedog
stained
phillipe
magdalene
stegas
rhinos
basilio
dago
europa
kingsley
ricardo
reynold
mellanie
anastas
bobbi
faustino
tierre
trixy
marinate
graduate
graduation
sandcastles
uncleshawn
trickortreat
eastereggs
healthier
rattlesnake
rattlesnakes
euell
kristy
persian
tiring
valley
wardell
##nuggets
altagra
whoowhoo
##edragon
cobwebs
clumps
caroll
frootloops
ashton
fisherman
charliesangles
charliesangels
terrorize
cannonball
refreshed
chuckiecheese
cheetahs
author
dulcie
glendola
hinckley
jadelyn
serena
##hornlegh
thais
thurman
shocked
lizzards
mohic
punished
cartons
pricilla
leonel
divide
griffin
pegasus
adams
jaimee
honestly
deserve
steffie
##ructed
##ructive
jessiewhit
transformers
okeydoke
okeydokey
khaki
midnight
nidor
version
##yourboat
including
hazards
##christmas
taquitos
##rothers
joaquin
familiar
sampson
crayola
circular
hortencia
defense
global
convince
parakeets
delfina
flipflops
bradlee
khadija
solveig
dalmation
photographs
casimir
237t
daffodils
quesadilla
communicate
kourtney
marguerite
dumdum
dynam
enemy
##egard
weenie
internet
stafford
moths
alethea
playmobile
speech
bretton
sammys
select
hildegard
experiment
squooshing
delphine
skiing
##happyandyouknowit
paisley
prentice
jennifer
chinesedragon
microscope
invitation
tablespoon
bianca
cumquat
frightened
gadget
ledge
literally
werner
wombat
xzay
##fairy
thebigred
whinniethepooh
webbed
updos
malcom
talented
chomping
aniellemir
pronounce
ophelia
scientist
catfight
##totheballgame
phylliss
bowtiebear
struggling
magnifying
principal
lightsaber
artemio
tiptoe
impatient
simonsays
freedom
benedetto
tarantula
antonietta
cheeseburgers
assistant
bomberro
urchins
veterinarian
technically
sirtoppam
semicircle
vittorio
toboggan
50cent
bippityboppity
dirk
dandel
dipsy
dddd
fenton
gisele
ganymede
hohoho
immerse
kanoa
lupgna
morde
pizzas
qackquack
sergio
weasel
yobany
##factory
theitsybitsyspider
tontie
dopey
relief
cannibals
shmelt
hedgehog
mention
menorah
bascom
liquid
limits
huygens
cauliflower
takemeouttotheballgame
clumsy
babyshakespeare
babymatty
fabric
brontosaurus
neptune
triscuits
exhaust
extinguisher
meanwhile
newjersey
legoland
kissmeonce
appropriate
walkietalk
coldcuts
develop
missdebbie
duckiedance
hungryhungryhipp
glutglut
sunburned
unhealthy
ladyandthetramp
mrswishywashy
jellybelly
##oftheday
vaccuum
rowrowrowyourboat
delicioso
scoobyscoo
mrsclaus
georgeandthebunny
lakemichigan
leopoldo
maltomeal
velocirap
billyblazes
galvatron
altagracia
##hornleghorn
bippityboppityboo
19
17
111
25
22
35
ai
aj
aes
ake
aby
aright
ail
aish
aal
aam
aiz
amel
aero
avon
ammie
aching
acey
bs
bout
bic
burt
bitter
blend
beret
cea
ces
csh
cue
cody
cities
dit
dny
duper
dshawn
danthony
dante
ere
een
eun
eff
ember
ethe
evon
emper
eject
eston
etha
eiy
evonna
eager
ebba
fee
fain
fum
fist
fate
font
fog
ferg
fuel
fences
fulton
gat
gill
gack
glyn
gag
gina
gerson
gather
guth
gatha
garen
glare
het
hess
hani
higgly
io
illy
ize
ivie
iva
ilena
ivo
ivery
jat
jom
jur
jair
jent
jari
jany
jura
jodie
kom
kod
kry
kand
kish
kame
kong
kory
kac
kani
kola
kately
kenta
lite
liss
lest
leel
lug
lous
lub
lory
lina
lari
lara
lingo
linky
lella
lular
lops
lonna
lannette
mere
mime
mingo
mcky
mimi
ns
nea
nit
nig
nil
neel
nare
nips
nade
niel
nani
neri
nira
niam
nicole
nannette
nilda
ou
ole
oge
oog
oren
olie
omar
ollen
ovid
ozzie
pere
pis
peed
pne
pip
pel
pah
pate
peak
piling
rs
rue
rang
rana
rise
rider
ridge
ruper
risha
ranger
rony
roni
reta
ryland
sf
sst
seth
sian
sari
sym
sony
sany
sitter
sided
sula
scha
sidd
tish
tate
teen
tana
tress
tins
tanger
taryn
tugging
ura
vang
virt
vamp
veena
vergie
voodoo
wright
wool
wise
wans
wynn
wih
wubba
x10
xavier
yis
yie
yose
yank
ysa
yitz
zat
zan
zep
zane
zetta
zena
zippy
zandra
zera
zippers
zedrick
##iat
##ior
##iian
##iene
##eh
##emar
##gic
##gator
##gment
##gene
##gayle
##oa
##oink
##ogg
##oven
##olf
##olen
##oka
##overs
##ossible
##ret
##run
##rough
##rix
##rett
##rator
##ration
##runk
##retta
##risha
##ruth
##riley
##tr
##tt
##tart
##touch
##tales
##track
##hy
##hu
##hink
##hive
##hul
##hart
##hna
##hous
##hari
##hanna
##hiel
##hoph
##aah
##auper
##abel
##avius
##pto
##pins
##pub
##porch
##yra
##yia
##yya
##yeah
##nk
##nin
##nea
##nah
##nich
##nier
##nroll
##nelle
##nesha
##nathan
##sby
##sil
##sal
##song
##sam
##sark
##swor
##sita
##sula
##zin
##zoo
##zure
##zal
##zles
##zah
##zier
##zella
##bet
##bby
##bal
##bore
##bud
##brother
##bcage
##break
##lu
##lom
##lis
##lot
##lim
##lma
##lil
##lead
##lio
##lotte
##lores
##logs
##wis
##won
##wink
##west
##wamp
##wnda
##warf
##ducky
##dian
##dence
##dalia
##didd
##mith
##mara
##mira
##muel
##uo
##uong
##umo
##uup
##uster
##uane
##upper
##uald
##uardo
##cs
##cers
##cart
##cott
##cane
##clo
##cused
##ccess
##cteria
##fen
##fun
##feet
##flies
##fox
##foods
##kan
##kest
##kha
##kno
##kti
##qul
##vick
##vah
##vest
##vise
##vik
##vette
##vita
##vated
##vations
##varis
##jin
##jen
##jel
##jos
##jha
##jio
##xed
##xible
thal
thorn
thien
thai
##oul
##oupes
##oulie
##erly
##erto
##erman
##erfish
##errie
##erns
##ervations
##ati
##aty
##atime
##atta
##inmy
##inic
##inally
##inio
##inetta
theo
theme
thewheel
theincredible
##anay
##anol
##ancy
##aniel
##anmc
toc
tobie
toron
token
tobi
whites
whiner
goon
goli
gocl
gogh
gons
doe
dorot
domon
dozen
dodge
dorian
doopy
dolores
itz
itches
##eto
##eton
##etum
##etria
##etrunk
onet
##rez
##reat
##reed
noe
noxy
noheal
##llor
##eases
##omoo
##omile
##esy
##esyn
oked
##iso
##isca
##isah
##island
##iselle
##itan
##iton
##itary
##itical
##itizer
##uted
##utron
##owny
##ayan
##ooom
##oooo
##oodle
##ndell
weep
wences
##antica
##anterns
##eene
##eebo
##eexp
##igor
##igen
##igue
##igno
##igwa
##sell
##vene
##ckless
inner
inja
##kell
haw
hail
haze
hairsty
hamming
ander
andrea
andres
andrey
ohio
theres
##omed
rev
remy
reun
reina
remi
reym
reggie
reka
recon
refer
rechar
reboot
rehappyandyouknowit
reckless
canon
cancer
##ightly
##idin
##idon
##idys
##idoscope
donell
donato
donya
donnel
doniel
donoten
shon
shra
shuck
shish
shead
shite
shred
shater
shunt
shanna
shene
shanny
shiver
shilo
shigwa
##aring
##arth
##arang
##aras
##arzan
oneers
heating
##onies
##onher
##stic
##stain
##stone
##start
##stack
##step
##styn
##states
##stino
##stinky
##structed
arent
areas
stro
stank
stal
stab
stood
stif
stumpy
stlou
beater
beneath
begging
mele
meets
mecca
mekenzie
melynda
mechele
puter
putter
letty
letha
leticia
bale
bally
baggie
bapt
bache
bacteria
##chee
##chon
##chca
##child
##charm
##enathan
##iri
##irit
##iram
##ircus
lian
liver
lied
lila
lianne
livia
libra
upp
wheresh
plow
plann
pluma
##urst
##uria
##urning
##urka
formed
forrest
##than
##this
##then
##thol
##thousand
##cecil
wagg
wafers
##ithen
##inkly
##iem
##iella
maa
maly
mable
malk
maci
macon
mabel
masa
maky
maire
maisie
gott
gotog
knowing
within
jus
junie
judie
##melo
##meka
tai
tav
tame
tawn
tala
tapping
tailed
tamela
soter
soila
##raim
##rage
##rail
outhouse
##vera
moist
molass
mopping
moses
mozzare
mohawk
moomoo
alm
alay
aless
alix
alana
almer
alger
alica
alfr
altern
alvina
alesia
aleria
atrey
##dyth
##dycorn
chy
chong
chery
chia
chug
chord
chucky
chimes
cheri
chero
chayla
chrit
chchch
##itted
##icken
##ickab
playful
rear
reagan
reamus
huggy
hunch
hulah
humor
shekin
shedd
##mman
##mmar
anay
anah
anam
anni
anona
annel
ananda
justina
justgot
whos
downs
##eder
##edan
##edee
##eddy
##andr
##andrina
##otive
orin
orma
orion
orlo
orson
orland
ormond
##ittlela
littlepigg
##illian
cain
calo
calen
caleb
##imin
##imani
##independent
##myra
##mymother
wasps
backporch
coby
coel
coki
corena
cocod
##camera
##bymountain
buell
buba
##ellyn
blay
blizz
blades
bloss
blaming
blythe
##ador
##adie
##adiah
herbert
herbiv
watery
watson
overd
overwh
overboard
overhead
overcoat
wellington
ahoy
ahahah
pug
pus
publ
punk
puerto
abra
abner
abcd
abrah
abusing
abbey
abran
bobe
boast
bosley
##rols
##ronda
##roeder
myster
mylon
turhan
##ears
##icure
##icip
##icolo
##icleta
##ethers
##ethirty
##lyla
twiddle
twyla
biggie
##onel
##shun
##shark
##shua
joell
jobe
joanna
jovan
jocelyn
joenathan
clot
clive
clio
clipped
clatter
cluster
##male
spice
spare
splo
spade
spades
carp
carouse
carla
carroll
carlie
carib
carola
carlena
carmela
carbon
babyconnor
babykate
babyworm
##ilian
yessenia
hoy
##apa
##apop
##aped
##apers
##apfort
fawn
roel
rosw
roches
roshell
rochelle
colorer
##ffl
##fford
frona
fritz
bookcase
##uelo
tiara
timmie
tibration
bri
brut
brod
brittle
bria
brunch
branda
brining
brodie
gums
##mbert
##mberto
nev
neop
nect
neato
neva
nevin
necia
neila
necco
neftali
##alis
##alot
##alina
##alittlela
##iestain
elin
elie
elice
elton
elvie
elmon
elsp
elvina
hissing
handstand
##mps
##mpire
arun
aries
arts
arna
arnie
arley
arbie
arland
arvis
araya
aretha
##reema
swell
swam
swhere
sworld
##oughly
##ulo
##ulay
##ulty
agh
agap
maylon
mayhem
flop
fletch
flake
flinch
floods
##ssic
saver
sama
salena
samya
saarah
##essive
##esswamp
trou
trigger
showers
##acky
slink
slot
slater
slope
slumber
slivers
slightly
##itect
##ysis
watercolor
waterproof
##ineorange
prot
proof
##new
##neck
##nemo
##nect
dray
drking
drizzle
##abra
##abug
##abrothers
##mola
##mothy
mub
mum
bluegreen
##ctic
common
honeynut
teller
trajan
tragic
lag
lac
lach
lama
labe
lashaun
##issia
willa
willam
willetta
mamas
seb
seym
selena
sebron
sevend
girly
reddish
ley
leith
leona
leonna
leota
lexy
lefth
lebron
lewis
leesy
carey
carealot
stopper
stoplight
##elt
snuck
snip
sneezy
manuel
opal
asah
asya
leak
leaping
picturebook
cheering
chevelle
kindall
##nye
betti
lokey
lovie
logo
lorella
hiho
openses
courage
##ahn
##ahl
##ahna
diy
dier
diane
diva
suff
suds
success
cleon
clemon
clenton
oopa
scre
scout
scree
scum
scrum
scatter
scircus
##ental
oohooh
##asket
shore
shoest
catap
cattle
catrina
caterina
workshop
##osa
##oses
##osia
##vena
##venger
quake
##uming
##umonia
##athryn
##atheexp
##amon
##amine
##pector
##redame
finnish
mouhamad
hmhm
foop
fooled
wrigg
funnys
##quet
##quinn
##quavious
hardy
harrison
underground
hadn
hadley
##ially
purring
hurted
##estumb
##estrian
dandy
danise
danella
danika
danial
dancers
heading
headbut
headphones
minich
tablecloth
marv
marge
marys
marven
marco
marlyn
marvie
marlo
maryl
marita
marino
marleen
marianne
marathon
marylee
markel
marysa
washy
##lao
##laly
##coy
##coc
##coal
##nging
sweetly
crout
crump
crandall
crutches
craters
critical
##keshia
trainer
exegg
nubia
shav
shaver
shavon
sillylooking
sillywilly
##astian
sleepover
graph
graders
grazia
gracen
grammar
squiggles
squacky
jumpfrog
pez
peat
peggi
peonies
doorkno
matty
matthe
matilde
tickies
dayoutwiththomas
saida
brock
brocol
milan
milana
milica
milford
mona
monet
monta
monico
monika
monitor
potpie
schools
drinkie
ened
##phan
##phair
circling
standard
rai
raj
rare
raff
rafe
ravi
raleigh
rashaun
garry
garner
garvin
garages
garold
touches
legrand
breast
##ugio
##ressing
##ression
lovell
lovella
appet
appro
append
appeared
craba
homemade
partly
partner
partially
longest
longjohn
rollin
boob
ticklemonster
barrow
barron
hiting
birdcage
##iggers
##esean
hating
feets
feeties
fixer
earle
earnie
earlene
earlean
fiore
eleni
element
elevated
madelyne
lunchables
sandi
sanded
sanders
##ontrol
##whip
##which
woooo
wooooo
##bond
##nace
##nail
lightening
deo
deca
deles
demi
debr
deanna
devan
deanne
deandra
degre
devyn
deontae
dexter
deatrice
##isean
##iselda
skipper
skeebo
teh
tema
tejas
teodor
dancey
danced
missus
missmar
misskitty
missapril
missindependent
amr
aman
amand
amuck
among
amanda
amara
amiya
amada
ameenah
oww
owow
##bawk
kevie
kevan
kenda
keonna
keylin
keondra
nightmare
eggies
coolidge
coolwhip
dull
duane
dusting
batik
batarang
oldest
crayonbox
crayonstalk
footage
footprints
footstep
phat
phinea
phuong
peeled
sixth
##many
##manship
##havi
glues
glinda
thrill
blowie
pails
paused
snacker
snacking
##orduane
buddyl
garbagecans
penn
##rius
##femi
pottytrain
suntan
popos
popey
popular
badu
applepie
stepmother
rocknroll
##ichoke
leftovers
chickennuggets
unfast
unkn
unfold
frosted
frostine
gentry
ida
buttermilk
crypto
winnieth
winfred
##acha
##ached
elephantbook
smith
smear
smily
windchill
armen
ooooh
greatful
greatest
wholefoods
strip
presses
banan
banner
untape
kiddy
doras
##gero
pigpen
pigonher
sawyer
emile
##play
##player
blackbear
blackbirds
frontdoor
eighties
cameron
##ogany
##ags
conse
conch
conley
convert
##vieve
sevenoclock
sevenlay
##sky
##skater
##colm
bunnyrabbit
pretends
strapped
parlor
parnell
##othe
checkup
diapering
daie
daven
daley
davan
davon
dacia
daena
dajon
daulton
naft
nazar
naftali
smelled
fozzie
focused
poohs
tapeworm
bouncer
camelia
adar
adona
adda
adrie
adela
admit
adilyn
adrian
adios
adonica
adaline
jase
jaky
jailyn
jafar
jaeden
jaunita
quacker
teacup
##ators
sleepingbag
trena
trenell
treetrunk
marko
markia
lays
layne
layken
patt
patting
patula
##oli
##olve
jacki
jacky
jackeline
tasted
hideout
edris
perm
perla
christina
christpher
gale
gazzy
gavin
mixture
crackie
beavers
beagle
boombox
honking
lionell
mrbrown
mrerik
weezy
belinda
warmed
snapping
snappy
videore
scavenger
desira
shoeboxes
clicked
##iede
ericia
spotty
ruq
rust
ruma
ruins
owners
drama
candycane
mornings
teddie
placed
##resia
ewanmc
##ansi
quickdraw
scoobert
##inten
##integrate
grassy
whoopsy
godogg
##ebasket
apr
delight
delain
delore
delana
delwin
delilah
stinking
stinkbugs
##worms
##alen
##alena
##cila
noahsark
charol
charges
charlynn
charlene
charzard
charcoal
growled
fuzz
politely
##niyah
##nique
wallis
burrow
burton
burying
burgers
thompson
sadi
salim
salam
salina
saleem
##uesue
fruity
##rata
##ieta
##iety
##undo
sharm
sharper
sharlene
sharalyn
soaps
strongest
moonlight
peanutbr
pumpkinfaces
diso
discon
discus
disintegrate
##moni
##monkey
roos
##yauna
##lson
##lochca
nightnights
petra
petrie
spacecra
thomasine
speck
capit
compet
compass
compared
misss
misplace
pooper
zoos
##booty
##like
##lily
##liyah
grounding
riv
rivet
ribcage
goldie
seattle
yuckies
##clip
perfection
darin
daris
darick
darby
darryl
beehive
##bril
##brina
##briella
lifts
sura
surfer
survey
surreal
curb
luk
luca
luiz
luanna
lucie
luella
lucila
clamp
smiled
tunes
prec
prepa
##fran
##leton
forgetmen
practically
##unks
##izie
##izel
##izley
supermommy
woofy
lindy
linnie
linley
linnea
##deus
##delyn
shutup
shuttles
bugslife
dearie
kaw
kav
kait
kaed
kama
kamb
kappy
kaiden
kareema
auntel
auntmar
auntjane
auntvick
decent
helga
reached
dragonflies
rubble
sinking
typ
tyk
tyqu
tysha
tyrus
tyrese
##pret
brass
braces
bravo
brachi
##cara
##carlos
##eaka
ryder
keyhouse
apartment
ladell
sickle
##josh
fillmore
flatter
melea
melita
melida
melons
melchor
pools
oinkoink
pourer
swimmers
pinned
desire
desiree
##cruz
boarding
follows
##ofju
##daisy
##david
##jae
johnnie
siby
sift
telemark
telephones
toasty
stacked
rhode
jeana
jeane
jehiel
micha
michal
michiko
antone
anticip
results
respons
reshawn
reservations
ugio
##icycles
squirch
##anial
controls
rowen
rowland
##goat
##goes
##goest
medical
landen
shorth
shorty
stomped
addison
tripod
seas
seaworld
cuz
octavia
shortest
corian
coretta
corrie
corinth
corrinne
##thecat
artis
article
artichoke
refrigerate
##lence
unclebill
brek
brenda
bababy
timica
piggytail
remigio
fanning
merl
merlyn
merrie
##maru
##ricka
##etchen
pasture
pastorduane
##ption
goofus
##eesha
dustbuster
##ophysis
barnett
##cretia
emptying
pedestrian
dotty
rosalie
rosalia
kennie
kenyon
vanillas
tiptoes
pays
traced
furnace
jens
jenjen
pearly
pearley
##niesha
dolphiny
beatup
nicki
nickie
nickey
nickname
screams
##spin
##spirit
gorman
regenia
crawford
jayce
jayda
jaydyn
bibs
visited
wishy
wishbone
wishywashy
syble
norway
norberto
sucks
sweeper
account
minda
matthews
jester
##dookey
porkey
porks
stamped
stampers
records
medication
jamil
jamison
jamiah
jamila
jamien
jameelah
kimmie
shops
jasper
sharpie
alec
aleda
padra
impro
impossible
##ergent
samay
samara
samuel
samanthia
mrsclay
janea
janell
janice
janine
janette
janelle
trays
salted
terras
##pyard
bonus
bonked
bonita
bonzie
wildern
fishingpole
cassette
casscass
cassondra
cassaundra
killer
simone
##grims
jerri
jersey
jermany
teletubby
henley
clowning
queenie
relaxed
maps
laurin
randy
katelin
karan
karlo
karlene
##saw
##enser
roadbl
digs
digimon
fatma
jaron
jarvis
kayt
kaylah
kaydence
tentacles
wiper
wipie
##candycorn
bandages
fifteenth
cousinjosh
valen
magnus
wiggleworm
coughs
khryst
khloey
yaqueline
agostino
leanore
gerard
weirdest
stations
powertouch
roughhous
hoover
hornet
raymond
rexies
rexford
gardner
serina
##wall
##keria
torrey
torrence
sheron
sherrie
bothers
comforter
filmed
waved
charlieandthe
genn
genell
genia
genever
genette
bending
antsy
scrapyard
cinda
cindia
haylen
haystack
asher
ashleigh
floretta
silva
silvan
verse
vernie
verline
verdie
##iben
macario
scarlett
annalee
annmarie
announce
announcing
burnis
tougher
rosslyn
rossaroo
kimball
kimiko
kamer
kamar
osmond
tillie
aids
benigno
maryhad
indoor
lorain
lorine
lorren
lorrie
loreta
##forms
denise
franco
rubberband
ellison
ellisa
lessie
sprinkling
leni
lenell
lenny
lennis
nerve
roselyn
roselia
##tersign
puffed
smooches
gasoline
gaspump
junette
junction
sparky
findingnemo
muslim
rags
ninth
##erbars
stephanie
videotapes
crumble
avion
avanti
avantica
koji
kyann
kymberly
kyrst
presley
##ivea
diggers
chancellor
frederic
freddrick
lyda
lydia
##kendrick
scrunch
evann
evani
##menting
jamesbond
doratheexp
chanuk
crowd
keegan
hallie
collen
collage
collector
alexz
alexia
alexina
alexander
audie
audria
ferry
fermat
lataya
golfclub
##chai
##chama
shawna
weekends
emman
emmet
pasqu
paschal
smokest
##obed
##obal
cocktail
georgewashington
plugs
talma
anaka
sails
jonny
rodell
roderic
sentences
##match
destro
destructive
irine
lynell
wilbur
zavian
marietta
maribel
josey
josef
josefa
solution
jeanice
jeanette
jeanmac
junkie
kelse
kelsa
niccolo
condor
denton
clearer
lakeidra
spinningtop
yosh
##eshawn
colt
colter
colbie
wolfgang
bryann
kathlene
katheryn
katharina
oyster
jaclyn
jacinta
jacqul
bulldozers
cynd
cycl
nannie
nanette
nancie
##ifier
##heim
##help
shamina
damian
ramona
postit
postlady
millie
millard
oliv
panther
mrpotato
springtime
binh
felisa
kerry
kerriann
lounging
senor
senia
lizphair
mopsy
subject
flashlights
creed
##ddled
candlelight
knots
knotty
bratz
lambies
jefferson
jahn
jahziel
beetles
cheerlead
sundayschool
difficulty
pinchers
magnetic
magnetix
morraca
martine
martian
martrell
martez
mathe
matheus
mathews
oletha
##iyla
wedge
wedgie
camila
joycie
ambrose
tonythet
volcanoes
johna
jessee
jessiah
pilar
pilgrims
tanitra
tanvir
toots
tootie
holog
pennypark
akash
akira
akua
aquilla
aquarius
scherrie
schroeder
titi
##eteers
invest
scottie
balanced
preschooler
crowns
lonie
tupper
malvin
malcolm
barrett
teamrose
northwest
bonkers
valentinesday
esta
estil
estela
esther
estimate
estiben
chains
splits
mattie
straightened
goldennugget
dalbert
dalmat
jimmie
jereme
lanetta
##nnn
lilyan
mommom
clarke
clarine
clarisa
leonie
leonora
granddaddy
devere
devona
devita
devron
glows
gabriela
yawns
copper
dwane
source
##koa
##koch
shalie
shalandra
maks
makari
protein
capsule
cells
murder
pterosaur
pteranodon
##aiden
isaac
isaiah
excavators
seventyfive
attacking
octagons
kristian
langston
bawkbawk
cathie
cathryn
catherin
cathryne
poem
daughters
toothpick
steamroller
mikael
mikayla
nikol
##blind
haliday
halsey
alfred
alfonso
alfreda
chaim
chass
chaos
annabel
crushing
pilots
returning
romana
islands
juicyjuice
swishing
lakayla
peppa
kaziyah
virgina
twinkletwink
arad
ronell
ronnie
spoke
eliora
photos
aariona
dyana
dyanna
hanan
kellin
mcken
mckell
mckayla
annoy
pollyanna
astrid
eagles
mikell
stripped
clogged
carols
carolin
snuffy
fourthofju
marcella
marcelle
lucile
luciano
continents
aldo
aldrich
glenn
glenis
tereasa
teresita
##usscandycorn
shanel
princecharm
dialing
demetra
gwynn
miranda
souffl
sanj
sanford
sanitizer
##giant
##greens
##ernandez
renne
shante
shantelle
baldwin
lillee
champions
casper
mariahernandez
pondskater
##iannah
grilledcheese
autograph
narnia
##barn
increase
julio
chesley
analisa
guestroom
stripey
brendon
kennon
lester
lesly
oreos
randell
randolph
holyspirit
roxy
roxie
roxana
arkansas
sabina
sabino
lawton
lawren
cristel
raeley
rashee
texture
jaziel
sirens
zoejulie
benjimin
victoriano
dune
giggling
wyona
wyatt
##mometer
##ukwu
interpret
reports
majesty
juliusscandycorn
bridget
laurence
burgerking
lincolnlogs
zawaki
embarrass
detach
detergent
izell
ricky
rickie
rickard
richard
##oomboom
##licor
##lication
shushed
babas
babette
bolt
rosalind
rosaleen
apologizing
aryiah
crock
croquet
droctagon
gearld
hilario
jimhammer
niurka
signe
signa
signing
sigrid
sssss
zayn
##iivi
thinner
whacked
nonos
nonono
nonsense
nonapfort
hammock
basin
basically
mackin
speedstar
swamps
margart
aiming
aimee
creaking
creamer
eldridge
pyth
##lades
nookers
okeydookey
weighs
weighed
maurice
huckleberry
frankie
lamont
girlfriends
suddenly
grinding
marcos
ramps
spiderwebs
delivering
jennette
lynnea
reflex
aubree
aubrie
aubrey
dickson
dickens
deedle
kylon
mirella
nadira
nathen
nathanael
nathanial
posey
##attack
tamika
sophronia
chapman
chapstick
blanch
trinidad
commod
command
marlow
philomena
uniforms
consuelo
jamare
jamall
returned
dimple
eels
geeked
greece
homer
ilian
multicolo
nuns
nunu
sidetrack
##oxide
quinton
quincy
miniature
kevinhink
pigeons
stefon
stefani
claudius
seasons
escaping
vernette
faythe
kwanza
nnkay
oakland
##goround
##aijah
##noreson
soldier
slimey
slimed
sclue
margarita
newspapers
electrical
unzipped
oooooo
happybirthdaycake
pigglyw
##fawcett
freaked
illust
krystina
littlest
munching
nathaniel
vicky
vincenzo
googala
hahahah
staples
stapler
guineapigs
ariad
ardelia
lexi
lexie
lexington
suzana
missellen
auntiesuesue
merrygoround
cabinets
general
lynden
lyndsey
fernandez
cylinders
ingredient
bethel
epiph
ginny
irene
jabarri
kolby
sillies
silliness
silliest
tartar
tumbled
tumblers
ursula
wanetta
weaver
theodosia
whitley
insist
insane
issac
malakai
motrin
boiler
architect
travell
mansoor
newyorkcity
grandmasue
nutcrackers
psych
celestine
imaginary
thunderbirdtwo
francisca
athena
daphne
daphna
gyms
jamey
namrata
oralia
ult
yoniel
##square
##wuan
therapy
thermometer
takara
chantal
chantel
tiffanny
tiffanee
arnica
telletubbie
severo
severin
loyd
lorenzo
crystal
discussion
smooshy
irritated
jacques
benjamin
benjamine
aisle
dahlia
estevan
heels
kentucky
kaleidoscope
lurline
migdalia
pierre
romeo
ventura
zahari
thoroughly
##orpor
hawaiian
andreu
rented
knuckle
judyth
chrissie
huffed
princes
williams
dionne
grandpas
sketchers
sketchbook
charmaine
1030
axel
dagmar
kluup
looney
matey
pamelia
wynne
sherell
soaks
anastacia
joannie
tierney
tippytoes
flopsy
savanna
lorelei
londonbridge
harriett
unsnapped
daffy
mrtickle
tightening
waltz
waltdisney
henriette
nicholette
iceskater
evalyn
jacey
persis
rikki
ricochet
sippie
sippys
varoom
vasil
yaminah
zenobia
zamiya
##tracks
##bulary
##jerry
habitat
donavyn
sheryll
sheryle
beverly
beverley
mazes
alysia
chalmer
cosette
rondia
nelson
necessary
arrest
agentconnor
sahara
byrne
ashtin
shawl
rollerskate
merideth
terrance
karlton
refreshing
razorback
labor
mitchell
##pufferfish
##sandham
##basket
tomasa
ishmael
shabbas
steeling
originally
caitlin
##shipday
clarence
carlyle
robertkoch
frowning
brantley
bruno
brunetta
flooded
dewey
dewanna
tendu
unpacking
concetta
spinypufferfish
mrnook
mrnoodle
superheroes
contrast
seagulls
cuddling
dorthythedinosaur
creatures
possibilities
hanukkah
anjelika
farahfawcettfawcett
aundrea
koreen
verses
yowl
zelma
##fifty
domenick
noonoo
infant
inchworm
heathen
hehehe
memos
platters
platform
wallygator
alcide
##andthebeast
makenzi
jolisa
##magoo
families
lezlie
snotty
prettier
prettiest
sukaina
quenten
marvelous
graciela
circuit
convoy
parakeet
dallis
ademola
jaxon
gallon
delfino
lucius
kenyatta
mistertomb
doughnuts
khadijah
dalmations
multiple
krishan
gustavo
daffodil
quesadillas
marguerita
dumdums
bhakti
berenstain
cerise
congested
derek
dasie
efren
emelyn
edyth
edythe
ephriam
espanol
fidela
fidelia
kurtis
porscha
sanaa
zimbos
zimbios
##pumpkin
stumblers
beckett
pleasant
atlanta
blaise
abigale
twirling
claribel
agustin
product
snorting
minerva
marymargaret
rashaad
professor
##colored
najee
rudder
tyrelle
jezlyn
gecko
geckos
landsca
brentley
mothersday
erasers
erasable
vivien
khristian
kingdominic
koalabear
koalabrothers
everett
collapsed
feliciano
louisiana
lamborghini
lamborghinis
wheatthin
wheatthins
florentino
discipline
disciplined
rebbeca
rebbecca
catalogues
aerie
asteroid
drown
dreama
detect
fiddley
houston
kraig
miracle
niall
pepsi
viktor
zellie
##tzmaru
##dotcom
##mission
thaddeus
##eeyed
reeses
chamomile
hussain
cavities
blooga
abuela
clifton
spheres
false
trudie
musketeers
lahoma
leotard
snarl
snitcher
sudbury
clemente
hartley
danniel
milagros
processor
rollerblades
unplug
unscrew
structure
acceptable
hippityhop
courteney
jasmyne
vivianna
jeraldine
celesta
khamiah
marykathryn
preserves
freshener
schmutz
narciso
bernadette
slobbery
rollerskates
hypnotized
cephus
deryck
fathersday
jcc
jigsaw
khoa
kashawn
meshell
pierson
predators
sodapop
tidal
vilma
vietnam
wimpy
zabrina
zaryah
##ovonni
##buckle
thighs
##inthedell
thecatinthehat
whammy
whacamole
goggles
request
reptile
donyale
shirleen
hendrick
areyoumymother
plucked
wastebasket
mastered
outgrow
aleeza
cheap
rearrange
hushabymountain
animated
##andthepauper
cloyce
tiphani
eladio
arbol
arnoldo
arlenne
samson
savanah
greeneggsandham
shoelace
quetzal
vehicle
peatokey
pottery
prospector
appletree
sandpaper
deborah
duckduckgoose
chickachickab
strategy
snowplough
giuseppina
gauze
errands
rumbly
charlsie
dispenser
decarlos
princesslolly
cornelio
breyers
merced
celebrate
kharisma
vocabulary
annastasia
ninjaturtle
gymnasium
gloomy
disappointed
schluff
disturb
vicente
nikkolas
hollyhock
pragya
pjfunnybunny
zakkary
automatically
##chocolatefactory
britteney
unclerandy
myrtice
yelping
dagoberto
hinckleytown
jessiewhitestumb
dynamite
sammysosa
thebigredbarn
aniellemiriam
sirtoppamhat
dandelion
hungryhungryhippos
scoobyscoobydoo
1110
bicicleta
dnyla
ethelyn
eiyhana
foghornleghorn
fergus
guthrie
jomarie
jurassic
kacen
katelyne
lousy
lubna
lopsided
ogechi
pneumonia
pelican
tangerineorange
ysabel
##hulk
##nicholas
##silver
##sworth
##diddly
##ualdo
##fenay
thewheelsonthebus
theincrediblehulk
toronto
goliath
goclick
gonsalo
doopyd
nohealani
okedoke
weeping
wenceslao
reymundo
reconstructed
recharge
donotentersign
shannyn
stroke
stifle
stlouis
bachelor
librado
whereshoho
planned
waggsthedog
gotogethers
sotero
molassesswamp
mozzarella
algernon
alfrieda
atreyu
hunchback
justgotobed
littlepiggies
calogero
coelophysis
cocodrillo
blizzard
herbivore
overwhel
public
mysterious
splosh
carousel
roswell
rochester
nectarine
##alittlelamb
elspeth
fletcher
seymour
sevendwarf
lefthanded
opensesame
scrumdiddly
oohoohahah
shoestrings
finnished
wriggle
funnyside
minichex
jumpfrogjump
doorknob
brocoli
appendix
crabapple
longjohnsilver
debris
degrees
footsteps
phineas
pottytrained
popeye
unknown
winniethe
pigonherhead
sevenlayerbars
desirae
ewanmcgregor
godoggo
peanutbrittle
disconnect
discussed
##lochcamp
spacecraft
riveting
surrealism
prepared
auntvicki
brachiosaurus
mrsclaybore
terrasaur
wilderness
roadblock
charlieandthechocolatefactory
maryhadalittlelamb
chanukkah
smokestack
cheerleader
tonythetiger
twinkletwinklestar
fourthofjuly
princecharming
nonapfortarzan
speedstarcar
multicolored
sidetracked
kevinhinkes
kwanzaa
epiphany
waltdisneyworld
chickachickaboomboom
15
24
200
49
92
ave
ach
ace
aide
amp
ays
aas
ads
aus
ains
adle
aze
avie
aary
aime
agel
aja
alen
aka
avan
aire
avia
aram
azen
arah
ashawn
aundra
achill
airel
aiyana
aolani
bould
bind
bers
bess
bip
bia
bion
bater
brew
bangle
bres
beryl
bitten
bhar
cic
coor
cian
cica
cres
civ
cien
culture
codey
dat
dain
dure
dair
dred
dread
deri
dens
dena
drey
deena
dung
dangers
deren
dedra
dandrea
dict
dylan
dede
eut
eow
eee
eith
eie
euse
eain
esh
emo
eard
eew
eman
evy
eze
emmer
eiff
evin
ezer
embo
eura
echo
emya
edson
eilene
eclip
fy
fad
fure
fue
fang
fey
fero
fram
fanta
fading
fiestain
gere
ges
gle
gim
gide
gap
gour
gion
gato
gurt
gita
gert
gena
geena
giann
ganley
gisse
gilda
gannon
gerold
gathered
hig
hie
hive
hound
hider
hans
hoot
hicks
hints
hiro
hettie
hankie
hnnn
ii
iow
iver
ione
igg
ids
illa
iona
iya
ilo
ivel
ilee
ille
ilynn
ivan
ilene
iola
imit
ilda
irena
icicle
imani
iyan
iantha
ieisha
imoni
jw
jd
jou
jant
jod
jear
jia
jion
jha
jory
jag
jets
jary
jio
jica
janna
jyn
jero
jars
jiana
jori
jannette
jhose
jmari
jyaire
jelan
jerold
jonique
jiffy
jonel
kle
kook
kie
koh
kap
kip
keet
kirst
kion
keel
kane
kins
kian
keal
kimb
kator
kik
kiah
kather
kelle
kud
kars
koda
kung
kori
kilah
keren
kodie
kjer
karyn
kedrick
kaneisha
ler
lig
lith
lain
lour
lum
lus
lins
lary
lato
lund
lya
lance
lani
lates
loot
lora
lurch
llew
lula
landy
laine
lathan
lura
lige
litha
laina
laryn
lenae
lysandra
luther
lanterns
mes
mear
meth
mound
mery
mild
mirt
mci
midge
mort
mign
manda
meri
mered
mida
mire
miko
mical
mute
meena
miy
muna
mikes
mitzy
mutton
meeny
nere
nis
nith
nie
nand
nain
nish
nal
nys
nab
nix
nile
nag
nya
nette
nyl
nisha
nyah
nida
nene
nila
nena
nines
naya
nissa
nga
nessa
nhi
natha
neda
national
og
oom
oar
ory
obo
osk
ooops
oint
oona
omi
omel
ova
olin
ota
osa
otha
ozie
orel
omie
oxy
olando
olson
pim
pong
pab
pia
pett
pipp
piet
pinc
pips
pippy
pbs
pram
pits
pband
qs
que
qtips
qtip
ror
rim
rank
ral
range
rus
rane
rio
rohn
ryl
rance
rinda
ronna
romp
riann
raph
ressie
ritta
rigo
riri
sind
sly
sies
sne
sath
sett
sator
schoo
sona
siet
sani
soni
sche
serp
seren
sape
sangels
sutton
sierra
tz
tes
tis
tro
tic
tess
tuff
tum
tane
tans
tari
tanna
tani
tents
tira
tula
tandy
tessa
tylee
tesa
tessie
tnisha
tict
taniyah
tiney
tiggers
uy
uck
umy
une
uba
urie
urian
ulah
uilani
umpire
vy
vs
vu
vap
vah
via
voop
vane
vian
vog
vina
vance
villa
vella
vales
vela
vald
veda
vinson
vowel
viper
wi
wid
weal
wilt
wandra
wiley
wimp
wives
wylee
wylie
xp
xx
x1
xit
xen
xim
xbox
xiny
xza
xela
xandria
yz
yand
yad
yun
yong
yair
yore
yare
yates
yoni
yud
yield
yidel
zl
zal
zana
zub
zare
zag
zier
zona
zani
zael
zyah
zany
zerb
zeta
zeena
zinn
zule
zylah
zyaire
zettie
zniyah
##ieth
##iard
##iane
##ivin
##ivan
##ivon
##ifa
##ei
##ej
##ean
##eon
##ema
##ebe
##eys
##eia
##eater
##eigh
##elena
##empt
##evil
##gin
##goo
##give
##gro
##gil
##gal
##gock
##graw
##gas
##gister
##gary
##gling
##gyn
##ghett
##ghost
##grah
##oin
##olly
##oah
##ored
##oft
##osha
##oki
##oardo
##octopus
##ovani
##occas
##rn
##rim
##rne
##ruh
##rub
##ripe
##riting
##rance
##rigan
##rrael
##tin
##tay
##tion
##tich
##tling
##tors
##tious
##twin
##tune
##tape
##his
##hee
##hith
##hma
##hound
##heet
##hour
##hang
##hug
##hri
##hey
##hita
##hanger
##hony
##hire
##hada
##hands
##ao
##au
##ax
##aig
##amy
##aure
##aal
##aking
##aked
##aiah
##acake
##aza
##awk
##after
##avya
##poo
##pine
##pile
##pizza
##power
##pyn
##person
##pered
##pcat
##patch
##pacho
##yr
##yin
##yay
##ynd
##yst
##yther
##yss
##yton
##ybit
##yda
##yfish
##yria
##yinah
##net
##nay
##nar
##nose
##nim
##nery
##nos
##nard
##noor
##nise
##nio
##netta
##nzi
##sht
##sun
##sph
##sider
##slee
##scr
##slie
##sbeth
##suko
##zone
##zep
##zam
##zane
##zub
##zale
##zlo
##zunt
##zlie
##zelle
##zora
##zania
##ziry
##zags
##bin
##ban
##bid
##bot
##bree
##bart
##bush
##bio
##blet
##banger
##blin
##bars
##blish
##bano
##bics
##lose
##lind
##lap
##lore
##late
##lton
##lise
##lane
##lade
##looked
##lisa
##luther
##licken
##war
##wick
##wain
##wath
##wana
##witch
##wend
##woof
##wurst
##writing
##dn
##dv
##dine
##dest
##dark
##dio
##dale
##dandy
##dude
##dras
##dberg
##dabra
##mr
##mn
##mur
##mice
##mess
##mana
##mug
##morning
##mona
##maya
##mimi
##uj
##uis
##uver
##uous
##ucy
##uade
##uence
##uals
##uka
##uars
##uisa
##uvia
##uania
##could
##cous
##cub
##cross
##cust
##ciano
##cents
##coupe
##couts
##cookie
##copes
##cicles
##cguire
##control
##fs
##fut
##feel
##fied
##fert
##fetch
##finger
##kat
##kit
##kee
##kick
##kish
##kery
##kari
##kiel
##kayla
##kuna
##khna
##klose
##vind
##vide
##vro
##vac
##vable
##vany
##voy
##vira
##vety
##vethirty
##jr
##jor
##jar
##jot
##jal
##jia
##jade
##jiah
##jaira
##jado
##jesus
##jelly
##jwal
##jandrina
##xel
##xston
##xtyn
##ximately
##6ch
##79
##35
##2me
##200
##45
##49
thim
thos
thade
thora
thersa
thaw
tharon
thayden
thresa
##oush
##ouette
##oufeel
youare
yousa
youcan
##erk
##eran
##erty
##erine
##erling
##erita
##eriah
##erico
##ernce
##erlochcamp
##atat
##atre
##atar
##atack
##atus
##atton
##atown
##atwo
##atthet
##atthep
##atwain
##atcould
##inie
##inter
##inting
##inct
##inity
##inony
##inated
thei
thee
thea
theun
theord
thevel
thelittle
thebeat
theput
thebears
thelma
##anc
##anke
##anish
##anos
##anore
##anans
##anya
##anette
##anmar
##anora
##anjado
tol
tod
topp
tobe
toott
tori
toney
topper
toiley
torian
topple
toriann
toniesha
whom
whey
whass
gon
goll
gown
golly
gods
gogo
goyou
gohan
gobl
dove
doce
doraw
doves
docia
dolan
doaa
dovid
doshia
doyce
dococ
##eree
##erep
##eres
##erent
##erena
##eresa
##erence
##inga
##ingy
##ingbook
itzel
itzell
itybit
thats
thatuh
##etin
##etor
##etic
##etus
##etown
##etyn
##etric
##etzi
##etrical
onies
onnie
onof
oniel
ondre
oneeyed
##rees
##reigh
##relle
##reka
##reena
##revi
##register
noy
nod
nox
nore
noone
noma
noel
nola
noha
nonie
noland
noelle
noreen
novia
noela
noga
nolan
nozzle
noelia
nostr
##lls
##llan
##llon
##llins
##lleli
##eaked
##omee
##omara
##ometric
whatso
##eshan
oklah
##isk
##isin
##isty
##isins
##iskers
##islav
##itie
##itia
##itane
##itsa
##itzi
##utica
##utious
##uterio
##owski
##ayo
##ayou
##aylee
##aysha
##aynee
##ayuki
##oos
##ooey
##oosey
##oozi
##ndee
##ndria
wen
weisel
wenon
welden
##antom
##eela
##iga
##igy
##igah
##oro
##orting
##orne
##oria
##organ
##ormous
##orcher
##sex
##sect
##seus
##selyn
wantyou
##veh
##veer
##vement
##cker
##ckeys
hereafter
##lel
inj
inin
inell
inno
inetta
ingr
infl
inher
inhal
insect
##kelly
##kebox
##kens
hab
hav
haig
hala
hali
halie
hasen
hagen
hassie
havyn
haeli
haired
havana
habla
haileigh
hagop
haidyn
haagen
hackeys
anda
andy
andry
andree
anderson
andria
andras
andyg
##hti
##hton
therefore
isom
isis
isra
isnt
isha
isak
isob
isidra
ismael
istan
isrrael
##omew
reid
reus
reub
renie
reward
reno
reita
reva
reiley
reload
rehana
canyon
canvas
cancel
##ighty
##idap
##idah
##idas
##idiah
##idered
##idcamera
donal
donny
donita
donetta
donzel
donelle
donnis
donielle
donoven
shook
shim
shank
shain
shure
shree
shack
shard
shion
shana
shins
shik
shiz
shiv
shandy
shaira
shiann
shuk
shylee
shannon
shontay
shmuel
yeaey
##arant
##arus
##arves
##arna
##aration
##ariel
##arrell
##aranjado
oney
oneita
hem
hein
heha
heze
hector
helo
heli
heather
helene
hebert
heated
hedwig
hepcat
yeahyeah
##oning
##onther
##onca
##onnie
##onni
##onya
##onika
##stan
##stant
##stess
##stler
##sthat
##sthe
arend
arely
arelie
stash
stunt
styl
stall
stressing
sterling
beng
bena
bellow
belen
begged
beyon
beonca
meh
member
mela
meister
meisha
mega
megh
melda
mechel
mekel
meghan
meilin
mekhia
meosha
letia
letrell
letricia
bao
bast
bach
bail
balk
basic
based
bailey
baggies
babar
baelyn
baxter
bakery
##chow
##chain
##cheep
##chia
##chus
##chimes
##chak
##chiko
##chok
##chysandra
##chukwu
##enry
##enco
##enew
seena
seemed
##irat
##iran
##iray
##irie
##iria
##irky
##irachel
lies
lior
limo
liane
lilla
lizzy
libor
lillie
limous
limes
##odis
##odle
##odia
##odora
upright
righthand
plie
plot
plac
plumb
pleak
plaza
goodby
goodies
goodmorning
##urer
##urry
##urite
##urne
##urah
##urizer
ford
forts
forbid
##thish
##thian
##thog
##thoot
##through
comedian
knitting
knotted
knelt
##ceo
##cean
##celia
##cepcion
wad
waver
walla
wahoo
walden
notredame
##ithy
##ithlin
##inkley
##ieg
##ieu
mau
mais
maine
marea
maah
maven
mason
malee
macr
macie
maika
maki
maisy
mazie
mashawn
maura
mashell
maxton
mamor
maaliyah
maestra
mainten
maizie
maceo
didier
alli
allow
allee
allice
allex
juj
jull
juel
juven
juana
juna
juda
julies
jugs
judge
jugger
jukebox
lluvia
##meir
taq
taff
tass
taven
taia
tabb
taster
taint
tali
tamel
taky
tahm
tashawn
tajah
tabl
tabath
tacey
tammi
tavio
tajuana
taleya
taressa
sot
sole
soly
social
soled
sondra
solei
sokhna
##rag
##race
##rass
##ravel
##rado
##ramble
##ralia
outs
outlets
##verine
##verna
moi
moe
moly
movers
moises
moishe
mozella
alis
alie
alma
alil
alease
alam
alba
alian
alita
alanda
alanna
alva
alida
alvin
alta
alika
alize
alston
aliyah
alianna
aleta
alices
alok
alberto
alias
alaina
alonzo
alonso
alisia
aloha
albertha
alferd
alvera
alaijah
alpine
atmo
atchoo
atira
atiana
atiya
atoms
atatat
##dynn
chu
chlor
chup
chirst
chard
chore
channa
chyn
chump
chike
chianna
chayah
chookie
chief
chyler
chatter
chisel
chugging
chanson
chistopher
##icky
playst
playag
playtime
react
hubb
huey
hugged
hudson
huddled
thinki
##ryo
##ryant
##ryor
##ryeel
##rydberg
shem
shedding
shelia
shepher
##mmit
##mmersa
##mmetrical
anx
anis
anie
ania
anise
anner
anik
aniya
annam
antha
aniy
anamarie
anitra
anmol
ancel
anvika
annora
anapa
anivea
anaranjado
justino
whogoes
downby
saylee
##open
##opic
##opof
##opatra
##edia
##ediah
##edient
##edahl
##andar
##andind
##androll
##andspin
##andjerry
##andjelly
##otis
##otty
##otaged
orour
orian
orren
orten
orlin
orval
orbs
orrin
orlan
orphan
littlebop
littlemis
littlebud
littlepumpkin
##illah
##illiant
cai
caes
calor
camber
cael
caves
cages
caso
cavan
casing
cammie
cailyn
cadyn
caffe
cailan
cautious
caithlin
##imer
##imet
##imber
##imson
##iments
##imata
##inde
##indle
##indley
##myn
##mysun
backboard
backrub
cove
cola
coley
cores
cobie
coals
coburn
coax
##cai
##cale
##caid
##cast
##calf
##cades
##cadia
##byrne
bund
budy
bummy
bubs
buford
buelah
##ellow
##ellor
morene
blain
blouse
blas
blinn
##aden
##adir
##adink
##addy
##adena
##adventure
hera
herve
herni
herson
hershel
hervey
herminio
hermana
butch
butting
overrea
overti
overload
ahchoo
ahem
ahmere
ahmarion
##ohol
##ppe
##ppers
##ppets
##pphire
##idehi
pups
publish
abh
abou
abie
abbe
abiah
abiel
abnor
abron
abrie
abeeha
abused
abdu
abbig
abriel
abbas
abraca
abandon
abbriella
abaig
boink
boise
needham
##roe
##roel
##roach
##roger
##rofo
##outed
myra
myers
myles
mysha
mylene
mylinda
mydaddy
myriam
myanmar
##unato
##geon
turkish
##earra
##eariel
##icee
##icide
##icul
##icture
##icted
##icial
##ethis
##ethyst
##ethatcould
##lyna
makenize
makendra
twin
twoh
tweez
twake
twaked
##ainting
bigly
bigboy
bigwheel
##show
##shith
##shers
##shika
##shots
##shoes
##shaped
jog
joz
joes
joce
joie
joane
joint
joli
joelle
josa
jonda
joline
jogger
jolyssa
joellen
jocelynn
turner
takeoff
eateat
clide
cline
clora
clipper
cleta
cleared
clique
clutches
clingy
cletus
climber
##maan
##mall
##maid
##mach
##makey
##malia
##maker
##maire
spook
sped
spite
spine
spence
spilt
##mbe
cari
caring
caron
carine
carles
carne
carman
carlyn
carita
carlee
carmel
caryn
carlin
carleigh
carmelia
carnell
carmina
carlyne
caraline
carbur
carrington
carmelo
carleton
babycl
babyjohn
babypatrick
babynicholas
##ilby
##ilng
##ilts
##ilette
##ilable
##ilany
##ilola
thanking
yesinia
##ishon
hoe
hoes
hollow
hovan
hocus
hobert
hosea
hobart
hostess
hmmhmm
##lord
##loring
##loris
##ured
##ureen
officia
##apara
##apotty
himal
##tying
##tyfive
##tyfour
##tyeight
faun
fail
fally
falynn
fafa
fables
fasc
fabone
falon
favio
roe
roch
roco
rober
roley
robit
rogel
robie
roque
ronda
roena
roko
roberto
rondall
roberta
rochell
roaming
rojos
colorblind
##lpix
twothousand
##ffith
##ffold
frilly
friger
frump
frieda
fronia
frimet
##amey
##ameblue
bookies
tian
tien
tika
tivon
tiaras
brix
brist
brigh
brigg
britch
briel
briy
briona
brief
brows
brodey
browny
brinkley
brilliant
brindley
dadda
sitandspin
tryone
guil
gulp
guise
guards
guppy
guiders
guiller
guzunt
guarant
gushers
##mberli
neo
neon
nech
neater
neft
neisha
neka
nehe
neoma
nebul
neutron
nechama
nefert
worries
worley
##alad
##alice
##alas
##alio
##alik
##aliz
##aliah
##aluna
##aleah
##alberto
##aloluwa
##iesa
elf
elk
elan
elain
elas
elam
eligh
elane
elian
elita
elson
eliano
elida
elric
elza
eliyah
elissa
elaine
elanie
elsia
elgie
elmina
elonzo
elwyn
elanor
elishe
eligio
eliahna
elsbeth
elvira
eligah
elodia
holden
holders
aware
##before
##beha
##beans
##beying
handies
handwash
handhand
handwriting
##mpers
arin
arse
arick
arther
aric
arsh
arne
aria
arman
arina
arling
arica
arlo
argu
arlee
arlynn
arlin
arden
arrie
arlene
arika
ariya
arib
arbor
arches
ardie
arnell
arvid
arcen
armani
armella
arrington
ariyanna
ardyth
arctic
##reel
##reem
jobie
swat
swap
swore
swoopy
swivel
##ulan
##ulate
##ongiant
agents
agnes
agatha
watchout
mayo
mayer
mayes
mayme
mayday
maybell
maybelle
maykayla
flight
flint
floy
flung
floyd
flutter
fluted
##sser
##ssan
sak
saur
saad
sage
saff
sable
saah
samer
saisha
savon
salene
sallie
sabir
savina
samba
samaria
samael
sadye
sachiko
sapphire
wayde
uhohs
ballroom
ballerin
tron
trout
truff
trum
troop
troops
trino
trippy
trianna
tritan
tricycles
trilby
shown
##arti
##artin
##airi
##acker
slay
slant
slab
slave
sladen
greer
##ysical
daddys
daddyhug
somethings
watergun
waterreed
pride
prun
prana
props
prune
priti
prics
pranay
##neil
##neys
##neisha
##neka
##ipino
drue
drippy
druc
drbarrow
drkar
##reamman
##about
##abas
##abhi
##abitane
##moc
##molish
mumi
mums
muggy
muzzle
bluebear
bluebag
blueprints
comer
comic
comple
honeyd
honeybees
honeybun
trae
traces
trails
trading
travas
trasean
##upmommy
lai
laz
lakin
laik
laren
lasa
laky
laila
lappy
launa
lashawn
laquan
lacro
lazar
lacey
lasean
lavelle
lavell
lajuana
lambert
lavena
##fulworm
thingies
thingthing
thingama
willim
willies
willia
seanna
sevynn
girard
remembers
reddy
redial
leil
leath
leann
leather
leida
levon
leora
lefty
leandra
lelan
leannah
leiam
lehi
lelah
lemma
levada
leighton
leandro
leilan
leandrew
lendell
leodis
stoplights
##eland
##eleen
##elise
##elario
snout
snore
snores
sneaked
manly
manny
manette
manasha
manfred
managed
##irstchristmas
threelittle
greengo
greenbeans
opa
asim
asli
asiana
ascen
aspyn
asyria
useful
leamon
lealand
leavo
chevro
kindle
betsey
bette
betzale
los
loc
lois
lond
lover
loss
lorea
loses
locom
loye
loxley
hija
hiaw
opencl
##zzi
##zza
##zziel
##zzanne
##zzandra
coupe
diar
dione
dimmer
diale
dipper
dianne
diandra
dionna
dippy
divers
diarra
dionte
divina
dionta
dianah
diantha
diadie
hurries
hurley
hurshel
suj
sule
sube
suanne
susie
sudie
sussie
sugey
summers
suffer
sugary
summersa
suicide
suzzanne
clella
clevel
clelia
cleatus
cleopatra
haskell
##ephanie
##anging
##angea
##angler
nameless
boyce
##angelo
scouts
scyther
scorcher
yellowgreen
cleanest
##ented
##asi
##asuarus
keepers
shoved
sholom
catia
catha
catbook
catwoman
##osi
##osla
##oschool
##oscopes
quh
quster
quanda
quiana
quanes
quoc
quency
quillian
quirky
stickier
suren
##umi
##athen
##atham
##amay
##amoo
##amie
##amily
##amental
##istic
##redevil
finest
finals
finsi
finesse
##arded
mousy
mousse
mouryeel
drawbridge
wray
wrinkly
funer
funshine
funnier
stuffs
lotus
lotta
##ques
##quie
##queak
##quilla
harm
harve
harvel
harli
harlee
harland
harvin
harlene
harrell
harlan
harlon
harwood
harmone
haruo
grun
grate
griddle
grating
grippers
grubby
grisel
griselle
gretchen
hotwheel
hotwheels
ourself
haddy
##oreon
##esto
##eston
danne
danel
daneen
danile
danimal
danian
danette
dannel
danita
danelle
danene
danaria
dannis
daniy
danilo
danzell
danzane
headon
headie
wowwow
stillwater
evert
everline
everardo
evergreen
miny
minor
minna
minette
minta
minosaurus
minnette
hardhat
hardware
sorter
soriah
marq
marig
marle
maric
maral
marine
marix
marion
marri
marcy
marley
marcial
marli
maranda
marjo
mariano
margo
marva
marlen
marcie
marston
marianna
margh
marlena
margaret
margi
marquel
marnee
marlenie
marisel
marrisa
marvene
maritsa
##lago
##cob
##colli
fallou
fallon
hairwash
##ngine
sweetart
sweetlove
criss
crater
cripp
crissy
criselda
crunks
crimson
##kesha
traintracks
exist
exavier
nudge
##cessed
shai
shale
shaur
shaft
shaves
shallow
shalynn
shavonne
shamya
shaundra
shamyra
##astion
veil
venda
veldon
dogbird
dogtape
sleepies
grain
grager
gracia
gramma
gradey
squeek
squeezy
squawk
fivehundred
jumprope
peow
pend
pecks
peggie
peered
pecan
pecola
peyton
mates
matoes
tickity
maddy
madam
madina
madison
madgel
madda
maddie
madolyn
madelin
madalynn
madalene
madelon
madilyne
madameblue
##bbler
mmmhh
mmmgood
numbering
numberoftheday
dayan
dayton
daylene
dayami
daybed
##otta
##otts
broth
brocolli
milo
miloh
milah
milton
milaya
milano
military
monie
monies
monya
monita
monora
monzer
monroe
monquie
meanest
sidekick
muchacho
poll
poley
pocus
pollie
poached
schoolhouse
schoolmates
enh
enes
enid
enun
enos
ency
enza
ensure
enola
enters
enoc
enmanuel
enoch
enrique
##phen
##phine
##phyll
##phono
##phrase
ciro
cirilo
milkies
standup
newt
newton
newman
raul
ramming
raison
raud
raif
rashel
rambling
rashawna
raoul
raizel
builders
joei
joeanne
buddie
buddies
gara
garin
gareth
garci
garnie
gargo
garlin
garlan
garnell
gargling
legal
breaked
brealynn
dina
dinners
##usa
##usu
##usuf
processed
rungs
runned
lovelle
loveleen
appear
apply
cramp
craige
craisins
breakthrough
partick
partridge
horri
horiz
rollo
rollie
boof
booby
boone
boobie
boohoo
toysrus
faceup
bari
barry
barge
barri
barked
baruch
barrie
barbar
barbra
barthol
##toys
##toise
puzzlepieces
birdfeed
##igglies
hated
hatches
hatching
hatched
hatchet
##merized
##mermaid
earlie
earops
earline
earmuff
starling
starlynn
file
fivethirty
elene
eleanor
eleanore
bedie
bedhead
painty
messi
messym
madelyn
madelynn
madelene
grandmat
sanding
sandra
sandhill
sandtoy
elmore
elmosnacks
##ontre
##ontea
##whoop
walkies
wooly
woozy
woozles
foodfor
##arko
##arkatthet
##boa
coldy
coldies
funnylooking
wobbling
wofford
##naut
lighthouse
lightbul
lasts
lasted
dex
deme
deone
dema
deion
deana
decks
devor
deird
decl
devi
dezi
deante
dexton
deyan
demaria
deidra
dewayne
devonna
debria
devora
deangela
devynn
deinony
demolish
skis
skar
skittle
tek
tej
tees
text
tevis
teonna
temit
teyana
teodora
missk
missile
misspet
missden
missions
missincredible
misspam
misserica
missname
missmor
missjill
missalice
hungri
amit
amill
amuse
amna
amary
amira
amire
amaya
amiyah
amrit
amador
amethyst
owens
owynn
ducked
duckyl
##baum
kein
kemp
kemi
keva
keoni
kemper
keiko
keidra
keiera
kebba
keziah
keithen
keyauna
##sicle
nightcraw
nightdress
eggy
eggie
##ewedahl
napole
kittytoy
kittykat
duaine
dushawn
duvet
dujuan
##bern
##berty
##berian
##bergs
##ayona
batt
bates
batting
chickchick
phile
phuc
pheo
phelan
phrase
phooey
pharrell
listo
peeha
peeked
##keyla
sixfla
yumi
yums
##mancy
##manned
##hav
##have
##haela
##haiden
##hassan
gleen
throne
farh
farney
farron
faraz
farrah
faragus
farfetch
pake
paula
paull
pacies
pavement
pachysandra
pampers
icepack
iceberg
icebergs
realizes
##ushi
##nings
garbagecan
pennel
firejohn
fireperson
airi
beings
choosing
choochee
##riq
##rien
##river
##rial
##rios
##rious
##riffith
endive
##fefer
##femia
beeper
##irtydog
busdriver
sunni
sunrise
buttoning
friendshipday
poppers
poptart
poppins
badtzmaru
highest
highlights
stephaun
rockie
rockisland
rockandroll
peekayou
peekamoo
##ichael
##isters
chickenlicken
forgets
unh
unp
unice
unicycle
unbirthday
unatt
unlike
unbuckle
unravel
untying
unmanned
frost
##arey
##arees
##arelli
catchphrase
gabriana
gabreal
gabrial
idan
idamae
idolina
buttery
winners
winneth
##achi
##achup
##achugg
samella
smud
smuseum
smriti
winds
windchimes
choir
chocy
cholent
armon
armies
armoni
arminda
hopes
hoppity
oooie
secondary
##endance
grandmaher
grandmaphyll
greatgr
horseoft
stray
strider
straton
stratton
##osaurs
bubbly
hangnail
brownbear
acts
actor
acted
gentlemen
banister
untangle
untangled
kido
gabbythe
birthmark
corns
cornell
cornstar
pigsty
rests
rested
restart
restroom
emery
emilly
emri
emory
emari
emiko
emiley
emilia
##plank
##platt
blackboard
blackbeauty
tomia
tomisha
tomomi
tomandjerry
##zey
tvs
##ogy
##agame
##agree
##agail
cones
connie
concha
conif
concepcion
conrado
snowbear
snowboard
snowghost
raine
rainie
dinosaurtrain
sevens
sevensea
seventhirty
##skine
##columbus
bunnybook
swingading
pretended
tenika
straining
dumpster
birthdays
birthdaycake
parth
parad
parfa
paramed
parmis
##otha
checker
dady
damas
dapper
daiya
daiv
davier
dailan
dalyla
daanish
dammit
daredevil
fingerprints
nae
navi
naeem
nakie
najae
nakoa
nalleli
nautica
cookiesheet
cardin
cardigan
fond
foster
fonda
foamy
##amesh
poohbah
##cience
bien
biza
bijan
##ristina
##ristmas
thanh
adin
adan
adop
adell
adair
adelle
adiana
adrin
adeline
adessa
adrina
adem
adrion
advant
advert
addelyn
jaf
jale
jass
jael
jared
jakey
jalyn
jaci
jaime
jalynn
java
jaka
jacie
jaque
jaza
jaire
jako
jakie
jadyn
javier
jaquan
jaqua
jaali
jashaun
jammi
jawaun
jaidon
jaisean
jawuan
jajaira
jaicee
straighter
teams
teagen
teague
teairra
teagyn
##inash
trev
treve
trella
treva
trecie
trevis
tresa
treshawn
trevion
trevian
trenton
trestin
trezure
spinnie
spinosaurus
markee
markos
markiya
markav
layth
layton
laymon
laycie
layten
laylar
giver
giordan
gibber
gijoe
giovonni
gizelle
patry
patsie
patches
patrina
pattie
patacake
##olis
##olee
##olie
##olos
##olito
##ology
jacklyn
jackey
jackrabbit
jackandthe
jackthecat
sistergrace
monkeybars
edd
edla
edlyn
edder
edmon
edwards
edison
edrick
educ
eduardo
edoardo
perl
perry
perro
permelia
percell
permission
perseus
shakelia
christe
christen
christian
christoph
christella
christene
christena
christianna
christinia
christening
christobal
gaw
gav
gael
gaila
gaige
gavino
mixa
mixdy
miximo
##ierm
##ierachel
slows
teethies
8211
beaux
##masaurus
##eyn
honi
honor
honora
liona
mrh
mrd
mrc
mrsk
mrmar
mrworm
mrskin
mrcruz
mrmagoo
sharen
sharene
sharelle
peachy
trivia
##cyn
##cycles
belia
makesha
mustn
chocolatecake
chocolatechip
loudly
loudest
warner
warthog
##zypoo
meowed
flowerpot
scab
scaffold
##acinth
desido
desarae
deshawn
clickers
##iedoo
##lings
eris
erie
erven
eria
erina
eriel
erron
ersel
erline
errin
ermina
ermal
errand
erminio
erskine
tailor
rubye
ruba
rudi
rustling
rumba
bottled
draven
dragged
candyce
matters
dingo
kidsatthep
teddies
breads
breadsticks
magar
magically
magoozi
##resse
ewell
##ughty
install
quicker
wondertwin
##iffer
##ifford
##ifferent
halfhour
grasses
whoopsies
##ebus
apost
aparna
deli
delon
delton
delmer
delmas
deliah
delsa
delila
delinda
delbert
delissa
delsie
delaine
delshawn
delonte
delano
delmus
delores
delberta
delois
delsin
deleted
delaynee
##umbia
stinkies
skya
skyler
skyleen
##working
##words
carrotsicle
##alejandra
wheelsonthebus
teddygra
teddygrah
##urtles
charle
charla
charli
charlet
charmel
charity
charlena
chariti
charlye
charrise
moneys
growls
monsterinc
rounder
rounded
santo
santana
santina
santez
santagame
dishy
dishie
choochoochoo
burl
burd
burk
burst
burper
burdella
thoms
sadie
sadia
sadae
sadarius
sadako
salome
salon
salote
salomon
salmaan
warms
warming
##rated
stevon
clockwise
##mien
##miyah
sprouted
##unda
##undria
noisemaker
sharer
sharla
sharlyn
sharron
sharissa
sharleen
sharvil
buckley
buckling
strongly
##incere
diseases
discolored
disagree
##monkeys
##yaan
twentyfif
jumpingjack
learns
spacey
thomasina
thomasabc
figs
bellyache
bellyeater
speghett
capri
capricia
caption
comprom
mismat
missthing
misbeha
##guy
##guadalupe
mooo
mooney
moosey
moosie
pillowcase
##unte
##unta
cliffs
cliffie
dribbles
dribbling
specialk
##boots
##liberty
icecreamman
rimmer
riya
seated
##clia
##clara
icecreams
icecreamcone
dari
darr
darl
daran
daria
darik
darren
darris
darrell
darcel
yogurts
##bran
##bride
##brite
farmstand
liftoff
heartshaped
suraya
surabhi
##yloosey
curds
curling
curios
lui
luster
lucer
lucia
ludie
luiza
lukah
lucah
luwanna
ludwig
lucretia
rabies
rabia
##arial
##ariza
ooky
oobi
excelent
precar
prevent
preston
previous
tigerlily
##frank
##fried
bumpers
##ymere
##ymuseum
##ymcguire
stickybun
darkest
tightrope
##izen
##izers
papel
papara
papaya
papierm
superd
supervis
##bowl
woofwoof
lino
liner
linsey
##deo
##demaria
bugsbunny
jellywell
wiggins
kael
kaiah
kako
kailo
kailee
kalli
kammi
kaelani
kauan
kaidyn
kaimani
kaavya
kaveh
kazzandra
auntmarie
auntjoyce
auntcin
auntellen
auntcecil
auntiede
auntierachel
softscr
helon
reaches
ruben
##melinda
tyou
tyke
tyon
tyce
tylyn
tylen
tyron
tyesha
tyrel
tyshia
tymothy
tyresse
##pray
grabs
grabiel
brady
bralon
braxton
braelin
bradley
##affe
ryan
ryann
rydell
keyla
keyari
keysha
keylen
keyoni
keydon
keyshawn
keyontae
keychain
ladle
ladar
ladon
ladora
##joel
##joanie
fillilng
atticus
attempt
attendance
princessandthepauper
princessariel
princessbride
melane
melina
melisha
melaine
melvina
melvyn
melaney
melville
computadora
##ynleigh
swift
pinkey
bobs
cerealboxes
desirea
laps
lapiz
##crayon
soupy
zebedee
zebadiah
##ofs
##ofch
##ofum
##ofamerica
##ofliberty
##daeus
##jammer
##jacob
johnn
johnette
johnsie
johnjohn
johnathon
sif
simmy
simmer
sivan
simmie
sirena
sifting
siyona
siberian
seanpaul
seanpatrick
telephono
fullhouse
peeps
stacks
rhet
rhea
rhian
jeanne
jeorge
jemarcus
sugarama
michell
micheal
michelle
michella
antion
antlers
antwaun
respon
reshard
##ddie
doctorka
doctormari
doctorkim
doctormalia
geo
gean
gevor
geordan
geesh
geometric
mickel
ugo
##fisher
##fishing
signed
signature
##lieb
##anias
muddle
contrell
controllers
rowan
rowing
rowdy
##gold
##vaan
##vavoy
farmermary
farmerpick
farmerinthedell
media
medals
medora
lando
tweettw
hooking
##ablego
addis
addonis
triplets
squirrelly
seara
pointa
cupp
cully
cuidad
##shaan
##shall
persons
shortly
shortcake
shortcut
corry
corby
corina
corky
corleen
corks
corinn
coralynn
cormac
corrine
corinna
tiedye
##them
##theice
##thegr
##thegreat
##ishai
##ishawn
artina
##soap
##socean
uncleandy
uncleken
uncleanthony
unclepat
unclenathan
uncledude
unclefrank
backpacks
lucked
breona
breather
brenton
eleventhirty
freezep
lockers
thirtyfour
thirtyoclock
thirtythree
livingston
timberto
timithy
piggytoes
remn
satis
sharktales
sharkatack
fanchon
merr
merton
merrick
mervin
mercades
##actoe
##marvel
##cones
##consin
pretzelstore
pasty
toeing
calbert
calista
hamsters
hamdi
hippie
dustan
duston
dusten
raised
policecar
##ineta
whooped
whoopwhoop
intense
integrate
##ophop
leafy
leafs
barnum
barnard
barnabas
pedro
pedram
pedicure
dottie
rosi
rosie
rosco
rosina
rosann
rosanne
rosabelle
rosaura
roscoe
kene
kenan
kenith
keneth
kenlyn
kenni
kenlynn
keniyah
kenji
kenidee
vandy
vaniah
robet
smartie
tubing
sammye
whalen
magiccard
misterbig
##cielago
classie
furious
lilburn
excellente
##umptious
jenell
jenice
jenine
jenne
jenia
jenise
jennie
jenya
jenette
jenetta
jensen
jenave
jenaro
jennae
jenesis
jennings
couscous
easton
easterg
pearce
pearline
##ronomer
beata
beats
beatrix
angeline
angelia
angeleen
roars
secretarial
belonged
nicked
nickola
nickole
nickolas
gorden
regain
regena
bellarose
toothache
toothfairy
jaya
jaylie
jaydin
jaymie
jayvion
jayelyn
jaylani
##birdie
kleenexes
visine
vision
hillery
hilliard
symon
syann
syriah
symmetrical
##rielle
norval
storme
matthieu
bunched
screwer
beginner
gymini
gymshoes
chera
cherl
cherice
cherrie
cherisa
cherisse
baseballs
squirrelies
##oveva
##hoe
##hold
scoopie
jesly
jeslyn
jesika
jessenia
diper
##doodle
##inkled
chinny
chinmay
chinatown
mirrors
fenced
recopy
oceanna
ocelot
angen
angella
angler
berk
berish
berne
berman
berak
jamin
jamille
jamisyn
jamillah
rinsed
takeshia
michaeline
michaeljackson
kimmy
kiaira
kieren
nutcase
stirs
stirred
walton
walgreens
extinct
jasie
jaslyn
jasmina
ovens
alphia
alphons
alpheus
spreader
sharpies
alean
alejo
alecia
aleeta
aleera
alejandra
alejandrina
vietta
vienna
vianey
vibration
vianka
vikings
##akira
##vanny
shelley
impalas
##cheerios
samie
samia
samira
samanta
samuell
mrsun
mrsju
mrsbar
mrsname
mrsjan
mrsnake
mrsfarmer
mrsducky
mrsgock
mrsfisher
janes
janise
janina
janyah
janella
januel
jansen
janayah
janitza
janhavi
pssh
##torshot
abcfishing
trayton
saltwater
terre
teria
terance
terrell
terrin
bonny
bonnell
bonfire
wilder
wildanimal
stepsisters
corda
dougherty
cassy
cassiel
muffler
directing
vegetarian
rubbed
rubbish
peterpark
oceanarium
simona
simpson
##cual
##cupped
freida
jeran
jerome
jerra
jerik
jerami
jerzee
jermall
jeramey
ridding
ridwan
telisa
henery
scooted
auntiemay
auntiejulie
auntieisabel
##ruz
##peas
##alai
queenfro
peppermin
easterbasket
zoila
zollie
ahhhh
laurine
lauryl
laurance
lauretta
lauralee
remotecontrol
katz
katona
katrina
katti
katricia
karle
karry
karma
karine
karla
karlyn
karley
karron
karmine
karlos
karlei
smileyface
##sae
##ension
roadrun
betweenthel
popcorns
thirteenth
digna
fatimata
jaret
jaris
jarrin
jarquavious
kayoo
kayle
kayce
kayton
kayna
kayak
kaylan
kaykay
sarita
tentative
taya
tayna
taylin
tayler
tayvia
childhood
childproof
scarey
shylo
spankings
ayla
ayman
ayri
ayala
aydri
ayode
ayriel
ayinde
ceci
ceanna
ceclia
dealing
janeice
janeka
powwow
swallows
khy
khar
khush
khalee
khyla
khylah
khyaire
kingerlochcamp
yazen
yailyn
##ledge
##ledonia
leaner
horseshoe
gerri
gerda
gerhard
germain
##iyai
flamenco
larger
larson
laroy
laraine
powerbar
powerpuff
##rums
snuggles
glada
spongebobgop
spongebobsquare
hooves
hoorah
hoothoot
hornets
raysha
raylene
rayleigh
rayfield
raymie
raychelle
raymund
wrestler
rexy
bulls
decorian
serves
seraf
servant
serinity
##wafer
torry
torture
toria
torris
tormenting
tortoise
shera
sherre
sherree
sherlyn
sherita
sherwood
sherryl
sheridan
sherrilyn
sherronda
mushing
filter
filiberto
candis
candidcamera
candelario
passies
genug
genna
gennie
genelle
gengh
genoveva
lowest
voila
volpix
bendy
scrapes
scraper
scrappy
cindee
cindrom
hayes
hayward
haylie
haywood
stringy
valente
valentino
ashes
ashby
ashlin
ashiya
ashok
ashanti
ashunti
ashkan
esmer
esmae
esdras
flora
florina
floridap
flordemaria
silvester
silvest
tanks
verb
verl
verle
verona
vermon
verlin
verlene
vernell
verdella
##ibh
scarves
scarlotte
soccerzone
gardenia
annis
annas
annalia
annabell
burnice
webster
##aroof
rossy
counters
disneybook
hanaa
tearra
logann
logroll
kimi
kimara
kamry
kamil
kamia
kamara
kamoni
kamika
kamrin
kamarie
kamilia
osias
osualdo
gooseyloosey
aideen
toilets
benito
benzion
marylyn
maryann
maryetta
maryhe
marypat
indee
indeed
independ
indigo
lori
lords
lorri
lorina
loretta
lorrin
lorilyn
loretto
lorrene
lorraine
lorretta
lowering
woodie
woodward
woodpile
deny
denee
denell
denice
denese
denzell
denmark
##stones
franck
frannie
franches
francess
naughtiness
elli
eller
ellis
ellee
ellon
ellice
ellena
ellias
ellington
ellarose
ellsworth
ellanora
swingset
leno
lenea
lenord
lenette
lenetta
lennex
lenora
lenient
lennon
neriah
nerissa
rosey
rosene
roseanna
roselynn
roseanne
rosenda
rosemaria
rosevelt
sonnie
yuma
yuki
puffin
puffpuff
clayton
gassed
##cupied
junky
mussel
ragan
lordlicor
ninnies
nineties
ninetails
hunk
stephana
oppon
##iente
costs
crumbling
violette
avere
avani
avram
avayla
aveah
avatar
avinash
feathered
female
feisty
koa
kole
koby
koree
kobi
kollins
kyren
kyrah
kyrese
kymberli
prescott
##ivated
lolli
kittycats
groomed
ghostie
beanie
duckiebook
rewinded
fredick
fredda
fredrick
lyd
lyana
lyman
lyanna
lyrick
lyza
lydon
lyllie
lyriq
rattling
vitaminc
floated
flossie
separating
draga
questioned
banks
evva
poodle
##fering
herschell
deerica
freshman
pacific
cantasuarus
diezel
jamesen
jamesanthony
##rupt
whispered
dorth
dorice
dorann
dorky
dortha
dorsal
shadi
shrektwo
chanah
chances
channing
channie
sarahjane
crows
derin
deran
derika
derinda
derwood
derail
firm
halley
motorcycles
reasons
collie
collins
collier
collars
collages
collision
collections
alexi
alexx
amare
amalia
amauria
amahri
audrea
audrie
audition
bertis
bertram
ferd
ferby
ferrell
ferns
jewett
lata
latter
latia
latise
latron
latasha
latavious
latiera
latiesha
latrenda
mitts
##flip
##anesha
golfing
menards
shawne
shawnie
shawnese
shawnta
weekenders
drivers
emmit
emmie
emmitt
emmett
emmory
emmette
emmalee
pascale
pasadena
pascual
smoky
smokie
##obi
##obus
##cute
cockroach
buhbye
buhdra
grayce
grayson
georgey
georgeanne
billbugs
natiya
natania
nataly
natass
##relli
talisa
talitha
anaisa
anabel
anaiya
anaijah
flakes
flapping
firemanjoe
##ustrated
jones
jonisha
rodr
rodger
rodney
roderick
rodolph
rodnesha
##allize
##mataz
##matical
sweaters
desta
destan
deston
destry
destruction
meta
teejay
jesuschrist
irven
ireta
irulan
irongiant
lynx
lynea
lynne
lynna
lynnae
neta
wilton
wilmar
wilbert
wilburn
zama
zaiah
zagging
zaeem
zaquan
##kiing
bushy
completed
mariha
marija
darnelle
muffinman
hidea
josede
joselynn
josemaria
msruth
msfenay
baaah
baaaah
solana
soloman
chicaschool
diapies
jeanie
jeanine
jeanett
jeanelle
jeanmarie
hyena
hyrum
hyacinth
keli
kelee
keland
kelby
kelian
kelso
kelcie
kelvin
keliyah
kelwin
nicode
nicolo
nicanor
##hams
hollee
fiftyeight
fiftysix
bouncieball
tarp
taran
tarah
tarri
tarina
lakelyn
confuse
confident
bzzt
colon
colins
coletta
colada
columbia
wolfy
captainmarvel
bryant
bryon
bryce
bryanna
bryannah
brynna
brycin
celie
celine
celia
celita
celso
kathia
kathleen
oyvavoy
tati
tatianna
tatyana
##howto
##etail
stitchy
clipclop
jacen
cybill
cybil
cyniah
cyrene
nananans
posing
tucker
tucking
##ific
##ghen
##heh
##beef
shamar
shamari
shamiah
shamira
sistersister
damiano
damoni
damiya
damaya
damien
hicimos
hiccupped
rami
ramsay
ramiro
##wolf
maxine
maxene
maxwell
chestine
carleen
carlina
carletta
carlota
posture
postman
booties
scoobydoobydoo
millena
milliana
olivier
olivya
pantle
rascal
rascalf
##thebear
marshell
marshal
glossy
normalee
shadows
tuesdays
felice
felix
felipe
felicia
gunny
gunner
gunnar
keron
kerman
kerrick
kerrigan
kerchak
louanna
louetta
louvenia
mows
obl
obedient
obaloluwa
senora
senior
wands
wandered
##comes
wendel
lizvet
lizandro
subt
subway
potatoheads
sidewalks
correne
creola
created
creamed
equations
lindon
lindsie
lindalee
lindwood
xyler
xyloph
thicken
bratty
racers
racine
connorjoe
dvontae
jahna
jahari
jahmar
jahkeem
palmer
tests
tested
tshirts
##heroes
thousands
angele
angelyn
angeli
##adaisy
cherrypick
correctly
kalie
kalab
kalman
kalaya
kalob
moroni
morriah
moroccas
marti
marten
martians
mathis
mathew
mathias
nyron
nyssa
nyasha
nyomi
nydia
##iyi
##iyan
##iyon
##urnal
ordinary
camari
camesha
camdyn
camilo
camillo
camcorder
joyann
joycelyn
sewed
oscarthegr
azul
azary
aziah
azora
azariah
azaylee
ambra
curtiss
hipolito
doobie
stealer
benches
leashes
expanded
expired
exposed
exploring
unicorns
disguise
georgi
georgiana
nineteenth
nineteensix
nineteenseven
astor
astronomer
deepika
johnt
johny
johnie
johanna
johanne
johathan
johannah
jessi
jessica
jessika
jessalyn
jessamine
paths
pathway
tanner
tanzania
tooted
tootsie
heats
##versary
##versity
alyce
alysha
alycia
alyssa
alyjah
alycea
holton
holten
diningtable
designed
charlton
charlise
charlisa
charlaine
surfboard
aksh
akil
akio
akeem
akshay
aquan
schyler
schmancy
schristmas
titles
titirachel
valera
valjean
goober
scotti
montie
montina
jesselyn
frazier
lonny
lonia
lonette
lonzo
ssquelch
tummies
tuxed
##genia
malea
malva
malika
malicia
malays
malissia
safina
safiya
barrington
teamwork
cantaloupes
estell
estel
estella
estrella
esteph
emaline
fieldmouse
virgel
fortunato
mommabear
splatter
lazytown
mattison
dalisa
dalila
distance
jivan
jibril
jeremi
jereline
lanee
lanie
lanier
lanessa
velva
velveteenrabbit
velvety
dominique
referen
refugio
barefeet
lilypad
shelton
shelbie
shelbi
clarisse
clarrissa
brandolyn
brandnew
leonce
leonell
leonard
leonia
leonette
leonarda
leonidas
lovings
devil
devine
devion
devonte
gabrielle
piratesofthe
copies
dwyne
dwarves
micah
micael
shalee
shalice
shalia
shalisha
shaletha
belleville
makya
makda
albin
alban
albana
albino
albany
albums
hunting
huntley
salem
protection
protecting
redsea
erikrydberg
muriel
murrell
murcielago
yareth
isaiha
stirrups
antonino
antonella
twinklestar
seventytwo
poohbears
kristia
kristeena
kristofer
tanti
cashregister
transplant
lamps
cathlene
cathrine
catherine
temperamental
dashan
dashon
artists
steaming
wednesdays
mikal
mikiya
mikyla
nichola
nichole
nikita
nikki
nikkie
niklas
otters
otilio
##blay
##blower
halana
halton
halbert
halima
alfons
alfonza
chamber
chased
chava
chapped
annalynn
annaka
annaleigh
annakate
annaclaire
hollye
hollywood
grahams
tennisplayer
rudolf
instructor
deputy
depression
gilmore
retreat
retarded
romie
rommel
##leengin
islandofs
reception
chuckles
timmytip
lakyn
lakota
kazuko
kazuki
jasoncoe
dragontails
imaginex
augustina
augustino
aravis
arabell
arabella
caylin
ponce
ponciano
ronee
ronny
ronni
ronya
shrink
shrunk
shrivel
eliot
elijah
##friends
bumpyjohn
aarron
dyon
dyed
dyane
elya
elyon
elyce
elyna
elyanah
hanamar
jalan
jalil
jalana
jalessa
jalaina
kellis
zelda
squashing
squashed
strangelooking
fruitsalad
englishmuff
uhuhuhuhuh
koolaidjammer
assign
assuming
billybug
deaven
deavon
deaira
mikelle
mikemike
mikenzi
odella
odilia
prajwal
prairie
##flagg
stairway
staircase
striking
strikes
lettie
letticia
blondell
clovis
clovers
caroleen
babysat
babysanta
daniell
marcelene
tickytoes
activate
continuous
submarines
aldine
glenys
glennie
glenford
glenwood
pinecones
sleds
sylvia
sylvania
terell
teresia
zakia
zakhai
zakkai
##beam
##ussin
shanan
shanley
shuffling
shuffler
bently
bentley
bentzion
blinding
swirlies
princella
princeeric
lavone
lavona
lavita
lavetta
dialup
susette
susannah
lightningbug
demetre
demetric
demetria
demetrice
demetrious
tyrone
tyrisha
peanutbutterandjelly
fooling
gwyn
gwynd
mirha
mirtha
miryam
potties
sanjana
yoyos
##hhh
renee
shantay
shantaya
shantrell
shantae
lillianna
casch
cassey
beautyandthebeast
mistaken
autrey
autoscope
autobus
emerie
gaylene
gaylan
gaylon
gaynelle
gaylord
shaye
shayana
macayla
julaine
julieta
chesney
chunks
analicia
analuisa
##aphone
printed
sniffling
pauletta
addresses
kennan
kennard
kennidi
amye
amyr
jadon
jaden
jadeyn
lesli
orem
orene
randie
vaseline
##dination
julyan
julyana
molls
mollee
waterskiing
bostonpub
##robot
fabiola
roxi
roxann
roxanna
sabree
sabotaged
lawanda
lawyer
lawrence
lawernce
cristin
cristen
shakea
shakala
shakila
veggiecheese
raeann
raeanne
dumptrucks
jaziah
jazmin
jazmine
ringaroundthe
tweetiebirdie
courtland
benji
benjman
disappears
victorine
victorino
momento
coconuts
deeann
dunya
dungeon
dameyon
kinzy
kinya
kinsey
kinleigh
kincade
kincaid
meals
vaughn
vaidehi
wyman
##flyer
interfering
julien
julietta
juliene
joshlyn
joshwa
bridle
laurel
laurent
quintez
quintilia
cruiser
newsprint
adriane
adriann
adrianne
adrienne
adriyanna
lincolnpark
tubbycust
measurer
skateboarder
skateboarding
rhinoceroses
dorothye
bayley
baybridge
bayyinah
detangler
izamar
jedi
jillaine
jilliane
jourdyn
mcnugget
mandie
naser
nasya
nascar
ricki
richmond
ruthy
ruthann
##littlebrother
##footright
tonnie
tonja
tonka
tonnya
wheatfield
doodies
shushing
baboons
backhoes
##iloba
marquis
marquita
jaevon
rosalinda
unlocked
positively
objective
objectives
explaining
firefighters
statueofliberty
aryn
aryah
arynn
aryssa
croak
crosby
croaking
hilaria
hilberto
nibbles
nijel
naysha
sigmund
sigifred
zayin
##kittycat
nonon
nonny
hammered
megahn
macken
mackenna
mackenzie
chrisoula
josiah
joslynn
joscelyn
britta
brittan
britton
guarding
margot
margery
margene
margurite
teddybears
emmajane
josephine
hydrangea
teaspoons
232me
elder
eldred
eldrick
eldonna
heee
tanga
tangala
zookeep
zachery
zachariah
##ocate
##stools
mahlon
mahalia
masked
masaki
masayuki
mauri
maurisha
tashe
tashia
myrna
myranda
myrta
trapdoor
lamona
lamonte
crusty
squidward
template
christophercolumbus
heavenly
jennah
scarecrows
lynnette
jeepers
korie
korrie
korrina
korbyn
karey
karel
kareen
kareena
kyler
kylee
nadeen
nadja
nadiya
yanel
yancy
yanette
yanitza
##atte
##attoos
##anova
dominga
rebeck
juniors
tamir
sophea
sophia
anniemae
blanche
blanchie
brule
florene
lavern
laverna
laverda
marlise
marlina
marlinda
cristy
cristhian
bedtimebear
philip
philofthe
philjackson
unique
university
consuella
considered
jamal
jamaul
jacobo
jacolyn
peaceful
saturnino
francine
jacquelene
jacqueline
tyrannasaurus
southeast
dimas
ett
etty
glori
glory
greek
greeks
homero
hometown
ilir
ilana
ilona
imad
imari
sidra
tinley
blastoff
britney
arrived
arieh
arieona
slurping
slurpy
lashayla
cheaters
lollypops
quinter
mariaisabel
boxcars
kendrick
kendric
adventures
jakelin
christmastime
claudie
claudina
seasoning
##cussion
vernon
vernice
breezy
dived
eeh
galeez
krisha
leeann
oakdale
##cencio
##eshon
repeating
strega
chills
cheepcheep
option
margarette
dakhari
jakim
jakub
jakki
spoonfuls
pigglytown
lucyann
lucygoo
sydne
sydnie
sydnee
walterine
francesca
francesco
pyramids
ameer
ameera
ameliana
amedeo
freaks
geneve
genevive
illiana
illustrated
jsiah
jorge
joretta
jorja
jordyn
kadin
kadian
kaddish
krystal
krystiana
krystalee
lisanne
munchies
nathanel
nathanuel
tiler
vrooom
vinny
vinton
vinita
vicki
yasin
yaseen
yasiah
##ullah
hahaha
shiro
shaheed
shahab
shahira
stapling
stewart
judgment
anjela
jollyroger
eliseo
ariat
ariane
arihaan
arlow
arliss
arletta
ardis
ardelle
lavaughn
lexis
suzette
harmony
hairspray
shaquita
shaquandra
rafat
rafaela
ralphie
ralpheal
barbiedo
demand
demia
demont
amarion
amarissa
amarillo
jazzalyn
thomasthetanke
auntiesusu
generation
lyndell
fernando
virgilio
heffalumps
avaree
avamae
available
bethany
bethaney
drelyn
drexel
epif
ezra
ginette
ginelle
ginamarie
gangbanger
gangplank
jabray
kasch
kasiah
kolt
kolter
rapid
raphaela
racket
rackets
urbano
weaving
weaves
##puppy
##beds
##leary
theodore
theodora
weightli
issue
issabelle
shift
shimmer
shivan
##thetrain
kneaded
malachy
malachai
motivated
royel
gustaf
travels
mansfield
dietrich
wolverine
technique
unloaded
damarea
charleston
charlesetta
freckled
celestino
imagining
majorie
auria
athan
daphnie
fiddler
gyasi
jamelle
kiera
kieran
kieron
kiersten
kashmere
namish
oral
oradell
treadwell
ulani
ultra
weslie
xrays
zigzags
theron
gogablego
dontez
hehheh
mechanics
aliene
chloee
tiffiney
tiffinie
arnita
arrival
prior
privile
trampus
launching
levern
lorence
lorenza
sumiko
unitedstates
crystals
crystallize
navada
mrroger
khaliel
khalilah
gumdrops
irritate
irritating
jacqui
aislyn
dellie
dabney
ellamae
esteven
ffff
jorden
kirk
kirby
kentre
katelyn
kortlyn
kortni
kortez
kaleigh
lurlene
modern
modesto
nelly
nellie
nuha
teepees
vonn
vonc
vonnie
vonetta
villains
zuri
thorin
thornton
gobot
hassler
rental
##sthumb
staining
stacee
stacia
studied
students
##cherryo
cheney
chenoa
chelsy
chelsae
antolin
antoinetta
bluish
josiephine
spirals
situated
printing
dionicio
diagonally
diagonals
shaunessy
milkshakes
razmataz
bowwowwowwow
davona
javaris
magdiel
charmain
scooperupper
annalu
annalisa
annaleah
annaliese
boogityboo
marcellous
marcellino
interrupting
terrifictra
oluwato
oluwase
axe
corynne
darya
daryl
daryll
daryle
ethaniel
ellyn
ellyson
kachina
kynzie
lalaine
mateo
pitiful
rushi
rushing
wynona
zarin
##ovanni
reyna
donnika
bassoon
tahja
tahara
molds
organs
hermano
hermann
bobbooks
faustin
faustine
tierra
brooklen
brooksie
eliazar
savannah
maneuver
lorene
lorelle
dannelle
graduating
rakim
rakiyah
rakeem
raindrop
barfing
adelita
mrtiger
describes
healthiest
martinluther
nichols
rebeccah
centipedes
unfortunate
amberlyn
aaaah
averyana
cynitha
cootchy
duron
durwin
durwood
eufemia
eulises
eulalio
evamae
ickies
jacelynn
kessel
keshia
mikaelyn
nimrit
nimsi
persuade
reef
reeves
route
rikiyah
sippies
troyce
variety
vashti
vallie
yamilette
zoran
zorana
zamari
##mcguire
##mcgraw
ohohahah
donavin
sheryn
shaneil
beverlyn
bashir
allrighty
juanmanuel
altariq
alyson
chalice
cosima
carolene
rondi
rondel
brigit
nelsy
sahar
trudy
gregery
gregory
lamarr
workbooks
queso
marisal
marisol
##coloringbook
##colorfulworm
garret
garrett
garrette
garrison
wonders
delora
delorse
deloria
delorus
emilio
emiliano
daeja
dawna
mrspickle
mrspotts
ernestine
apricot
preferably
rosamond
frenchfry
accordion
accordian
cindyloo
maximino
maximilian
tinkertoys
refresh
mckinley
mckinsey
mckinzee
gwenn
community
vincentina
aeriana
avalon
auther
authur
barton
bartley
dulce
emelina
flem
fleming
flexible
gurney
hinie
handydandy
labrand
litterbugs
nicolai
omega
serene
tsch
yolando
##topia
##western
thedarkatthet
rebuild
shabreka
shocker
lizzymcguire
##thestairs
##thestation
tabby
mohnish
mohogany
caitlynne
punishment
clearence
spacing
branton
briella
sabriel
pricila
selim
selma
selwyn
divine
scorpions
catalina
danely
nazario
edwardo
gazpacho
mrnooks
deserae
rufino
steffi
stevens
rescuing
contrail
personality
artificial
upsydaisy
syndi
cecilia
evangelyn
evangeline
evangelina
audreana
audreanna
naturally
columbusday
lindenbaum
zevvi
immediate
anjelina
overflows
acrobats
123
aurelia
aurelio
amos
aundray
binkies
dhara
dutchy
evaline
farted
gaines
gained
jinny
kanan
midget
omair
sinan
sinatra
yowzer
##yourhands
toenail
domenico
include
hazley
hampton
renaldo
reviewing
shatia
shatonia
shineka
sherilyn
meliza
kneeling
maleni
tamaira
tamakia
tamarah
tamarion
alcohol
albertus
channels
coaches
joaqu
joletta
##magic
babykevie
roshelle
frisbees
nelva
swisscheese
honeycombs
lezlee
sukkah
suggested
crayton
squeezer
hortensia
define
hughes
dallas
adeleigh
jaquane
gallery
galloping
survived
luciana
flipflop
melodye
rheana
michaele
michaelyn
antwain
antwann
interests
porkch
berniece
directly
diezese
shawntay
shawntez
kathyrn
joycelynn
joyceline
gwendalyn
gwendolen
casimiro
237s
dimitris
dimitrios
multiply
multiplication
communication
mosquitoes
leprechauns
exhibits
pachyderms
responding
audley
ayaiyai
ciena
ciaira
cedric
clyde
clydie
ebonique
efraim
ephrem
evelia
gianni
gianlu
ibn
iraq
jrue
jiggler
jiggily
konner
konrad
ociel
occupied
olaf
olavi
oberon
oberwe
porsche
ruta
rotate
sights
sedar
taralynn
vester
vesna
vertie
winking
yohan
yohance
zohar
##hundredand
##6666
toadstools
noraa
weeny
international
invented
invention
shined
styles
styrofo
stumbler
lizziemcguire
taelor
taegan
aleece
alicen
aletheia
atlantis
playmobil
playhousedisney
humid
cambrie
##callit
##called
twirls
claribelle
speedy
sportscar
sportsmanship
brimstone
##beanstalk
swerps
agustus
tricey
gregorio
travonte
travaris
laszlo
snorkel
snugs
scattorshot
finnlee
grinning
marjory
marjorie
marymartin
marshall
squoosh
raelee
raeleen
rakesha
professional
##bobobobo
delphin
skimmer
amorette
phoniest
phonics
##agrace
dazs
nakya
adolphus
giuliana
periwinkle
ruddy
prentiss
tyreese
wakeupdaddy
jezreel
brecklyn
brently
symphon
chinesenew
kiyara
extremely
kaylana
kayloni
kaylaann
khristopher
yazmeen
microscopic
everette
smokeythebear
shhhhhh
feliciana
azalea
azaleas
invitations
eliasar
curiousgeorgebook
tablespoons
viewmaster
florentina
sculptures
estefania
grandparentsday
cynthea
entirely
boomerangs
ayleen
dilate
dilara
detector
ghoulie
houa
ivar
jarelyn
kreston
kreighton
kramer
kunal
luevenia
nipple
nipples
nealie
ozella
ramey
sqaure
synonym
vomit
vader
wisdom
wisconsin
yatzee
yossef
##dragon
thaddaeus
tobias
##antonio
andrius
canisters
sheamus
shaniatwain
stanford
liberty
liberato
madylyn
alizea
chaston
humpback
hussien
sheyna
anely
buzlightyear
bloody
blooming
ifeoluwa
abuelo
climmie
rozetta
brinley
brinlee
brookelynn
ariston
aristeo
mayraalejandra
samiam
trimmed
leotis
snitching
cheyane
cheyenne
quantez
danyal
maddalena
milagro
rollerblade
unscramble
structur
patricio
performing
christinamarie
octavis
octaviano
corbett
hippityhoph
reginaldo
courtenay
bernabe
cecile
cecillia
raynald
scrapbook
kimberlie
bennet
bennett
monstersincorpor
irmalinda
charlotta
charlottewedahl
schmutzypoo
bridgett
hamburgler
hamburgular
##arfarfarfarf
abdulrah
observe
oluwatishe
aerialflyer
supersuit
supersacker
timothygoest
yachts
##bweebweebweebwee
meercats
splishsplashing
meteorite
egyptian
wwwyou
airconditioner
airconditioning
ammarie
aaden
adayoutwiththomas
avenue
aveleen
aymee
aymen
australia
bohden
citymuseum
dinkadink
ekansh
eustace
effects
grooming
gladys
isela
isebella
ivalee
jayonna
jerilynn
jhovani
ketrick
kairi
kateri
katerine
kordae
kippah
karyna
mieke
mishell
ounce
ounces
olymp
olyvia
pryor
pistol
pistons
pompom
ruchel
sriya
senaida
tanesia
vidhi
vannessa
vergia
yordy
yeni
yuliana
yashika
zhoop
zhane
ziggy
zigging
zephyr
##fifofum
##jamin
whirling
doopie
nocturne
nocturnal
harassing
hauling
andrue
andraya
isidoro
isacc
reinhold
remove
canadian
canadians
hewlett
stubble
mendel
meatex
knobs
mavrick
macaulay
tasnim
sofia
alaric
altogether
chatty
chereos
chugga
chuggachugg
chazlynn
chrysten
chrystal
aneesh
blurr
blugah
herbyfully
pupils
abbott
abbrevi
abelardo
mylissa
sparrow
spools
carnations
fransisca
bronx
eloina
elmwood
samaris
slugs
greggory
praties
pratik
priscillia
trapezoid
travesty
threeleafclo
operator
opossum
opossums
suspense
clemens
scenes
margrette
graclyn
graciedo
fivelittlemonkeys
broadus
broadway
monkas
ravneet
racheal
crammed
earnestine
grandmanut
grandmaname
dejai
demarrio
deondre
demitri
tequisha
amarilys
keanen
chickendance
unrolled
dawson
davied
daishaun
davinci
nakeeta
folks
adrean
adreanna
jalyah
giovanni
edwena
chewybar
delaila
burglar
salvation
##clopedia
onceuponapotty
kassi
arturo
tonguetied
tonguetattoos
aleksandr
trashytown
seraphin
sherrita
constantina
derailed
latravia
wilhelmina
bzzzzz
ignacia
ignacio
johannes
alyxandra
alysson
schuack
ottoman
arasely
araseli
aracelli
harrythedog
harrythedirtydog
lucrezia
joshuah
crispiest
philippa
eugenie
barnaclebill
encourage
encouraging
anastasiya
kristyna
mohician
mohicans
nidoran
hildegarde
xzayvion
scientists
mordecai
exhausted
walkietalkie
walkietalkies
velociraptor
velociraptors
17th
226ch
aesop
aishi
aerobics
blends
beretta
ceara
cesario
ditiivi
erend
eeny
effa
emperor
eagerly
feefifofum
fainted
fontaine
gatlin
gacka
gathering
jairo
janyiah
komodo
kodi
krystle
korynne
litebrite
lissandro
leeland
lugenia
loryn
mckyla
niguel
nirav
pissed
pipers
ruperto
sfirstchristmas
sianney
symone
sonyia
sanyi
schae
tressie
vampire
yisroel
yosef
yitzchok
zephan
##iatou
##breaktheice
thaliya
thorns
##inmymug
doroteo
domonique
itzarelli
onetwo
noemy
##isahose
##ooooooo
hazelyn
hairstyle
andreyus
theresabug
reunion
shucks
shreds
shuntay
baptism
##children
lilacs
uppee
plowie
gottlieb
moisturizer
almetta
alternating
chuckycheese
cherilyn
cherokee
chritopher
hulahoop
shekina
anamaria
anniversary
blossoms
ahahahahah
abrahim
clotilda
carpenter
caribbean
neopet
eliceo
arnav
agapito
saverio
troublet
watercolors
protest
mubina
honeynutcheerios
lagoon
labels
leyna
hihocherryo
dierdre
suffocate
screamed
screech
scattershot
catapult
mouhamadou
headbutting
marysue
marvens
marylou
crouton
crumpled
exeggcute
peatone
brockton
enedina
ravioli
breasts
appetizing
approximately
deovion
decaf
devansh
deandrae
devynne
teodoro
missmargot
amandabitane
amongst
keviedoo
thrilled
snackeroo
unfasten
banananut
blackbeard
consepcion
convertible
davening
naftuli
nazareth
adonai
jakyra
jaedenelise
teacups
videorecorder
rumaldo
quickdrawmcgraw
aprille
delainee
delorean
charolette
sadiq
salamander
disobey
roosvelt
speckly
capitola
competitive
misplaced
rivka
suraiya
lucas
clamping
precilla
forgetmenots
kambria
auntmargie
typical
sibyl
telemarketer
responsible
shorthand
corinthian
jamilet
padraic
roughhousing
gennaro
silvano
annaleece
announcements
kameron
francoise
kyrstie
doratheexplorer
pasquale
talmage
destroying
josefine
jacqulin
cyclops
martinez
mathematical
hologram
investigator
tupperware
dalmatian
alfredo
chassity
sanjna
autographs
interpretive
crockpot
ssssss
zaynab
python
huckleberrypie
reflexes
commodore
homerun
pigglywigglies
illustration
hahahaha
ariadne
looneytune
daffyduck
sippysippy
vasiliki
shabbasdress
productive
landscape
detective
reesespieces
jessiewhitestumblers
jurassicattack
doopydoopy
littlepiggiesgame
overwhelming
sevendwarfs
scrumdiddlyumptious
disconnected
923
achmach
azelya
ageless
avanell
azeneth
achilles
boulders
binder
berserk
biplane
bateries
brewer
breslin
bharat
cicily
coordination
cicada
civil
cienna
dairon
dredging
dreadful
densil
dreyden
dungarees
diction
eowyn
eithel
eshana
emogene
eardrums
embossing
eclipse
furelise
fuey
feyza
ferocious
frames
glenda
gideon
higinio
hiroshi
iowa
illegal
imitating
jousha
jantzen
jicama
jerolyn
kinsleigh
kealii
kimbra
lerone
lithuania
lourdes
lyall
loralye
llewellyn
mesmerized
mearl
mildred
mirta
mortimer
mignon
meredith
mikesha
nixon
ogden
oryan
oboe
oskar
ointment
omelette
oxygen
pimple
pongo
pablo
petted
pietro
pincer
pipsqueak
pbandj
queer
ralston
russell
sneha
siete
serpiente
tansy
tictactoe
uyen
uckies
umyour
uneven
vaporeon
vogue
valeska
wibble
xxx
x12
xitlaly
xzavier
yzabelle
zlaty
zubzub
zerbers
##hadafarm
##sphere
##dvig
##murray
##future
##fingersthumb
##video
thadeus
youaremysun
yousaf
##atwoa
theordore
thevelveteenrabbit
thelittlemermaid
thebeatles
thebearsnoreson
toottoot
whassup
gollum
goblins
dorawear
itybity
nostrils
whatsoever
oklahoma
wenonah
ingrid
influence
inherit
inhaler
haliey
hasenfefer
hackeysack
andygriffith
istanbul
reusable
shimshon
shukri
yeaeyeah
hehaw
hezekiah
heloise
##sthatmakey
bengal
limousine
plumbing
##thishouse
waverly
maleek
macrina
mamoru
maintenance
juvenal
juggernaut
tabbatha
tainted
talib
tablets
tabathia
soledad
aliceson
atmosphere
atatatata
chlorine
chupachup
chirstopher
chumpering
playagain
hubbard
shepherd
aniket
anapaula
whogoesfast
downbythestation
##opofthestairs
orourke
littlebopeep
littlemissthing
calories
casondra
caffeine
##adventures
herniated
overreacting
overtired
overloading
abnormal
abdullah
abracadabra
mydaddyandi
##icturebook
tweezers
twakeupmommy
twakedaddy
bigboyjohn
josaiah
jondavid
spiteful
carburetor
hovanes
officially
fallynn
faviola
robitussin
rogelio
frigerator
brigham
britches
briyona
briefcase
guiseppe
guzuntite
neftaly
nehemiah
nebulas
nefertiti
elasmasaurus
eligha
eliyahu
elisheva
handwashing
handhandfingersthumb
arlington
arboretum
arcenio
swoopydoo
truffles
pranav
pricsilla
drucilla
drbarrows
drkaraman
complex
lasalle
lacrosse
leathia
threelittlepigs
greengoblin
asianae
ascencion
chevrolet
betzalel
locomotive
hiawatha
openclose
dialed
cleveland
cathaleya
##oslava
quaneshia
finsih
harliquinn
grateful
danimals
margherita
crippled
madameblueberry
mmmhhmm
monorail
monzerat
encyclopedia
raisons
raudel
garciapara
gargoyle
horribly
bartholomew
birdfeeder
earmuffs
messymess
grandmatellor
sandhills
deirdre
declaration
deinonychus
misspeterman
missdenise
missmorgan
hungrier
duckylucky
nightcrawler
philemon
pheobe
sixflags
farfetched
paullette
pennelope
rockislandline
winnethepooh
smudge
grandmaherman
grandmaphyllis
greatgrand
horseoftroy
gabbythegoat
cornstarch
conifers
sevenseasocean
swingadingading
damaso
bizaare
advantage
javaun
markavion
laylarose
gibberish
jackandthebeanstalk
mrmarco
mrskinney
scaffolding
deshawna
kidsatthepark
teddygrahams
teddygrahms
twentyfifth
jumpingjacks
compromise
mismatched
misbehaving
curiosity
excelente
precarious
paparazzi
supervisor
jellywellyfish
auntcindy
auntiedebbie
softscrub
response
doctorkaley
farmerpickles
tweettweet
freezepop
timbertoes
sharkatackatwoa
magiccardkit
misterbigbird
jenaveve
eastergrass
nickolaos
mrsjudy
mrsbarrelli
mrsjansen
mrsfarmermary
wildanimals
peterparker
queenfrostine
peppermints
roadrunner
ayodeji
spongebobgopants
floridapicturebook
silvestre
maryhelen
independence
lordlicorice
buhdraf
nicodemus
rascalflash
cherrypicker
oscarthegrouch
tuxedo
references
piratesofthecar
transplanted
##leenginethatcould
timmytiptoes
hanamaru
englishmuffin
peanutbutterandjellypizza
gwyndolyn
bostonpublic
tubbycustard
sigifredo
philofthefuture
lucygoosie
barbiedoll
thomasthetankengine
treadwells
bowwowwowwowwow
terrifictrains
labrandon
thedarkatthetopofthestairs
styrofoam
chinesenewyear
monstersincorporated
timothygoestoschool
chuggachugga
threeleafclover
theresabuginmymug
troubletruck
youaremysunshine
##sthatmakeyoufeel
